{"!": 0, "\"": 1, "#": 2, "$": 3, "%": 4, "&": 5, "'": 6, "(": 7, ")": 8, "*": 9, "+": 10, ",": 11, "-": 12, ".": 13, "/": 14, "0": 15, "1": 16, "2": 17, "3": 18, "4": 19, "5": 20, "6": 21, "7": 22, "8": 23, "9": 24, ":": 25, ";": 26, "<": 27, "=": 28, ">": 29, "?": 30, "@": 31, "A": 32, "B": 33, "C": 34, "D": 35, "E": 36, "F": 37, "G": 38, "H": 39, "I": 40, "J": 41, "K": 42, "L": 43, "M": 44, "N": 45, "O": 46, "P": 47, "Q": 48, "R": 49, "S": 50, "T": 51, "U": 52, "V": 53, "W": 54, "X": 55, "Y": 56, "Z": 57, "[": 58, "\\": 59, "]": 60, "^": 61, "_": 62, "`": 63, "a": 64, "b": 65, "c": 66, "d": 67, "e": 68, "f": 69, "g": 70, "h": 71, "i": 72, "j": 73, "k": 74, "l": 75, "m": 76, "n": 77, "o": 78, "p": 79, "q": 80, "r": 81, "s": 82, "t": 83, "u": 84, "v": 85, "w": 86, "x": 87, "y": 88, "z": 89, "{": 90, "|": 91, "}": 92, "~": 93, "\u00a1": 94, "\u00a2": 95, "\u00a3": 96, "\u00a4": 97, "\u00a5": 98, "\u00a6": 99, "\u00a7": 100, "\u00a8": 101, "\u00a9": 102, "\u00aa": 103, "\u00ab": 104, "\u00ac": 105, "\u00ae": 106, "\u00af": 107, "\u00b0": 108, "\u00b1": 109, "\u00b2": 110, "\u00b3": 111, "\u00b4": 112, "\u00b5": 113, "\u00b6": 114, "\u00b7": 115, "\u00b8": 116, "\u00b9": 117, "\u00ba": 118, "\u00bb": 119, "\u00bc": 120, "\u00bd": 121, "\u00be": 122, "\u00bf": 123, "\u00c0": 124, "\u00c1": 125, "\u00c2": 126, "\u00c3": 127, "\u00c4": 128, "\u00c5": 129, "\u00c6": 130, "\u00c7": 131, "\u00c8": 132, "\u00c9": 133, "\u00ca": 134, "\u00cb": 135, "\u00cc": 136, "\u00cd": 137, "\u00ce": 138, "\u00cf": 139, "\u00d0": 140, "\u00d1": 141, "\u00d2": 142, "\u00d3": 143, "\u00d4": 144, "\u00d5": 145, "\u00d6": 146, "\u00d7": 147, "\u00d8": 148, "\u00d9": 149, "\u00da": 150, "\u00db": 151, "\u00dc": 152, "\u00dd": 153, "\u00de": 154, "\u00df": 155, "\u00e0": 156, "\u00e1": 157, "\u00e2": 158, "\u00e3": 159, "\u00e4": 160, "\u00e5": 161, "\u00e6": 162, "\u00e7": 163, "\u00e8": 164, "\u00e9": 165, "\u00ea": 166, "\u00eb": 167, "\u00ec": 168, "\u00ed": 169, "\u00ee": 170, "\u00ef": 171, "\u00f0": 172, "\u00f1": 173, "\u00f2": 174, "\u00f3": 175, "\u00f4": 176, "\u00f5": 177, "\u00f6": 178, "\u00f7": 179, "\u00f8": 180, "\u00f9": 181, "\u00fa": 182, "\u00fb": 183, "\u00fc": 184, "\u00fd": 185, "\u00fe": 186, "\u00ff": 187, "\u0100": 188, "\u0101": 189, "\u0102": 190, "\u0103": 191, "\u0104": 192, "\u0105": 193, "\u0106": 194, "\u0107": 195, "\u0108": 196, "\u0109": 197, "\u010a": 198, "\u010b": 199, "\u010c": 200, "\u010d": 201, "\u010e": 202, "\u010f": 203, "\u0110": 204, "\u0111": 205, "\u0112": 206, "\u0113": 207, "\u0114": 208, "\u0115": 209, "\u0116": 210, "\u0117": 211, "\u0118": 212, "\u0119": 213, "\u011a": 214, "\u011b": 215, "\u011c": 216, "\u011d": 217, "\u011e": 218, "\u011f": 219, "\u0120": 220, "\u0121": 221, "\u0122": 222, "\u0123": 223, "\u0124": 224, "\u0125": 225, "\u0126": 226, "\u0127": 227, "\u0128": 228, "\u0129": 229, "\u012a": 230, "\u012b": 231, "\u012c": 232, "\u012d": 233, "\u012e": 234, "\u012f": 235, "\u0130": 236, "\u0131": 237, "\u0132": 238, "\u0133": 239, "\u0134": 240, "\u0135": 241, "\u0136": 242, "\u0137": 243, "\u0138": 244, "\u0139": 245, "\u013a": 246, "\u013b": 247, "\u013c": 248, "\u013d": 249, "\u013e": 250, "\u013f": 251, "\u0140": 252, "\u0141": 253, "\u0142": 254, "\u0143": 255, "NE": 256, "\u0120\u0120": 257, "LI": 258, "\u0120\u0120\u0120\u0120": 259, "NEW": 260, "\u0120\u0120\u0120": 261, "LINE": 262, "NEWLINE": 263, "se": 264, "on": 265, "in": 266, "re": 267, "te": 268, "or": 269, "\u0120=": 270, "\u0120\u0120\u0120\u0120\u0120\u0120\u0120\u0120": 271, "de": 272, "st": 273, "at": 274, "le": 275, "NEWLINENEWLINE": 276, "me": 277, "lf": 278, "self": 279, "\u0120t": 280, "al": 281, "an": 282, "er": 283, "\u0120'": 284, "as": 285, "ar": 286, "\u0120\"": 287, "\u0120i": 288, "ion": 289, "en": 290, "',": 291, "he": 292, "\u0120\u0120\u0120\u0120\u0120\u0120\u0120": 293, "\u0120c": 294, "\u0120self": 295, "ro": 296, "--": 297, "\u0120f": 298, "ct": 299, "it": 300, "\u0120p": 301, "ce": 302, "ge": 303, "ur": 304, "\u0120re": 305, "\u0120n": 306, "):": 307, "mp": 308, "lo": 309, "##": 310, "ut": 311, "\u0120s": 312, "ue": 313, "\u0120\u0120\u0120\u0120\u0120\u0120\u0120\u0120\u0120\u0120\u0120": 314, "00": 315, "ame": 316, "\u01201": 317, "ing": 318, "\u0120in": 319, "pe": 320, "\u0120o": 321, "nt": 322, "\",": 323, "li": 324, "\u0120(": 325, "':": 326, "ate": 327, "def": 328, "ci": 329, "ri": 330, "ad": 331, "\u01200": 332, "\u0120d": 333, "co": 334, "\u0120the": 335, "fi": 336, "\u0120b": 337, "el": 338, "is": 339, "\u0120a": 340, "\u0120m": 341, "\u0120#": 342, "),": 343, "ra": 344, "un": 345, "non": 346, "id": 347, "cii": 348, "ascii": 349, "\u0120[": 350, "()": 351, "ser": 352, "ch": 353, "ter": 354, "\u0120w": 355, "\u0120if": 356, "----": 357, "\u0120e": 358, "\"\"": 359, "ck": 360, "ot": 361, "ort": 362, "ul": 363, "ss": 364, "__": 365, "one": 366, "\u0120def": 367, "urn": 368, "and": 369, "turn": 370, "la": 371, "ode": 372, "ype": 373, "name": 374, "pt": 375, "val": 376, "get": 377, "\u0109\u0109": 378, "il": 379, "\u0120-": 380, "('": 381, "th": 382, "ma": 383, "\u0120for": 384, "],": 385, "ation": 386, "di": 387, "####": 388, "et": 389, "None": 390, "ata": 391, "\u0120T": 392, "\u0120return": 393, "ol": 394, "con": 395, "==": 396, "\u0120to": 397, "='": 398, "um": 399, "\":": 400, "\u0120is": 401, "ve": 402, "mport": 403, "set": 404, "')": 405, "ass": 406, "up": 407, "\u01202": 408, "ction": 409, "ver": 410, "int": 411, "od": 412, "))": 413, "rom": 414, "ed": 415, "es": 416, "str": 417, "ab": 418, "\u0120\u0120\u0120\u0120\u0120\u0120\u0120\u0120\u0120\u0120\u0120\u0120\u0120\u0120\u0120": 419, "iz": 420, "\u0120\"\"\"": 421, "xt": 422, "\u0120of": 423, "ult": 424, "ap": 425, "\u0120+": 426, "ig": 427, "ke": 428, "qu": 429, "ent": 430, "\u0120{": 431, "\u0120u": 432, "ath": 433, "\u0120\u0120\u0120\u0120\u0120": 434, "arg": 435, "value": 436, "der": 437, "ic": 438, "am": 439, "._": 440, "ment": 441, "\u0120None": 442, "']": 443, "rue": 444, "type": 445, "cl": 446, "ht": 447, "\u0120con": 448, "test": 449, "op": 450, "\u0120\u0120\u0120\u0120\u0120\u0120\u0120\u0120\u0120\u0120\u0120\u0120\u0120\u0120\u0120\u0120": 451, "['": 452, "01": 453, "\u0120S": 454, "sert": 455, "age": 456, "ime": 457, "(\"": 458, "add": 459, "ect": 460, "sp": 461, "\u0120C": 462, "ile": 463, "\u0120F": 464, "**": 465, "assert": 466, "orm": 467, "--------": 468, "vi": 469, "bj": 470, "\u0120A": 471, "\u0120th": 472, "\u0120r": 473, "par": 474, "Re": 475, "\u0120not": 476, "all": 477, "\u0120and": 478, "pro": 479, "eld": 480, "put": 481, "to": 482, "In": 483, "\u0120import": 484, "ith": 485, "\u0120:": 486, "\u0120g": 487, "from": 488, "tr": 489, "po": 490, "odel": 491, "ption": 492, "\u0120\u0120\u0120\u0120\u0120\u0120": 493, "\u0120ex": 494, "us": 495, "NEWLINENEWLINENEWLINE": 496, "end": 497, "\u0120h": 498, "ta": 499, "\u0120==": 500, "ub": 501, "len": 502, "ror": 503, "\")": 504, "ff": 505, "list": 506, "ize": 507, "ted": 508, "\u0120_": 509, "\u0120lo": 510, "\u0120st": 511, "res": 512, "\u0120\u0120\u0120\u0120\u0120\u0120\u0120\u0120\u0120": 513, "per": 514, "\u0120se": 515, "ase": 516, "ow": 517, "\u0120%": 518, "ex": 519, "file": 520, "able": 521, "lin": 522, "\u0120P": 523, "alse": 524, "data": 525, "\u0120de": 526, "NEWLINEa": 527, "ance": 528, "om": 529, "11": 530, "path": 531, "sNEWLINE": 532, "bu": 533, "key": 534, "\u0120<": 535, "########": 536, "args": 537, "\u0120me": 538, "out": 539, "sion": 540, "====": 541, "tem": 542, "ack": 543, "class": 544, "text": 545, "ew": 546, "ac": 547, "12": 548, "02": 549, "fig": 550, "\u01203": 551, "bject": 552, "\u0120\u0120\u0120\u0120\u0120\u0120\u0120\u0120\u0120\u0120": 553, "ist": 554, "\u0120or": 555, "sc": 556, "fo": 557, "form": 558, "que": 559, "sh": 560, "HH": 561, "\u0120value": 562, "])": 563, "art": 564, "app": 565, "\u0120be": 566, "\u0120I": 567, "ang": 568, "True": 569, "else": 570, "\u0120name": 571, "\u0120L": 572, "\u0120*": 573, "\u0120as": 574, "32": 575, "ER": 576, "xf": 577, "10": 578, "red": 579, "ield": 580, "\u0120test": 581, "xb": 582, "NEWLINEaI": 583, "\u0120D": 584, "rint": 585, "mo": 586, "mple": 587, "stance": 588, "dex": 589, "\u0120with": 590, "\u0120else": 591, "\u0120('": 592, "ord": 593, "xe": 594, "\u0120M": 595, "ault": 596, "import": 597, "ule": 598, "im": 599, "xc": 600, "..": 601, "atch": 602, "\u0120O": 603, "//": 604, "\u0120pro": 605, "thod": 606, "os": 607, "\u0120x": 608, "\u0120v": 609, "\u0120data": 610, "ange": 611, "Er": 612, "our": 613, "are": 614, "ly": 615, "unt": 616, "tri": 617, "mb": 618, "ure": 619, "\u0120y": 620, "lab": 621, "ay": 622, "64": 623, "\u0120file": 624, "},": 625, "Error": 626, "date": 627, "xd": 628, "time": 629, "\u0120E": 630, "pre": 631, "lic": 632, "ag": 633, "\u0120__": 634, "bo": 635, "model": 636, "04": 637, "ind": 638, "ry": 639, "ise": 640, "33": 641, "II": 642, "ip": 643, "oc": 644, "ten": 645, "qual": 646, "py": 647, "init": 648, "\u0120res": 649, "\u0120str": 650, "14": 651, "\"]": 652, "ive": 653, "xa": 654, "0000": 655, "code": 656, "\u0120co": 657, "ho": 658, "ity": 659, "param": 660, "15": 661, "ON": 662, "99": 663, "NEWLINEfrom": 664, "db": 665, "ans": 666, "quest": 667, "ne": 668, "tep": 669, "::": 670, "lay": 671, "if": 672, "size": 673, "=\"": 674, "03": 675, "line": 676, "88": 677, "\u01204": 678, "16": 679, "ys": 680, "\u0120G": 681, "\u0120par": 682, "ST": 683, "25": 684, "IN": 685, "ace": 686, "\u0120N": 687, "tp": 688, "'),": 689, "77": 690, "05": 691, "ctor": 692, "com": 693, "RE": 694, "\u0120B": 695, "\u0120di": 696, "\"\"\"": 697, "[\"": 698, "\u0120an": 699, "\u0120\u0120\u0120\u0120\u0120\u0120\u0120\u0120\u0120\u0120\u0120\u0120\u0120\u0120": 700, "mage": 701, "13": 702, "\u0120get": 703, "Con": 704, "AT": 705, "66": 706, "ty": 707, "\u0120)": 708, "reate": 709, "cess": 710, "\u0120False": 711, "22": 712, "----------------": 713, "append": 714, "url": 715, "est": 716, "ssage": 717, "\u0120{'": 718, "ource": 719, "\u0120True": 720, "18": 721, "odule": 722, "ign": 723, "col": 724, "__(": 725, "log": 726, "07": 727, "\u0120cl": 728, "heck": 729, "ph": 730, "LE": 731, "\u0120print": 732, "und": 733, ").": 734, "step": 735, "ir": 736, "''": 737, "\u0120set": 738, "read": 739, "19": 740, "low": 741, "\u0120at": 742, "\u0120on": 743, "\u0120this": 744, "\u0120>": 745, "label": 746, "config": 747, "\u0120np": 748, "\u0120un": 749, "\u0120\u0120\u0120\u0120\u0120\u0120\u0120\u0120\u0120\u0120\u0120\u0120\u0120": 750, "instance": 751, "\u0120from": 752, "http": 753, "jo": 754, "\u0120l": 755, "\u0120assert": 756, "\u0120['": 757, "\u0120out": 758, "17": 759, "ape": 760, "fe": 761, "08": 762, "net": 763, "\u01205": 764, "Equal": 765, "\u0120db": 766, "ader": 767, "ax": 768, "65": 769, "roup": 770, "Type": 771, "ator": 772, "09": 773, "dir": 774, "\u0120k": 775, "ument": 776, "ary": 777, "\u0120\u0120\u0120\u0120\u0120\u0120\u0120\u0120\u0120\u0120\u0120\u0120\u0120\u0120\u0120\u0120\u0120\u0120\u0120": 778, "sed": 779, "\u0120`": 780, "\u0120len": 781, "ray": 782, "\u0120he": 783, "ask": 784, "\u0120W": 785, "ork": 786, "34": 787, "unction": 788, "ns": 789, "Field": 790, "OR": 791, "vent": 792, "35": 793, "ber": 794, "\u0120ch": 795, "False": 796, "\u0120'<": 797, "ave": 798, "\u0120that": 799, "rain": 800, "ger": 801, "field": 802, "24": 803, "\u0120U": 804, "06": 805, "ore": 806, "min": 807, "\u0120en": 808, "\u0120@": 809, "========": 810, "tent": 811, "vice": 812, "ition": 813, "\u0120ra": 814, "\u0120The": 815, "ml": 816, "dict": 817, "assertEqual": 818, "pp": 819, "74": 820, "df": 821, "AR": 822, "St": 823, "rite": 824, "################": 825, "cept": 826, "\u0120V": 827, "'],": 828, "format": 829, "ild": 830, "error": 831, "num": 832, "ial": 833, "\u0120it": 834, "\u0120type": 835, "75": 836, "ress": 837, "ener": 838, "ard": 839, "\u0120wh": 840, "\u0120by": 841, "version": 842, "max": 843, "ms": 844, "://": 845, "([": 846, "onse": 847, "\u0120log": 848, ".__": 849, "ok": 850, "EN": 851, "ight": 852, "GG": 853, "28": 854, "ren": 855, "bute": 856, "ari": 857, "():": 858, "port": 859, "\u0120al": 860, "ll": 861, "info": 862, "ca": 863, "ant": 864, "\u0120list": 865, "ou": 866, "\u0109\u0109\u0109": 867, "late": 868, "user": 869, "object": 870, "ext": 871, "action": 872, ">\",": 873, ">',": 874, "ense": 875, "ft": 876, "og": 877, "38": 878, "29": 879, "gth": 880, "index": 881, "\u0120result": 882, "ler": 883, "\u0120R": 884, "array": 885, "SS": 886, "\u0120method": 887, "load": 888, "ample": 889, "78": 890, "gs": 891, "\u0120os": 892, "\u0120Re": 893, "son": 894, "Pro": 895, "ded": 896, "cted": 897, "68": 898, "\u0120+=": 899, "\u0120ro": 900, "count": 901, "HHHH": 902, "ill": 903, "models": 904, "tribute": 905, "valid": 906, "stat": 907, "DE": 908, "\u0120\"<": 909, "20": 910, "55": 911, "ings": 912, "cur": 913, "\u0120raise": 914, "NEWLINENEWLINENEWLINEdef": 915, "uth": 916, "\u0120model": 917, "ock": 918, "39": 919, "iv": 920, "AA": 921, "SE": 922, "Name": 923, "NEWLINEimport": 924, "scri": 925, "69": 926, "ces": 927, "lock": 928, "\u0120],": 929, "44": 930, "loc": 931, "\u0120num": 932, "jang": 933, "lif": 934, "nd": 935, "ust": 936, "AN": 937, "FF": 938, "ute": 939, "jango": 940, "\u0120time": 941, "update": 942, "rent": 943, "\u0120key": 944, "loat": 945, "\u0120we": 946, "79": 947, "IT": 948, "by": 949, "\u0120pre": 950, "own": 951, "\u0120H": 952, "ine": 953, "\u0120sh": 954, "lient": 955, "temp": 956, "\u0120[]": 957, "ree": 958, "De": 959, "ann": 960, "ception": 961, "arget": 962, "ID": 963, "ters": 964, "util": 965, "lib": 966, "da": 967, "ers": 968, "back": 969, "Ch": 970, "\u0120default": 971, "\u0120are": 972, "word": 973, "AL": 974, "item": 975, "sponse": 976, "36": 977, "ME": 978, "ies": 979, "module": 980, "dd": 981, "].": 982, "pos": 983, "\u0120elif": 984, "join": 985, "map": 986, "ak": 987, "alue": 988, "start": 989, "NEWLINENEWLINENEWLINEclass": 990, "\u0120col": 991, "pen": 992, "we": 993, "fields": 994, "base": 995, "wargs": 996, "rig": 997, "sor": 998, "no": 999, "tain": 1000, "pl": 1001, "work": 1002, "lement": 1003, "\u0120\\": 1004, "ug": 1005, "pi": 1006, "\u0120NoneNEWLINE": 1007, "for": 1008, "du": 1009, "string": 1010, "\u0120new": 1011, "\u012024": 1012, "\u0120int": 1013, "write": 1014, "\u0120{}": 1015, "ifi": 1016, "mand": 1017, "ssion": 1018, "\u0120**": 1019, "\u0120except": 1020, "ib": 1021, "default": 1022, "86": 1023, "ptions": 1024, "45": 1025, "main": 1026, "37": 1027, "\u0120try": 1028, "ory": 1029, "ull": 1030, "input": 1031, "attr": 1032, "49": 1033, "\u0120use": 1034, "dent": 1035, "che": 1036, "rans": 1037, "pr": 1038, "\u0120[],": 1039, "sent": 1040, "rame": 1041, "\u0120j": 1042, "mat": 1043, "ken": 1044, "Ex": 1045, "ery": 1046, "\u0120mode": 1047, "mit": 1048, "ong": 1049, "method": 1050, "state": 1051, "\u0120\u0120\u0120\u0120\u0120\u0120\u0120\u0120\u0120\u0120\u0120\u0120": 1052, "27": 1053, "RO": 1054, "his": 1055, "comp": 1056, "ated": 1057, "','": 1058, "\u0120/": 1059, "\u0109\u0109\u0109\u0109": 1060, "\u01206": 1061, "\u01208": 1062, "48": 1063, "si": 1064, "\u0120object": 1065, "qui": 1066, "ther": 1067, "\u0120In": 1068, "fa": 1069, "\u0120pass": 1070, "TI": 1071, "\u0120po": 1072, "shape": 1073, "ations": 1074, "ume": 1075, "26": 1076, "icense": 1077, "node": 1078, "())": 1079, "\u0120class": 1080, "ache": 1081, "((": 1082, "JJ": 1083, "sub": 1084, "return": 1085, "\u0120py": 1086, "vel": 1087, "'):": 1088, ">>": 1089, "thon": 1090, "IIII": 1091, "reg": 1092, "Me": 1093, "****": 1094, "result": 1095, "\u0120all": 1096, "59": 1097, "\u0120so": 1098, "\u0120le": 1099, "peci": 1100, "uld": 1101, "'}": 1102, "Se": 1103, "\u0120\"#": 1104, "tes": 1105, "UT": 1106, "\u0120output": 1107, "\u0120la": 1108, "group": 1109, "ses": 1110, "\u0120do": 1111, "arch": 1112, "30": 1113, "\u0120add": 1114, "inter": 1115, "\u0120has": 1116, "ts": 1117, "point": 1118, "Test": 1119, "fix": 1120, "types": 1121, "train": 1122, "output": 1123, "AC": 1124, "length": 1125, "\u0120com": 1126, "\u0120loss": 1127, "view": 1128, "Id": 1129, "image": 1130, "arent": 1131, "89": 1132, "\u0120sup": 1133, "right": 1134, "core": 1135, "\u0120tf": 1136, "argument": 1137, "\u0120path": 1138, "xff": 1139, "arn": 1140, "gra": 1141, "Po": 1142, "\u0120function": 1143, "56": 1144, "\u0120cur": 1145, "perty": 1146, "ec": 1147, "\u0120will": 1148, "ound": 1149, "23": 1150, ">':": 1151, "be": 1152, "\u0120no": 1153, "yn": 1154, "\u0120License": 1155, "\u0120}": 1156, "django": 1157, "move": 1158, "Co": 1159, "CP": 1160, "lace": 1161, "\u0120node": 1162, "(),": 1163, "{'": 1164, "\u0120user": 1165, "\u0120range": 1166, "opy": 1167, "ump": 1168, "space": 1169, "Ke": 1170, "\u0120input": 1171, "ep": 1172, "row": 1173, "cs": 1174, "\u0120comp": 1175, "58": 1176, "ix": 1177, "\u0120config": 1178, "Data": 1179, "stru": 1180, "\u0120request": 1181, "face": 1182, "'])": 1183, "query": 1184, "params": 1185, "create": 1186, "][": 1187, "NEWLINENEWLINEdef": 1188, "with": 1189, "use": 1190, "76": 1191, "53": 1192, "\u0120!": 1193, "indow": 1194, "\u01209": 1195, "\u0120sub": 1196, "ds": 1197, "ariable": 1198, "lob": 1199, "\u0120line": 1200, "\u0120args": 1201, "sing": 1202, "\u0120ma": 1203, "NEWLINEu": 1204, "cal": 1205, "000": 1206, "so": 1207, "Set": 1208, "av": 1209, "\u0120This": 1210, "aa": 1211, "print": 1212, "AG": 1213, "unc": 1214, "html": 1215, "72": 1216, "lot": 1217, "\u0120|": 1218, "FI": 1219, "server": 1220, "andom": 1221, "lit": 1222, "stri": 1223, "lp": 1224, "request": 1225, "np": 1226, "ww": 1227, "\u0120can": 1228, "Str": 1229, "ED": 1230, "ud": 1231, "den": 1232, "\u0120sec": 1233, "ctory": 1234, "itle": 1235, "mis": 1236, "ual": 1237, "\u0120If": 1238, "idth": 1239, "\u0120index": 1240, "ank": 1241, "kwargs": 1242, "led": 1243, "\u0120label": 1244, "ark": 1245, "\u0120max": 1246, "54": 1247, "\u0120\u0109": 1248, "\u0120field": 1249, "open": 1250, "\u0120bas": 1251, "lose": 1252, "layer": 1253, "check": 1254, "TY": 1255, "AB": 1256, "obj": 1257, "</": 1258, "Key": 1259, "List": 1260, "its": 1261, "().": 1262, "ject": 1263, "AD": 1264, "xn": 1265, "\u0120param": 1266, "ref": 1267, "NEWLINENEWLINEfrom": 1268, "act": 1269, "ite": 1270, "\u0120NoneNEWLINEa": 1271, "\u0120!=": 1272, "\u0120z": 1273, "\u0120sys": 1274, "AP": 1275, "new": 1276, "ls": 1277, "'.": 1278, "\u0120..": 1279, "\u0120Q": 1280, "\u0120per": 1281, "mon": 1282, "org": 1283, "Res": 1284, "ast": 1285, "\u0120item": 1286, "21": 1287, "\u0120bo": 1288, "73": 1289, "[:": 1290, "\u0120app": 1291, "\u0120.": 1292, "rc": 1293, "=-": 1294, "af": 1295, "\u0120\u0120\u0109": 1296, "ps": 1297, "run": 1298, "'\\": 1299, "split": 1300, "46": 1301, "place": 1302, "dis": 1303, "\u0120\u0120\u0120\u0109": 1304, "--------------------------------": 1305, "\u0120\u0120\u0120\u0120\u0109": 1306, "call": 1307, "box": 1308, "\u0120\u0120\u0120\u0120\u0120\u0120\u0120\u0120\u0120\u0120\u0120\u0120\u0120\u0120\u0120\u0120\u0120\u0120": 1309, "itation": 1310, "MP": 1311, "message": 1312, "cri": 1313, "\u012010": 1314, "Par": 1315, "IC": 1316, "do": 1317, "atum": 1318, "link": 1319, "\u0120basis": 1320, "tro": 1321, "\u0120image": 1322, "tern": 1323, "md": 1324, "vo": 1325, "201": 1326, "NEWLINEstep": 1327, "mbda": 1328, "\u0120ne": 1329, "\u0120\u0120\u0120\u0120\u0120\u0109": 1330, "\u0120\u0120\u0120\u0120\u0120\u0120\u0109": 1331, "File": 1332, "\u0120\u0120\u0120\u0120\u0120\u0120\u0120\u0109": 1333, "\u0120\u0120\u0120\u0120\u0120\u0120\u0120\u0120\u0109": 1334, "31": 1335, "Value": 1336, "utils": 1337, "\u0120check": 1338, "\u0120text": 1339, "\u0120bu": 1340, "citation": 1341, "licy": 1342, "ding": 1343, "Reaction": 1344, "50": 1345, "CO": 1346, "\u0120rxn": 1347, "Datum": 1348, "84": 1349, "rect": 1350, "\u0120number": 1351, "ature": 1352, "annel": 1353, "\u0120dbse": 1354, "SI": 1355, "ReactionDatum": 1356, "ron": 1357, "fil": 1358, "\u0120li": 1359, "\u0120dbinstance": 1360, "var": 1361, "eta": 1362, "\u0120\u0120\u0120\u0120\u0120\u0120\u0120\u0120\u0120\u0109": 1363, "\u0120\u0120\u0120\u0120\u0120\u0120\u0120\u0120\u0120\u0120\u0109": 1364, "CH": 1365, "\u0120\u0120\u0120\u0120\u0120\u0120\u0120\u0120\u0120\u0120\u0120\u0109": 1366, "\u0120\u0120\u0120\u0120\u0120\u0120\u0120\u0120\u0120\u0120\u0120\u0120\u0109": 1367, "67": 1368, "EX": 1369, "izer": 1370, "ich": 1371, "================": 1372, "``": 1373, "\u0120speci": 1374, "tings": 1375, "pected": 1376, "'},": 1377, "bs": 1378, "'s": 1379, "\u0120string": 1380, "\u0120id": 1381, "\u0120isinstance": 1382, "hould": 1383, "cord": 1384, "\u0120'''": 1385, "trans": 1386, "bug": 1387, "api": 1388, "ware": 1389, "ach": 1390, "status": 1391, "'<": 1392, "float": 1393, "\u0120,": 1394, "Ar": 1395, "80": 1396, "Di": 1397, "\u0120version": 1398, "85": 1399, "sg": 1400, "\u0120response": 1401, "lect": 1402, "\u0120url": 1403, "\u0120create": 1404, "\u0120start": 1405, "andler": 1406, "lection": 1407, "doc": 1408, "42": 1409, "\u0120message": 1410, "ative": 1411, "\u0120mo": 1412, "umn": 1413, "\u0120\u0120\u0120\u0120\u0120\u0120\u0120\u0120\u0120\u0120\u0120\u0120\u0120\u0109": 1414, "\u0120\u0120\u0120\u0120\u0120\u0120\u0120\u0120\u0120\u0120\u0120\u0120\u0120\u0120\u0109": 1415, "\u0120\u0120\u0120\u0120\u0120\u0120\u0120\u0120\u0120\u0120\u0120\u0120\u0120\u0120\u0120\u0109": 1416, "\u0120\u0120\u0120\u0120\u0120\u0120\u0120\u0120\u0120\u0120\u0120\u0120\u0120\u0120\u0120\u0120\u0109": 1417, "\u0120ac": 1418, "rad": 1419, "table": 1420, "tra": 1421, "\u0120\u0120\u0120\u0120\u0120\u0120\u0120\u0120\u0120\u0120\u0120\u0120\u0120\u0120\u0120\u0120\u0120\u0120\u0120\u0120\u0120\u0120\u0120": 1422, "scription": 1423, "LO": 1424, "ran": 1425, "pri": 1426, "ging": 1427, "auth": 1428, "\u0120dist": 1429, "\\\\": 1430, "has": 1431, "\u0120end": 1432, "idget": 1433, "Get": 1434, "\u0120\u0120\u0120\u0120\u0120\u0120\u0120\u0120\u0120\u0120\u0120\u0120\u0120\u0120\u0120\u0120\u0120": 1435, "ES": 1436, "=[": 1437, "her": 1438, ".\"\"\"": 1439, "\"),": 1440, "not": 1441, "Item": 1442, "ick": 1443, "parse": 1444, "nection": 1445, "57": 1446, "To": 1447, "\u0120error": 1448, "\u0120should": 1449, "client": 1450, "process": 1451, "rid": 1452, "\u0120Con": 1453, "\u0120ns": 1454, "ude": 1455, "content": 1456, "ameter": 1457, "man": 1458, "ream": 1459, "rial": 1460, "\u0120base": 1461, "batch": 1462, "ution": 1463, ")),": 1464, "ton": 1465, "json": 1466, "umpy": 1467, "pack": 1468, "\u0120dis": 1469, "bin": 1470, "\".": 1471, "Time": 1472, "tin": 1473, "TT": 1474, "\u0120dict": 1475, "bl": 1476, "\u0120\u0120\u0120\u0120\u0120\u0120\u0120\u0120\u0120\u0120\u0120\u0120\u0120\u0120\u0120\u0120\u0120\u0109": 1477, "\u0120\u0120\u0120\u0120\u0120\u0120\u0120\u0120\u0120\u0120\u0120\u0120\u0120\u0120\u0120\u0120\u0120\u0120\u0109": 1478, "\u0120\u0120\u0120\u0120\u0120\u0120\u0120\u0120\u0120\u0120\u0120\u0120\u0120\u0120\u0120\u0120\u0120\u0120\u0120\u0109": 1479, "\u0120\u0120\u0120\u0120\u0120\u0120\u0120\u0120\u0120\u0120\u0120\u0120\u0120\u0120\u0120\u0120\u0120\u0120\u0120\u0120\u0109": 1480, "\u0120state": 1481, "98": 1482, "Add": 1483, "lean": 1484, "men": 1485, "\u0120other": 1486, "47": 1487, "raw": 1488, "\u0120TrueNEWLINE": 1489, "\u01207": 1490, "quen": 1491, "trol": 1492, "63": 1493, "io": 1494, "UR": 1495, "uc": 1496, "vert": 1497, "mer": 1498, "40": 1499, "old": 1500, "\u0120``": 1501, "context": 1502, "vis": 1503, "At": 1504, "Object": 1505, "\u0120(\"": 1506, "ale": 1507, "\u0120stat": 1508, "\u0120},": 1509, "lete": 1510, "mission": 1511, "\u0120FalseNEWLINE": 1512, "\u0120X": 1513, "\u0120attribute": 1514, "inal": 1515, "ures": 1516, "play": 1517, "HE": 1518, "'t": 1519, "sum": 1520, "100": 1521, "52": 1522, "\u0120pl": 1523, "\u0120cls": 1524, "ING": 1525, "\u0120Se": 1526, "sys": 1527, "lass": 1528, "template": 1529, "emp": 1530, "\u0120date": 1531, "header": 1532, "uto": 1533, "CT": 1534, "rate": 1535, "ody": 1536, "\u0120you": 1537, "quired": 1538, "96": 1539, "range": 1540, "################################": 1541, "cy": 1542, "'))": 1543, "\u0120trans": 1544, "\u0120used": 1545, "SSI": 1546, "\u0120contain": 1547, "lobal": 1548, "\u0120Return": 1549, "host": 1550, "IP": 1551, "Un": 1552, "43": 1553, "\u0120have": 1554, "uple": 1555, "feren": 1556, "ui": 1557, "AS": 1558, "cate": 1559, "\"<": 1560, "ally": 1561, "sco": 1562, "HHHHHHHH": 1563, "ost": 1564, "\u0120call": 1565, "Ser": 1566, "\u0120J": 1567, "of": 1568, "ner": 1569, "mail": 1570, "\u0120theNEWLINE": 1571, "otal": 1572, "spe": 1573, "\u0120>>>": 1574, "UL": 1575, "bar": 1576, "resh": 1577, "'}),": 1578, "names": 1579, "\u0120size": 1580, "Bo": 1581, "Node": 1582, "\u0120run": 1583, "ng": 1584, "62": 1585, "target": 1586, "token": 1587, "\u0120\u0120\u0120\u0120\u0120\u0120\u0120\u0120\u0120\u0120\u0120\u0120\u0120\u0120\u0120\u0120\u0120\u0120\u0120\u0120\u0120\u0109": 1588, "\u0120\u0120\u0120\u0120\u0120\u0120\u0120\u0120\u0120\u0120\u0120\u0120\u0120\u0120\u0120\u0120\u0120\u0120\u0120\u0120\u0120\u0120\u0109": 1589, "\u0120\u0120\u0120\u0120\u0120\u0120\u0120\u0120\u0120\u0120\u0120\u0120\u0120\u0120\u0120\u0120\u0120\u0120\u0120\u0120\u0120\u0120\u0120\u0109": 1590, "\u0120\u0120\u0120\u0120\u0120\u0120\u0120\u0120\u0120\u0120\u0120\u0120\u0120\u0120\u0120\u0120\u0120\u0120\u0120\u0120\u0120\u0120\u0120\u0120\u0109": 1591, "ormal": 1592, "ain": 1593, "\u0120code": 1594, "DI": 1595, "97": 1596, "cre": 1597, "\u0120open": 1598, "order": 1599, "\u0120De": 1600, "\u0120Ex": 1601, "\u0120]": 1602, "\u0120doc": 1603, "\u0120module": 1604, "sign": 1605, "service": 1606, "ors": 1607, "\u0120reg": 1608, "83": 1609, "my": 1610, "ai": 1611, "rap": 1612, "\u0120's": 1613, "utf": 1614, "{}": 1615, "values": 1616, "\u0120super": 1617, "\u0120target": 1618, ")))": 1619, "\u0120Y": 1620, "\u0120help": 1621, "\u0120one": 1622, "[-": 1623, "AME": 1624, "ld": 1625, "rt": 1626, "\u0120'\\": 1627, "TH": 1628, "lines": 1629, "amp": 1630, "95": 1631, "\u0120event": 1632, "\u0120current": 1633, "\u0120ax": 1634, "82": 1635, "teger": 1636, "87": 1637, "response": 1638, "ager": 1639, "ameters": 1640, "':{'": 1641, "GGGG": 1642, "PO": 1643, "61": 1644, "nel": 1645, "\u0120100": 1646, "tension": 1647, ":`": 1648, "TR": 1649, "\u0120##": 1650, "Message": 1651, "source": 1652, "sk": 1653, ">_": 1654, "41": 1655, "\u0120fa": 1656, "\u0120--": 1657, "andle": 1658, "\u0120context": 1659, "tensor": 1660, ",'": 1661, "nect": 1662, "Text": 1663, "\u0120const": 1664, "\u0120train": 1665, "TE": 1666, "ids": 1667, "event": 1668, "\u0120min": 1669, "\u0120specifi": 1670, "env": 1671, "60": 1672, "ical": 1673, "ont": 1674, "rix": 1675, "Le": 1676, "\u0120which": 1677, ">\":": 1678, "Up": 1679, "mary": 1680, "Col": 1681, "\u0120Test": 1682, "\u0120values": 1683, "ized": 1684, "cation": 1685, "root": 1686, "\u0120any": 1687, "ffer": 1688, "uni": 1689, "\u0120->": 1690, "*-": 1691, "iter": 1692, "uration": 1693, "\u0120\u0120\u0120\u0120\u0120\u0120\u0120\u0120\u0120\u0120\u0120\u0120\u0120\u0120\u0120\u0120\u0120\u0120\u0120\u0120\u0120\u0120\u0120\u0120\u0120\u0109": 1694, "\u0120\u0120\u0120\u0120\u0120\u0120\u0120\u0120\u0120\u0120\u0120\u0120\u0120\u0120\u0120\u0120\u0120\u0120\u0120\u0120\u0120\u0120\u0120\u0120\u0120\u0120\u0109": 1695, "\u0120\u0120\u0120\u0120\u0120\u0120\u0120\u0120\u0120\u0120\u0120\u0120\u0120\u0120\u0120\u0120\u0120\u0120\u0120\u0120\u0120\u0120\u0120\u0120\u0120\u0120\u0120\u0109": 1696, "\u0120\u0120\u0120\u0120\u0120\u0120\u0120\u0120\u0120\u0120\u0120\u0120\u0120\u0120\u0120\u0120\u0120\u0120\u0120\u0120\u0120\u0120\u0120\u0120\u0120\u0120\u0120\u0120\u0109": 1697, "SC": 1698, "\u0120copy": 1699, "String": 1700, "frame": 1701, "msg": 1702, "idx": 1703, "ister": 1704, "\u0120pos": 1705, "\u0120http": 1706, "UN": 1707, "igh": 1708, "mode": 1709, "mber": 1710, "NEWLINENEWLINEimport": 1711, "ie": 1712, "block": 1713, "PE": 1714, "address": 1715, "\u0120under": 1716, "\u0120parser": 1717, "utton": 1718, "top": 1719, "Base": 1720, "gen": 1721, "nn": 1722, "70": 1723, "94": 1724, "rectory": 1725, "the": 1726, "filename": 1727, "opt": 1728, "(_": 1729, "90": 1730, "NEWLINENEWLINEclass": 1731, "older": 1732, "ible": 1733, "orch": 1734, "parent": 1735, "lable": 1736, "ments": 1737, "tag": 1738, "92": 1739, "\u0120instance": 1740, "script": 1741, "NEWLINEsent": 1742, "icnet": 1743, "orted": 1744, "\u0120fe": 1745, "NEWLINEsenticnet": 1746, "ward": 1747, "CC": 1748, "\u0120obj": 1749, "\u0120ent": 1750, "raph": 1751, "\u0120K": 1752, "hf": 1753, "\u0120init": 1754, "Char": 1755, "tf": 1756, "\u0120&": 1757, "81": 1758, "irst": 1759, "ify": 1760, "close": 1761, "ftware": 1762, "off": 1763, "filter": 1764, "ENT": 1765, "\u0120valid": 1766, "\u0120part": 1767, "\u0120read": 1768, "\u0120act": 1769, ")]": 1770, "\u0120option": 1771, "go": 1772, "CON": 1773, "dot": 1774, "property": 1775, "ait": 1776, "\u0120Py": 1777, "sample": 1778, "items": 1779, "En": 1780, "200": 1781, "level": 1782, "\u0120-*-": 1783, "ting": 1784, "\u0120source": 1785, "options": 1786, "lags": 1787, "ublic": 1788, "\u0120when": 1789, "\u0120float": 1790, "IO": 1791, "sy": 1792, "ference": 1793, "\u0120params": 1794, "width": 1795, "ols": 1796, "\u0120sy": 1797, "Class": 1798, "function": 1799, "ice": 1800, "********": 1801, "cor": 1802, "ugin": 1803, "\u0120row": 1804, "\u0120action": 1805, "func": 1806, "cc": 1807, "adata": 1808, "\u0120Value": 1809, "Info": 1810, "\u0120201": 1811, "51": 1812, "clude": 1813, "mg": 1814, "zer": 1815, "\u0120up": 1816, "\\:": 1817, "71": 1818, "\u0120gener": 1819, "\u0120inter": 1820, "\u0120update": 1821, "here": 1822, ">_<": 1823, "err": 1824, "\u0120\u0120\u0120\u0120\u0120\u0120\u0120\u0120\u0120\u0120\u0120\u0120\u0120\u0120\u0120\u0120\u0120\u0120\u0120\u0120\u0120\u0120\u0120\u0120\u0120\u0120\u0120\u0120\u0120\u0120\u0120\u0120": 1825, "mask": 1826, "ises": 1827, "\u0120header": 1828, "\u0120only": 1829, "flow": 1830, "asses": 1831, "Model": 1832, "title": 1833, "\u0120sc": 1834, "try": 1835, "US": 1836, "tail": 1837, "unk": 1838, "save": 1839, "find": 1840, "debug": 1841, "char": 1842, "hed": 1843, "dfhf": 1844, "pass": 1845, "keys": 1846, "\u0120expected": 1847, "arning": 1848, "xy": 1849, "cript": 1850, "\u0120ver": 1851, "cond": 1852, "child": 1853, "\u0120\u0120\u0120\u0120\u0120\u0120\u0120\u0120\u0120\u0120\u0120\u0120\u0120\u0120\u0120\u0120\u0120\u0120\u0120\u0120\u0120\u0120\u0120\u0120\u0120\u0120\u0120\u0120\u0120\u0109": 1854, "\u0120\u0120\u0120\u0120\u0120\u0120\u0120\u0120\u0120\u0120\u0120\u0120\u0120\u0120\u0120\u0120\u0120\u0120\u0120\u0120\u0120\u0120\u0120\u0120\u0120\u0120\u0120\u0120\u0120\u0120\u0109": 1855, "\u0120\u0120\u0120\u0120\u0120\u0120\u0120\u0120\u0120\u0120\u0120\u0120\u0120\u0120\u0120\u0120\u0120\u0120\u0120\u0120\u0120\u0120\u0120\u0120\u0120\u0120\u0120\u0120\u0120\u0120\u0120\u0109": 1856, "\u0120\u0120\u0120\u0120\u0120\u0120\u0120\u0120\u0120\u0120\u0120\u0120\u0120\u0120\u0120\u0120\u0120\u0120\u0120\u0120\u0120\u0120\u0120\u0120\u0120\u0120\u0120\u0120\u0120\u0120\u0120\u0120\u0109": 1857, "\u0120FalseNEWLINENEWLINE": 1858, "\u0120mat": 1859, "\u0120cal": 1860, "ract": 1861, "Index": 1862, "('\\": 1863, "ide": 1864, "iven": 1865, "gram": 1866, "\u0120q": 1867, "TER": 1868, "ous": 1869, "loss": 1870, "dim": 1871, "DO": 1872, "\u0120format": 1873, "\u0120numpy": 1874, "'''": 1875, "})": 1876, "CE": 1877, "copy": 1878, "current": 1879, "\u0120[\"": 1880, "ble": 1881, "ocket": 1882, "ION": 1883, "rel": 1884, "weight": 1885, "Stat": 1886, "00000000": 1887, "ilter": 1888, "const": 1889, "NEWLINEdef": 1890, "onent": 1891, "NEWLINEK": 1892, "\u0120options": 1893, "color": 1894, "au": 1895, "mt": 1896, "\u0120msg": 1897, "93": 1898, "number": 1899, "\u0120char": 1900, "lication": 1901, "\u0120group": 1902, "part": 1903, "\u0120arg": 1904, "store": 1905, "cache": 1906, "gn": 1907, "\u0120AN": 1908, "\u0120may": 1909, "FA": 1910, "Element": 1911, "command": 1912, "NAME": 1913, "\u0120command": 1914, "\u0120sp": 1915, "quence": 1916, "\u0120\"\\": 1917, "uid": 1918, "\u0120ad": 1919, "\u0120logging": 1920, "\u0120must": 1921, ".,": 1922, "Path": 1923, "OP": 1924, "\u0120batch": 1925, "\u0120't": 1926, "\u0120Un": 1927, "ning": 1928, "PRO": 1929, "last": 1930, "**\\:": 1931, "\u0120token": 1932, "\u0120json": 1933, "Policy": 1934, "uint": 1935, "reak": 1936, "coding": 1937, "////": 1938, "\u0120'd": 1939, "Config": 1940, "\u0120tag": 1941, "yle": 1942, "fault": 1943, "angu": 1944, "equal": 1945, "parser": 1946, "over": 1947, "=(": 1948, "\u0120lambda": 1949, "conv": 1950, "\u0120array": 1951, "plot": 1952, "ML": 1953, "\u0120content": 1954, "vide": 1955, "exp": 1956, "oper": 1957, "anguage": 1958, "tocol": 1959, "atures": 1960, "GE": 1961, "lat": 1962, "\u0120{\"": 1963, "\u0120first": 1964, "Window": 1965, "PR": 1966, "ists": 1967, "91": 1968, "\u0120models": 1969, "\u0120NoneNEWLINENEWLINE": 1970, "\u0120ValueError": 1971, "JJJJ": 1972, "void": 1973, "ob": 1974, "Des": 1975, "mark": 1976, "\u0120distri": 1977, "\u0120Gener": 1978, "std": 1979, "su": 1980, "Dict": 1981, "prefix": 1982, "\u0120opt": 1983, "NU": 1984, "session": 1985, "cf": 1986, "match": 1987, "ote": 1988, "rop": 1989, "lag": 1990, "random": 1991, "ization": 1992, "ql": 1993, "meta": 1994, "Event": 1995, "\u0120argument": 1996, "sa": 1997, "exec": 1998, "\u0120but": 1999, "\"],": 2000, "local": 2001, "sNEWLINENEWLINE": 2002, "Fa": 2003, "\u0120count": 2004, "cale": 2005, "gener": 2006, "ped": 2007, "foo": 2008, "ved": 2009, "ync": 2010, "page": 2011, "uct": 2012, "\\-": 2013, "change": 2014, "img": 2015, "ics": 2016, "IIIIIIII": 2017, "Man": 2018, "ersion": 2019, "fir": 2020, "Ad": 2021, "\u0120\u0120\u0120\u0120\u0120\u0120\u0120\u0120\u0120\u0120\u0120\u0120\u0120\u0120\u0120\u0120\u0120\u0120\u0120\u0120\u0120\u0120\u0120\u0120\u0120\u0120\u0120\u0120\u0120\u0120\u0120\u0120\u0120\u0109": 2022, "\u0120\u0120\u0120\u0120\u0120\u0120\u0120\u0120\u0120\u0120\u0120\u0120\u0120\u0120\u0120\u0120\u0120\u0120\u0120\u0120\u0120\u0120\u0120\u0120\u0120\u0120\u0120\u0120\u0120\u0120\u0120\u0120\u0120\u0120\u0109": 2023, "\u0120\u0120\u0120\u0120\u0120\u0120\u0120\u0120\u0120\u0120\u0120\u0120\u0120\u0120\u0120\u0120\u0120\u0120\u0120\u0120\u0120\u0120\u0120\u0120\u0120\u0120\u0120\u0120\u0120\u0120\u0120\u0120\u0120\u0120\u0120\u0109": 2024, "\u0120\u0120\u0120\u0120\u0120\u0120\u0120\u0120\u0120\u0120\u0120\u0120\u0120\u0120\u0120\u0120\u0120\u0120\u0120\u0120\u0120\u0120\u0120\u0120\u0120\u0120\u0120\u0120\u0120\u0120\u0120\u0120\u0120\u0120\u0120\u0120\u0109": 2025, "network": 2026, "\u0120tra": 2027, "User": 2028, "sNEWLINEimport": 2029, "Exception": 2030, "Sh": 2031, "air": 2032, "ome": 2033, "\u0120each": 2034, "www": 2035, "Com": 2036, "formation": 2037, "NO": 2038, "\u0120ext": 2039, "lease": 2040, "AAAA": 2041, "option": 2042, "\u0120match": 2043, "tinue": 2044, "Not": 2045, "round": 2046, "Trans": 2047, "channel": 2048, "objects": 2049, "EE": 2050, "sen": 2051, "ush": 2052, "files": 2053, "ient": 2054, "Sub": 2055, "ash": 2056, "...": 2057, "\u0120work": 2058, "HO": 2059, "\u0120over": 2060, "duct": 2061, "\u0120cor": 2062, "\u0120),": 2063, "NEWLINES": 2064, "tadata": 2065, "~~": 2066, "\u0120pack": 2067, "fs": 2068, "nown": 2069, "post": 2070, "viron": 2071, "ifier": 2072, "DD": 2073, "\u0120given": 2074, "ernel": 2075, "replace": 2076, "mbed": 2077, "\u0120val": 2078, "pop": 2079, "']['": 2080, "Map": 2081, "xml": 2082, "\u0120files": 2083, "\u0120net": 2084, "FFFF": 2085, "\u0120query": 2086, "\u0120while": 2087, "\u0120client": 2088, "The": 2089, "cls": 2090, "search": 2091, "device": 2092, "\u0120Ar": 2093, "\u0120torch": 2094, "coder": 2095, "vp": 2096, "rit": 2097, "task": 2098, "cp": 2099, "\",\"": 2100, "\u0120IN": 2101, "Request": 2102, "\u0120\u0120\u0120\u0120\u0120\u0120\u0120\u0120\u0120\u0120\u0120\u0120\u0120\u0120\u0120\u0120\u0120\u0120\u0120\u0120\u0120\u0120\u0120\u0120\u0120\u0120\u0120": 2103, "\u0120parent": 2104, "ating": 2105, "fy": 2106, "\u0120datetime": 2107, "ERR": 2108, "Form": 2109, "\u0120kwargs": 2110, "MA": 2111, "\u0120back": 2112, "itions": 2113, "patch": 2114, "\u0120OR": 2115, "CharField": 2116, "ATE": 2117, "\u0120required": 2118, "ries": 2119, "He": 2120, "Ac": 2121, "connect": 2122, "\">": 2123, "\u0120dtype": 2124, "fore": 2125, "lated": 2126, "ias": 2127, "poch": 2128, "queue": 2129, "Size": 2130, "\u0120shape": 2131, "\u0120uni": 2132, "abled": 2133, "ulti": 2134, "strip": 2135, "ake": 2136, "ates": 2137, "unit": 2138, "'].": 2139, "wo": 2140, "]:": 2141, "\u0120element": 2142, "Lo": 2143, "]],": 2144, "Widget": 2145, "Py": 2146, "isis": 2147, "\u0120filename": 2148, "make": 2149, "\u0120Set": 2150, "struct": 2151, "\u0120oper": 2152, "LY": 2153, "cle": 2154, "settings": 2155, "Bu": 2156, "IG": 2157, "member": 2158, "\u0120point": 2159, "\u0120last": 2160, "ik": 2161, "Case": 2162, "iled": 2163, "\u0120server": 2164, "propertyNEWLINE": 2165, "\u0120200": 2166, "Log": 2167, "\u0120logger": 2168, "LU": 2169, "delete": 2170, "\u0120make": 2171, "blank": 2172, "dered": 2173, "\u0120load": 2174, ">\\": 2175, "\u0120ag": 2176, "[:,": 2177, "del": 2178, "LA": 2179, "\u0120Pro": 2180, "wer": 2181, "Attribute": 2182, "ustom": 2183, "ride": 2184, "pert": 2185, "Ra": 2186, "license": 2187, "\u0120table": 2188, "down": 2189, "NEWLINENEWLINENEWLINENEWLINE": 2190, "send": 2191, "\u0120does": 2192, "\u0120See": 2193, "ility": 2194, "\u0120'.": 2195, "QU": 2196, "roid": 2197, "zh": 2198, "show": 2199, "MO": 2200, "next": 2201, "').": 2202, "ffe": 2203, "\u0120St": 2204, "gr": 2205, "sNEWLINEfrom": 2206, "cho": 2207, "lsdb": 2208, "job": 2209, "\u0120continue": 2210, "\u0120su": 2211, "State": 2212, "ze": 2213, "\u0120auth": 2214, "\u0120TrueNEWLINENEWLINE": 2215, "\u0120exp": 2216, "Is": 2217, "\u0120Ch": 2218, "Instance": 2219, "layers": 2220, "methodNEWLINE": 2221, "ell": 2222, "datetime": 2223, "\u0120mock": 2224, "\u0120into": 2225, "]]": 2226, "Pre": 2227, "\u0120OP": 2228, "IS": 2229, "1111": 2230, "ert": 2231, "build": 2232, "\u0120Returns": 2233, "pv": 2234, "gment": 2235, "\u0120'/": 2236, "project": 2237, "variable": 2238, "prot": 2239, "Inter": 2240, "\u0120more": 2241, "\u0120page": 2242, "\u0120pri": 2243, "\u0120\u0120\u0120\u0120\u0120\u0120\u0120\u0120\u0120\u0120\u0120\u0120\u0120\u0120\u0120\u0120\u0120\u0120\u0120\u0120": 2244, "(*": 2245, "gt": 2246, "body": 2247, "cli": 2248, "\u0120using": 2249, "By": 2250, "\u0120order": 2251, "\u0120ar": 2252, "(-": 2253, "req": 2254, "\u0120\u0120\u0120\u0120\u0120\u0120\u0120\u0120\u0120\u0120\u0120\u0120\u0120\u0120\u0120\u0120\u0120\u0120\u0120\u0120\u0120\u0120\u0120\u0120\u0120\u0120\u0120\u0120\u0120\u0120\u0120\u0120\u0120\u0120\u0120\u0120\u0120\u0109": 2255, "\u0120\u0120\u0120\u0120\u0120\u0120\u0120\u0120\u0120\u0120\u0120\u0120\u0120\u0120\u0120\u0120\u0120\u0120\u0120\u0120\u0120\u0120\u0120\u0120\u0120\u0120\u0120\u0120\u0120\u0120\u0120\u0120\u0120\u0120\u0120\u0120\u0120\u0120\u0109": 2256, "\u0120\u0120\u0120\u0120\u0120\u0120\u0120\u0120\u0120\u0120\u0120\u0120\u0120\u0120\u0120\u0120\u0120\u0120\u0120\u0120\u0120\u0120\u0120\u0120\u0120\u0120\u0120\u0120\u0120\u0120\u0120\u0120\u0120\u0120\u0120\u0120\u0120\u0120\u0120\u0109": 2257, "\u0120\u0120\u0120\u0120\u0120\u0120\u0120\u0120\u0120\u0120\u0120\u0120\u0120\u0120\u0120\u0120\u0120\u0120\u0120\u0120\u0120\u0120\u0120\u0120\u0120\u0120\u0120\u0120\u0120\u0120\u0120\u0120\u0120\u0120\u0120\u0120\u0120\u0120\u0120\u0120\u0109": 2258, "buted": 2259, "\u0120off": 2260, "AM": 2261, "\u0120block": 2262, "\u0120Par": 2263, "\u0120random": 2264, "now": 2265, "vision": 2266, "offset": 2267, "remove": 2268, "uture": 2269, "pk": 2270, "cen": 2271, "olean": 2272, "ular": 2273, "KE": 2274, "static": 2275, "pat": 2276, "\u0120ret": 2277, "TION": 2278, "\u0120Exception": 2279, "\u0120ass": 2280, "uccess": 2281, "pc": 2282, "ultip": 2283, ">\"]": 2284, "ched": 2285, "Group": 2286, "ches": 2287, "lambda": 2288, "alk": 2289, "\u0120man": 2290, "]))": 2291, "NN": 2292, "Ent": 2293, "mal": 2294, "Ag": 2295, "ponse": 2296, "openconfig": 2297, "\u0120'%": 2298, "imum": 2299, "txt": 2300, "python": 2301, "Lay": 2302, "SP": 2303, "\u0120word": 2304, "\u0120imp": 2305, "mean": 2306, "\u0120change": 2307, "\u0120del": 2308, "buf": 2309, "scope": 2310, "other": 2311, "fer": 2312, "cent": 2313, "\u0120sample": 2314, "Vi": 2315, ",-": 2316, "bose": 2317, "Qt": 2318, "perties": 2319, "gp": 2320, "let": 2321, "\"))": 2322, "\u0120status": 2323, "\u0120Co": 2324, ")):": 2325, "opyright": 2326, "\u0120variable": 2327, "\u0120axis": 2328, "IL": 2329, "mory": 2330, "yang": 2331, "trib": 2332, "orage": 2333, "\u0120process": 2334, "\u0120var": 2335, "\u0120sign": 2336, "\u0120bool": 2337, "attribute": 2338, "ither": 2339, "ystem": 2340, "ollow": 2341, "Num": 2342, "\u0120port": 2343, "\u0120fields": 2344, "namespace": 2345, "vol": 2346, "\u0120\"#<": 2347, "\u0120length": 2348, "Th": 2349, "ateg": 2350, "\u0120tuple": 2351, "\u0120root": 2352, "ctions": 2353, "TO": 2354, "wh": 2355, "gin": 2356, "resource": 2357, "itor": 2358, "ingNEWLINE": 2359, "fn": 2360, "Meta": 2361, "\u0120django": 2362, "annot": 2363, "ful": 2364, "TTP": 2365, "\u0120document": 2366, "graph": 2367, "bytes": 2368, "dfit": 2369, "stack": 2370, "ink": 2371, "sup": 2372, "\u0120break": 2373, "Al": 2374, "classes": 2375, "\u0120initial": 2376, "ailable": 2377, "ities": 2378, "\u0120description": 2379, "TYPE": 2380, "\u0120found": 2381, "element": 2382, "ogle": 2383, "present": 2384, "description": 2385, "BC": 2386, "way": 2387, "Address": 2388, "lied": 2389, "\u012012": 2390, "stamp": 2391, "difi": 2392, "pha": 2393, "dataset": 2394, "\u0120passNEWLINENEWLINE": 2395, "RAN": 2396, "pth": 2397, "uster": 2398, "scale": 2399, "\u0120save": 2400, "\u0120unit": 2401, "termin": 2402, "bit": 2403, "\u0120'',": 2404, "\u0120\u0120\u0120\u0120\u0120\u0120\u0120\u0120\u0120\u0120\u0120\u0120\u0120\u0120\u0120\u0120\u0120\u0120\u0120\u0120\u0120": 2405, "\u0120ed": 2406, "ose": 2407, "tx": 2408, "labels": 2409, "aster": 2410, "Comp": 2411, "vector": 2412, "\u0120OF": 2413, "encode": 2414, "assertTrue": 2415, "Return": 2416, ").__": 2417, "verse": 2418, "App": 2419, "\u0120level": 2420, "\u0120form": 2421, "idden": 2422, "Out": 2423, "cmd": 2424, "\u0120need": 2425, "conf": 2426, "aaaa": 2427, "wait": 2428, "ba": 2429, "pol": 2430, "\u0120python": 2431, "pect": 2432, "cat": 2433, "null": 2434, "\u0120map": 2435, "dices": 2436, "Net": 2437, "byte": 2438, "rf": 2439, "\u0120find": 2440, "FILE": 2441, "]),": 2442, "adz": 2443, "les": 2444, "ret": 2445, "initial": 2446, "stream": 2447, "tree": 2448, "\u0120was": 2449, "mi": 2450, "\u0120info": 2451, "oding": 2452, "height": 2453, "na": 2454, "sw": 2455, "Dis": 2456, "\u0120''": 2457, "VER": 2458, "\u0120case": 2459, "day": 2460, "bot": 2461, "xec": 2462, "\u0120yield": 2463, "ceive": 2464, "ven": 2465, "left": 2466, "\u0120next": 2467, "\u0120attr": 2468, "eb": 2469, "ric": 2470, "imple": 2471, "points": 2472, "')},": 2473, "PD": 2474, "logger": 2475, "\u0120distributed": 2476, "\u0120color": 2477, "ready": 2478, "\u0120>=": 2479, "ops": 2480, "\u0120op": 2481, "\u0120Get": 2482, "Pos": 2483, "fter": 2484, "seq": 2485, "mock": 2486, "lected": 2487, "\u0120directory": 2488, "\u0120same": 2489, "\u0120tensor": 2490, "ined": 2491, "View": 2492, "Loc": 2493, "TestCase": 2494, "No": 2495, "swith": 2496, "umns": 2497, "mod": 2498, "\u0120...": 2499, "\u0120results": 2500, "\u0120host": 2501, "ared": 2502, "lower": 2503, "ek": 2504, "\u0120'-": 2505, "android": 2506, "\u0120task": 2507, "mote": 2508, "sm": 2509, "\u0120'm": 2510, "ATION": 2511, "fl": 2512, "\u0120specified": 2513, "\u0120some": 2514, "ices": 2515, "\u0120main": 2516, "Date": 2517, "ear": 2518, "handler": 2519, "true": 2520, "\u0120coding": 2521, "\u0120<=": 2522, "\u0120temp": 2523, "\u0120[-": 2524, "Frame": 2525, "\u0120ob": 2526, "rs": 2527, "\u0120Copyright": 2528, "dev": 2529, "ILE": 2530, "VE": 2531, "Response": 2532, "\u0120resource": 2533, "axis": 2534, "\u0120iter": 2535, "ternal": 2536, "xx": 2537, "mpty": 2538, "\u0120then": 2539, "ctionary": 2540, "\u0120passNEWLINE": 2541, "\u0109\u0109\u0109\u0109\u0109": 2542, "\u0120full": 2543, "\u0120img": 2544, "OT": 2545, "\u0120General": 2546, "\u0120session": 2547, "location": 2548, "eval": 2549, "Check": 2550, "\u0120Python": 2551, "first": 2552, "dk": 2553, "less": 2554, "sl": 2555, "ayload": 2556, "inst": 2557, "xfe": 2558, "Property": 2559, "hel": 2560, "https": 2561, "oo": 2562, "\u0120write": 2563, "\u0120\u0120\u0120\u0120\u0120\u0120\u0120\u0120\u0120\u0120\u0120\u0120\u0120\u0120\u0120\u0120\u0120\u0120\u0120\u0120\u0120\u0120\u0120\u0120\u0120\u0120\u0120\u0120\u0120\u0120\u0120\u0120\u0120\u0120\u0120\u0120\u0120\u0120\u0120\u0120\u0120\u0109": 2564, "\u0120\u0120\u0120\u0120\u0120\u0120\u0120\u0120\u0120\u0120\u0120\u0120\u0120\u0120\u0120\u0120\u0120\u0120\u0120\u0120\u0120\u0120\u0120\u0120\u0120\u0120\u0120\u0120\u0120\u0120\u0120\u0120\u0120\u0120\u0120\u0120\u0120\u0120\u0120\u0120\u0120\u0120\u0109": 2565, "\u0120\u0120\u0120\u0120\u0120\u0120\u0120\u0120\u0120\u0120\u0120\u0120\u0120\u0120\u0120\u0120\u0120\u0120\u0120\u0120\u0120\u0120\u0120\u0120\u0120\u0120\u0120\u0120\u0120\u0120\u0120\u0120\u0120\u0120\u0120\u0120\u0120\u0120\u0120\u0120\u0120\u0120\u0120\u0109": 2566, "\u0120\u0120\u0120\u0120\u0120\u0120\u0120\u0120\u0120\u0120\u0120\u0120\u0120\u0120\u0120\u0120\u0120\u0120\u0120\u0120\u0120\u0120\u0120\u0120\u0120\u0120\u0120\u0120\u0120\u0120\u0120\u0120\u0120\u0120\u0120\u0120\u0120\u0120\u0120\u0120\u0120\u0120\u0120\u0120\u0109": 2567, "\u0120Add": 2568, "pex": 2569, "\u0120Public": 2570, "bool": 2571, "\u0120weight": 2572, "An": 2573, "Qu": 2574, "\u0120lib": 2575, "ha": 2576, "ef": 2577, "dtype": 2578, "dia": 2579, "\u0120andNEWLINE": 2580, "\"):": 2581, "\u0120either": 2582, "exception": 2583, "pool": 2584, "101": 2585, "\u0120orig": 2586, "only": 2587, "tend": 2588, "lis": 2589, "\u0120utf": 2590, "cul": 2591, "record": 2592, "MB": 2593, "\u0120step": 2594, "PI": 2595, "mbol": 2596, "\u0120av": 2597, "\u0120long": 2598, "\u0120ANY": 2599, "Box": 2600, "\u0120mask": 2601, "score": 2602, "EXPR": 2603, "\u0120filter": 2604, "normal": 2605, "spec": 2606, "\u0120ab": 2607, "\u0120limit": 2608, "\u012014": 2609, "\u0120nn": 2610, "\u0120frame": 2611, "uri": 2612, "\u0120dest": 2613, "\u0120your": 2614, "\u0120ref": 2615, "pexpr": 2616, "\u0120see": 2617, "empty": 2618, "CA": 2619, "tails": 2620, "DB": 2621, "\u0120qu": 2622, "FE": 2623, "sn": 2624, "\u0120240": 2625, "ene": 2626, "column": 2627, "LIC": 2628, "tmp": 2629, "ire": 2630, "decode": 2631, "sche": 2632, "GL": 2633, "total": 2634, "================================": 2635, "ions": 2636, "\u0120253": 2637, "ater": 2638, "lig": 2639, "abel": 2640, ".\")": 2641, "><": 2642, "255": 2643, "\u012037": 2644, "\u0120global": 2645, "\u0120go": 2646, "Line": 2647, "\u0120inst": 2648, "\u0120local": 2649, "src": 2650, "Update": 2651, "\u0120bot": 2652, "addr": 2653, "ABLE": 2654, "For": 2655, "\u0120top": 2656, "unter": 2657, "\u0120allow": 2658, "headers": 2659, "%%": 2660, "related": 2661, "....": 2662, "Mo": 2663, "interface": 2664, "\u0120right": 2665, "'][": 2666, "\u0120GNU": 2667, "example": 2668, "Raises": 2669, "Count": 2670, "\u0120WAR": 2671, "ia": 2672, "ingle": 2673, "\u0120CON": 2674, "etch": 2675, "\u0120So": 2676, "zeros": 2677, "div": 2678, ")[": 2679, "FT": 2680, "\u0120parse": 2681, "\u0120sk": 2682, "\u0120remove": 2683, "CK": 2684, "adding": 2685, "\u0120build": 2686, "\u012016": 2687, "orig": 2688, "very": 2689, "metri": 2690, "als": 2691, "domain": 2692, "system": 2693, "\u0120Qt": 2694, "Integer": 2695, "\u0120here": 2696, "ensor": 2697, "register": 2698, "\"\\": 2699, "\u0120title": 2700, "Reg": 2701, "sv": 2702, "\u0120rel": 2703, "++": 2704, "admin": 2705, "\u0120exec": 2706, "ling": 2707, "active": 2708, "abs": 2709, "128": 2710, "exists": 2711, "\u0120child": 2712, "cu": 2713, "entry": 2714, "---": 2715, "matrix": 2716, "pression": 2717, "future": 2718, "Create": 2719, "\u0120layer": 2720, "\u0120parameter": 2721, "\u012020": 2722, "\u0120non": 2723, "known": 2724, "Image": 2725, "\u0120242": 2726, "\u0120243": 2727, "\u0120extension": 2728, "\u0120follow": 2729, "serial": 2730, "ification": 2731, "Or": 2732, "`.": 2733, "\u0120241": 2734, "assertRaises": 2735, "password": 2736, "_(": 2737, "\u0120without": 2738, "OO": 2739, "\u0120sum": 2740, "unCP": 2741, "mented": 2742, "Per": 2743, "\u0120exist": 2744, "cas": 2745, "MS": 2746, "usr": 2747, "can": 2748, "select": 2749, "\u0120view": 2750, "br": 2751, "HT": 2752, "hash": 2753, "results": 2754, "ported": 2755, "\u0120software": 2756, "\u0120You": 2757, "\u0120WIT": 2758, "UP": 2759, "email": 2760, "connection": 2761, "ORT": 2762, "\u0120thread": 2763, "\u0120Type": 2764, "itch": 2765, "\u0120device": 2766, "comple": 2767, "\u0120total": 2768, "keep": 2769, "\u0120df": 2770, "long": 2771, "\u0120link": 2772, "cb": 2773, "\u0120['<": 2774, "layout": 2775, "Parser": 2776, "grad": 2777, "]+": 2778, "\u0120TO": 2779, "cra": 2780, "\u0120template": 2781, "FL": 2782, "qz": 2783, "\u0120dataset": 2784, "BB": 2785, "stop": 2786, "\u0120For": 2787, "clo": 2788, "style": 2789, "ULT": 2790, "proto": 2791, "\u0120connection": 2792, "\u0120An": 2793, "inputs": 2794, "SA": 2795, "cket": 2796, "permission": 2797, "\u0120WARRAN": 2798, "\u0120record": 2799, "position": 2800, "\u0120meta": 2801, "\u0120example": 2802, "UB": 2803, "XX": 2804, "AGE": 2805, "\u0120Data": 2806, "\u0120where": 2807, "6666": 2808, "leep": 2809, "istr": 2810, "ranch": 2811, "\u0120'__": 2812, "\u0120project": 2813, "ux": 2814, "\u0120--------": 2815, "LD": 2816, "7701": 2817, "\u0120\"@": 2818, "\u0120exception": 2819, "ian": 2820, "riter": 2821, "Code": 2822, "\u0120Or": 2823, "256": 2824, "('/": 2825, "Table": 2826, "\u0120box": 2827, "tainer": 2828, "102": 2829, "side": 2830, "peri": 2831, "ants": 2832, "\u0120names": 2833, "ste": 2834, "igr": 2835, "dump": 2836, ".')": 2837, "handle": 2838, "\u0120\"%": 2839, "features": 2840, "td": 2841, "callback": 2842, "wd": 2843, "Be": 2844, "TL": 2845, "imp": 2846, "rep": 2847, "\u0120width": 2848, "words": 2849, "\u0120enume": 2850, "metadata": 2851, "structor": 2852, "Handler": 2853, "window": 2854, "dist": 2855, "STR": 2856, "\u0120Z": 2857, "account": 2858, "je": 2859, "cv": 2860, "resp": 2861, "End": 2862, "lice": 2863, "uble": 2864, "auto": 2865, "aw": 2866, "ident": 2867, "000000": 2868, "\u0120plt": 2869, "\"][\"": 2870, "itive": 2871, "gor": 2872, "istory": 2873, "']:": 2874, "Function": 2875, "\u0120true": 2876, "lan": 2877, "Val": 2878, "verage": 2879, "\u0120containing": 2880, "\u0120::": 2881, "\u0120Not": 2882, "\u0120ID": 2883, "('--": 2884, "ges": 2885, "rary": 2886, "\u0120serial": 2887, "Int": 2888, "\u0120offset": 2889, "package": 2890, "\u0120after": 2891, "Service": 2892, "\u0120std": 2893, "fd": 2894, "signed": 2895, "\u0120address": 2896, "\u0120show": 2897, ">\":\"<": 2898, ")],": 2899, "\u0120IS": 2900, "\u0120',": 2901, "head": 2902, "lt": 2903, "cd": 2904, "\u0120information": 2905, "cast": 2906, "cell": 2907, "Version": 2908, "\u0120cache": 2909, "Tag": 2910, "wise": 2911, "={": 2912, "\u0120'#": 2913, "FO": 2914, "RL": 2915, "angle": 2916, "\u0120old": 2917, "\u0120settings": 2918, ":]": 2919, "vider": 2920, "username": 2921, "cry": 2922, "\u0120\u0120\u0120\u0120\u0120\u0120\u0120\u0120\u0120\u0120\u0120\u0120\u0120\u0120\u0120\u0120\u0120\u0120\u0120\u0120\u0120\u0120\u0120\u0120\u0120": 2923, "direct": 2924, "ipv": 2925, "norm": 2926, "\u0120ident": 2927, "__()": 2928, "execute": 2929, "END": 2930, "\u0120sco": 2931, "oken": 2932, "]['": 2933, "\u0120than": 2934, "VAL": 2935, "tex": 2936, "book": 2937, "igs": 2938, "\u012015": 2939, "\u0120struct": 2940, "\u0120entry": 2941, "common": 2942, "\u0120[('": 2943, "\u0120column": 2944, "gress": 2945, "wrap": 2946, "HHHHHHHHHHHHHHHH": 2947, "ighb": 2948, "\u0120channel": 2949, "alog": 2950, "fc": 2951, "\u0120ter": 2952, "author": 2953, "global": 2954, "plugin": 2955, "bb": 2956, "river": 2957, "fail": 2958, "Gui": 2959, "Input": 2960, "stats": 2961, "Point": 2962, "distri": 2963, "\u0120'_": 2964, "\u0120service": 2965, "({": 2966, "merz": 2967, "\u0120program": 2968, "MM": 2969, "gex": 2970, "control": 2971, "']],": 2972, "\u0120bin": 2973, "xfd": 2974, "\u0120err": 2975, "\u0120callback": 2976, "\u0120body": 2977, "gg": 2978, "exit": 2979, "\u0120hasattr": 2980, "epoch": 2981, "\u0120enumerate": 2982, "ground": 2983, "rule": 2984, "Do": 2985, "AGS": 2986, "pred": 2987, "raint": 2988, "board": 2989, "Default": 2990, "lip": 2991, "Manager": 2992, "reshold": 2993, "limit": 2994, "\u0120there": 2995, "mm": 2996, ".\\": 2997, "\u0120parameters": 2998, "BU": 2999, "IM": 3000, "\u0120At": 3001, "ason": 3002, "Content": 3003, "xfc": 3004, "bution": 3005, "\"])": 3006, "\u0120eval": 3007, "fg": 3008, "compile": 3009, "\u0120cmd": 3010, "fin": 3011, "cr": 3012, "struction": 3013, "ocab": 3014, ".\"": 3015, "uff": 3016, "ift": 3017, "\u0120Key": 3018, "On": 3019, "\u0120post": 3020, "quire": 3021, "plit": 3022, "Act": 3023, "\u0120THE": 3024, "conds": 3025, "manager": 3026, "rection": 3027, "pb": 3028, "\u0120bet": 3029, "parameters": 3030, "BA": 3031, "pec": 3032, "xcc": 3033, "Status": 3034, "HI": 3035, "embed": 3036, "timeout": 3037, "\u0120returnNEWLINE": 3038, "buffer": 3039, "\u0120already": 3040, "grid": 3041, "policy": 3042, "rot": 3043, "ffect": 3044, "\u0120my": 3045, "Number": 3046, "ultiple": 3047, "insert": 3048, "Context": 3049, "\u0120optional": 3050, "des": 3051, "video": 3052, "bind": 3053, "\u0120continueNEWLINE": 3054, "Call": 3055, "\u0120ofNEWLINE": 3056, "ily": 3057, "****************": 3058, "thread": 3059, "(?": 3060, "\u0120abs": 3061, "qa": 3062, "eng": 3063, "Leaf": 3064, "':'": 3065, "From": 3066, "ceived": 3067, "\u0120lines": 3068, "This": 3069, "expected": 3070, "BE": 3071, "\u0120returns": 3072, "Action": 3073, "flags": 3074, "\u0120Software": 3075, "itional": 3076, "full": 3077, "\u0120Create": 3078, "kw": 3079, "____": 3080, "\u0120\u0120\u0120\u0120\u0120\u0120\u0120\u0120\u0120\u0120\u0120\u0120\u0120\u0120\u0120\u0120\u0120\u0120\u0120\u0120\u0120\u0120\u0120\u0120\u0120\u0120\u0120\u0120\u0120\u0120\u0120\u0120\u0120\u0120\u0120\u0120\u0120\u0120\u0120\u0120\u0120\u0120\u0120\u0120\u0120\u0109": 3081, "\u0120\u0120\u0120\u0120\u0120\u0120\u0120\u0120\u0120\u0120\u0120\u0120\u0120\u0120\u0120\u0120\u0120\u0120\u0120\u0120\u0120\u0120\u0120\u0120\u0120\u0120\u0120\u0120\u0120\u0120\u0120\u0120\u0120\u0120\u0120\u0120\u0120\u0120\u0120\u0120\u0120\u0120\u0120\u0120\u0120\u0120\u0109": 3082, "\u0120\u0120\u0120\u0120\u0120\u0120\u0120\u0120\u0120\u0120\u0120\u0120\u0120\u0120\u0120\u0120\u0120\u0120\u0120\u0120\u0120\u0120\u0120\u0120\u0120\u0120\u0120\u0120\u0120\u0120\u0120\u0120\u0120\u0120\u0120\u0120\u0120\u0120\u0120\u0120\u0120\u0120\u0120\u0120\u0120\u0120\u0120\u0109": 3083, "\u0120\u0120\u0120\u0120\u0120\u0120\u0120\u0120\u0120\u0120\u0120\u0120\u0120\u0120\u0120\u0120\u0120\u0120\u0120\u0120\u0120\u0120\u0120\u0120\u0120\u0120\u0120\u0120\u0120\u0120\u0120\u0120\u0120\u0120\u0120\u0120\u0120\u0120\u0120\u0120\u0120\u0120\u0120\u0120\u0120\u0120\u0120\u0120\u0109": 3084, "tom": 3085, "images": 3086, "\u0120ph": 3087, "ATA": 3088, "extension": 3089, "cm": 3090, "ru": 3091, "\u0120Str": 3092, "GET": 3093, "\u0120\u0120\u0120\u0120\u0120\u0120\u0120\u0120\u0120\u0120\u0120\u0120\u0120\u0120\u0120\u0120\u0120\u0120\u0120\u0120\u0120\u0120": 3094, "Temp": 3095, "Client": 3096, ");": 3097, "\u0120Me": 3098, "Sp": 3099, "nodes": 3100, "\u0120headers": 3101, "sq": 3102, "\u012032": 3103, "\u0120labels": 3104, "cap": 3105, "xfb": 3106, "apt": 3107, "dt": 3108, "\u0120bl": 3109, "case": 3110, "\u0120imple": 3111, "rest": 3112, "olution": 3113, "Arg": 3114, "ios": 3115, "scriptor": 3116, "Interface": 3117, "\u0120Args": 3118, "delta": 3119, "xed": 3120, "\u0120\"\"": 3121, "\u0120its": 3122, "reen": 3123, "\u0120network": 3124, "(\\": 3125, "entic": 3126, "served": 3127, "3333": 3128, "environ": 3129, "SER": 3130, "Label": 3131, "\u0120cho": 3132, "Ipv": 3133, "Block": 3134, "Button": 3135, "GGGGGGGG": 3136, "\u0120We": 3137, "xs": 3138, "Color": 3139, "desc": 3140, "any": 3141, "Result": 3142, "virt": 3143, "acy": 3144, "\u0120fin": 3145, "\u0120normal": 3146, "rand": 3147, "ators": 3148, "////////": 3149, "tk": 3150, "prop": 3151, "\u0120ren": 3152, "ilder": 3153, "NS": 3154, "----------------------------------------------------------------": 3155, "\u0120handle": 3156, "tran": 3157, "imizer": 3158, "cer": 3159, "Gener": 3160, "ALL": 3161, "URL": 3162, "\u012013": 3163, "\u0120vis": 3164, "csv": 3165, "\u0120objects": 3166, "\u0120search": 3167, "\u0120package": 3168, "Of": 3169, "Ed": 3170, "button": 3171, "#!": 3172, "chema": 3173, "feature": 3174, "bound": 3175, "YLeaf": 3176, "igslist": 3177, "gest": 3178, "\u0120\u0120\u0120\u0120\u0120\u0120\u0120\u0120\u0120\u0120\u0120\u0120\u0120\u0120\u0120\u0120\u0120\u0120\u0120\u0120\u0120\u0120\u0120\u0120\u0120\u0120\u0120\u0120\u0120\u0120\u0120": 3179, "dest": 3180, "SO": 3181, "ILI": 3182, "Cur": 3183, "ross": 3184, "Tra": 3185, "9999": 3186, "craigslist": 3187, "\u0120((": 3188, "\u0120specific": 3189, "oci": 3190, "WA": 3191, "dify": 3192, "\u0120prefix": 3193, "\u0120returnNEWLINENEWLINE": 3194, "oreign": 3195, "derr": 3196, "\u0120tmp": 3197, "dic": 3198, "rl": 3199, "\u0120pat": 3200, "ZE": 3201, "startswith": 3202, "web": 3203, "Max": 3204, "\u0120collection": 3205, "Len": 3206, ")*": 3207, "olute": 3208, "ERROR": 3209, "\u0120include": 3210, "\u0120permission": 3211, "ane": 3212, "\u0120dictionary": 3213, "\u0120resp": 3214, "hell": 3215, "\u0120arguments": 3216, "repr": 3217, "\u0120getattr": 3218, "ier": 3219, "\u0120Res": 3220, "\u0120support": 3221, "Control": 3222, "\u0120idx": 3223, "ND": 3224, "ween": 3225, "andard": 3226, "\u0120kernel": 3227, "PC": 3228, "\u0120env": 3229, "\u0120unicode": 3230, "HOUT": 3231, "=%": 3232, "sport": 3233, "></": 3234, "access": 3235, "\u0120verbose": 3236, "vious": 3237, "All": 3238, "xfa": 3239, "cimal": 3240, "enter": 3241, "tered": 3242, "zip": 3243, "xef": 3244, "ged": 3245, "\u0120represent": 3246, "\u0120graph": 3247, "GR": 3248, "\u0120te": 3249, "\u0120language": 3250, "xeb": 3251, "\u0120mark": 3252, "','','": 3253, "weights": 3254, "uter": 3255, "\u0120xml": 3256, "\u0120down": 3257, "\u0120before": 3258, "Server": 3259, "press": 3260, "SH": 3261, "\u0120single": 3262, "gl": 3263, "\u0120comple": 3264, "\u0120cond": 3265, "Auto": 3266, "yp": 3267, "Command": 3268, "(__": 3269, "\u0120also": 3270, "folder": 3271, "\u0120WITHOUT": 3272, "except": 3273, "(['": 3274, "cription": 3275, "Auth": 3276, "\u012011": 3277, "Fe": 3278, "PAT": 3279, "\u0120stream": 3280, "ILITY": 3281, "deredDict": 3282, "\u0120extra": 3283, "\u0120two": 3284, "\u0120ap": 3285, "sort": 3286, "icle": 3287, "\"}": 3288, "xdf": 3289, "\u0120','": 3290, "\u0120encoding": 3291, "atform": 3292, "\u0120FOR": 3293, "\u0120src": 3294, "vided": 3295, "product": 3296, "site": 3297, "like": 3298, "xad": 3299, "As": 3300, "\u0120Check": 3301, "\u0120toNEWLINE": 3302, "okup": 3303, "\u0120details": 3304, "\u0120func": 3305, "\u0120$": 3306, "hen": 3307, "skip": 3308, "\u0120available": 3309, "ness": 3310, "xbf": 3311, "SD": 3312, "%(": 3313, "groups": 3314, "argv": 3315, "KEY": 3316, "\u0120scpexpr": 3317, "xcf": 3318, "\u0120ET": 3319, "az": 3320, "xae": 3321, "\u0120'--": 3322, "ordin": 3323, "\u0120send": 3324, "\u0120tree": 3325, "section": 3326, "serv": 3327, "ationNEWLINE": 3328, "activ": 3329, "xdb": 3330, "display": 3331, "xcd": 3332, "_,": 3333, "Core": 3334, "FAULT": 3335, "\u0120interface": 3336, "lim": 3337, "\u0120raw": 3338, "xaa": 3339, "\u0120bytes": 3340, "\u0120List": 3341, "lish": 3342, "samples": 3343, "tags": 3344, "IB": 3345, "numpy": 3346, "\u0120scale": 3347, ":\",": 3348, "Oper": 3349, "00000": 3350, "\u0120):": 3351, "ins": 3352, "MENT": 3353, "extend": 3354, "ropo": 3355, "512": 3356, "transform": 3357, "sig": 3358, "\u0120control": 3359, "widget": 3360, "FC": 3361, "ero": 3362, "licenses": 3363, "\u0120like": 3364, "Mode": 3365, "real": 3366, "png": 3367, "\u0120api": 3368, "reshape": 3369, "SM": 3370, "YType": 3371, "\u0120writ": 3372, "loop": 3373, "RIP": 3374, "profile": 3375, "Array": 3376, "EXT": 3377, "\u0120implied": 3378, "~~~~": 3379, "\u0120breakNEWLINE": 3380, "300": 3381, "rb": 3382, "\u0120Parameter": 3383, "Layout": 3384, "\u0120Name": 3385, "\u0120created": 3386, "ummy": 3387, "children": 3388, "\u0120Version": 3389, "leg": 3390, "\u0120stride": 3391, "shot": 3392, "\u0120matrix": 3393, "Ro": 3394, "\u0120zip": 3395, "8888": 3396, "\u0120API": 3397, "\u0120RE": 3398, "\u0120height": 3399, "tools": 3400, "501": 3401, "\u0120property": 3402, "oreignKey": 3403, "cies": 3404, "aded": 3405, "xce": 3406, "\u0120\"/": 3407, "\u0120diffe": 3408, "imen": 3409, "xcb": 3410, "#!/": 3411, "\u0120system": 3412, "game": 3413, "ee": 3414, "\u0120pub": 3415, "nameNEWLINE": 3416, "Pack": 3417, "expr": 3418, "cfg": 3419, "uuid": 3420, "fra": 3421, "TEST": 3422, "\u0120socket": 3423, ":%": 3424, "ropout": 3425, "inte": 3426, "\u0120im": 3427, "stdout": 3428, "ination": 3429, "\u0120been": 3430, "hether": 3431, "ius": 3432, "ENSE": 3433, "\u012064": 3434, "Format": 3435, "Module": 3436, "xbd": 3437, "pattern": 3438, "indices": 3439, "\u0120now": 3440, "tach": 3441, "ones": 3442, "atz": 3443, "\u0120noqa": 3444, "\u0120're": 3445, "With": 3446, "xbe": 3447, "ORD": 3448, "xde": 3449, "PRE": 3450, "=['": 3451, "olver": 3452, "\u0120timeout": 3453, "xee": 3454, "'])),": 3455, "atio": 3456, "xea": 3457, "asic": 3458, "tact": 3459, "\u0120Po": 3460, "Process": 3461, "ae": 3462, "INT": 3463, "\u0120cv": 3464, "\u0120User": 3465, "IntegerField": 3466, "thing": 3467, "\u0120math": 3468, "Token": 3469, "')),": 3470, "\u0120items": 3471, "Device": 3472, "\u0120sequence": 3473, "API": 3474, "xaf": 3475, "properties": 3476, "\u0120empty": 3477, "ugh": 3478, "UE": 3479, "xbb": 3480, "\u0120configuration": 3481, "most": 3482, "application": 3483, "\u0120window": 3484, "\u0120returned": 3485, "helper": 3486, "penden": 3487, "xdd": 3488, "ens": 3489, "\u0120display": 3490, "dec": 3491, "\u0120following": 3492, "\u0120position": 3493, "ctx": 3494, "speci": 3495, "lem": 3496, "med": 3497, "isco": 3498, "\u0120\",": 3499, "inition": 3500, "CHAN": 3501, "\u0120password": 3502, "\u0120left": 3503, "vate": 3504, "\u0120OrderedDict": 3505, "tack": 3506, "LICENSE": 3507, "DIR": 3508, "\u0120fail": 3509, "ithub": 3510, "span": 3511, "channels": 3512, "Change": 3513, "staticmethodNEWLINE": 3514, "ABILITY": 3515, ">'": 3516, "\u0120[[": 3517, "diff": 3518, "mid": 3519, "\u0120System": 3520, "xac": 3521, "route": 3522, "\u0120dir": 3523, "xba": 3524, "xda": 3525, "xbc": 3526, "roll": 3527, "Output": 3528, "imension": 3529, "fit": 3530, "0001": 3531, "AND": 3532, "tests": 3533, "kernel": 3534, "\u0120job": 3535, "\u0120URL": 3536, "tn": 3537, "unique": 3538, "setup": 3539, "Imple": 3540, "\u0120handler": 3541, "\u0120sorted": 3542, "If": 3543, "Param": 3544, "report": 3545, "stract": 3546, "edit": 3547, "\u0120\".": 3548, "errors": 3549, "ship": 3550, "\u0120On": 3551, "################################################################": 3552, "this": 3553, "\\$": 3554, "Page": 3555, "xab": 3556, "prob": 3557, "\u0120----------": 3558, "gb": 3559, "google": 3560, "lr": 3561, "curity": 3562, "\u0120rule": 3563, "nu": 3564, "ffix": 3565, "required": 3566, "\u0120DE": 3567, "rer": 3568, "win": 3569, "\u0120namespace": 3570, "\u0120128": 3571, "anel": 3572, "xdc": 3573, ")',": 3574, "\u0120feature": 3575, "help": 3576, "\u0120%(": 3577, "\u0120mis": 3578, "\u0120osNEWLINEimport": 3579, "VI": 3580, "\u0120provided": 3581, "orld": 3582, "400": 3583, "relu": 3584, "extra": 3585, "\u0120pd": 3586, "Resource": 3587, "\\\"": 3588, "criptor": 3589, "\u0120LI": 3590, "\u0120wx": 3591, "\u0120LO": 3592, "\u0120style": 3593, "PROP": 3594, "dio": 3595, "Start": 3596, "Session": 3597, "JJJJJJJJ": 3598, "xample": 3599, "\u0120keys": 3600, "GB": 3601, "XR": 3602, "\u0120Ser": 3603, "unsigned": 3604, "]\\": 3605, "FOR": 3606, "\u0120script": 3607, "\u0120(-": 3608, "sim": 3609, "ForeignKey": 3610, "\u0120orNEWLINE": 3611, "ince": 3612, "\u0120called": 3613, "unicode": 3614, "\u0120</": 3615, "card": 3616, "\u0120between": 3617, "Port": 3618, "xca": 3619, "ending": 3620, "kt": 3621, "math": 3622, ")/": 3623, "untime": 3624, "cause": 3625, "loader": 3626, "oid": 3627, "\u0120hash": 3628, "tuple": 3629, "hidden": 3630, "Min": 3631, "\u0120Col": 3632, "bn": 3633, "\u0120https": 3634, "\u0120unittest": 3635, "Bg": 3636, "STAT": 3637, "\u0120access": 3638, "Ne": 3639, "IND": 3640, "\u0120debug": 3641, "HTTP": 3642, "\u0120strNEWLINE": 3643, "[\"<": 3644, "\u0120null": 3645, "MD": 3646, "Run": 3647, "git": 3648, "Def": 3649, "umer": 3650, "sec": 3651, "\u0120register": 3652, "BJ": 3653, "\u0120TODO": 3654, "Descriptor": 3655, "\u0120integer": 3656, "Read": 3657, ".',": 3658, "ji": 3659, "descriptor": 3660, "')])": 3661, "pg": 3662, "\u0120plot": 3663, "virtual": 3664, "pub": 3665, "contrib": 3666, "_.": 3667, "login": 3668, "\").": 3669, "tl": 3670, "\u0120NO": 3671, "001": 3672, "\u0120It": 3673, "__,": 3674, "GI": 3675, ">`": 3676, "QL": 3677, "\u0120split": 3678, "dified": 3679, "vec": 3680, "assed": 3681, "MT": 3682, "light": 3683, "cision": 3684, "FR": 3685, "align": 3686, "ish": 3687, "ACK": 3688, "plo": 3689, "__':": 3690, "vars": 3691, "schema": 3692, "socket": 3693, "\u0120just": 3694, "\u0120padding": 3695, "()[": 3696, "messages": 3697, "\u0120domain": 3698, "unittest": 3699, "pad": 3700, "track": 3701, "ocument": 3702, "categ": 3703, "\u0120activ": 3704, "font": 3705, "\u0120Comp": 3706, "\u0120predi": 3707, "ALI": 3708, "aut": 3709, "\u0120ctx": 3710, "rtype": 3711, "Hel": 3712, "unnel": 3713, "\u0120ho": 3714, "alt": 3715, "\u0120cre": 3716, "ipe": 3717, "\u0120sa": 3718, "\u0120training": 3719, "qzvp": 3720, "mac": 3721, "document": 3722, "Header": 3723, "\u0120free": 3724, "pair": 3725, "used": 3726, "INTER": 3727, "zone": 3728, "\u0120metadata": 3729, "sets": 3730, "gorith": 3731, "\u0120Mo": 3732, "ueue": 3733, "conn": 3734, "methods": 3735, "\u0120charac": 3736, "133": 3737, "\u012060": 3738, "TOR": 3739, "\u0120Com": 3740, "directory": 3741, "=_": 3742, "OS": 3743, "actions": 3744, "ixed": 3745, "rough": 3746, "ower": 3747, "AY": 3748, "\u0120fil": 3749, "\u0120String": 3750, "\u0120stop": 3751, "\u0120(),": 3752, "Connection": 3753, "columns": 3754, "mu": 3755, "olume": 3756, "PATH": 3757, "\u0120space": 3758, "Ref": 3759, "Te": 3760, "arm": 3761, "\u0120second": 3762, "alle": 3763, "\u0120Note": 3764, "\u0120location": 3765, "\u0120inputs": 3766, "lector": 3767, "\u0120vi": 3768, "paths": 3769, "\u0120bound": 3770, "category": 3771, "Source": 3772, "component": 3773, "storage": 3774, "vers": 3775, "\u0120database": 3776, "__)": 3777, "+'": 3778, "ffi": 3779, "SY": 3780, "\u0120Default": 3781, "SubElement": 3782, "factor": 3783, "\u0120[(": 3784, "IOS": 3785, "Match": 3786, "\u0120req": 3787, "tz": 3788, "\u0120ParametersNEWLINE": 3789, "idNEWLINE": 3790, "\u0120aNEWLINE": 3791, "predi": 3792, "quires": 3793, "\u0120utils": 3794, "NT": 3795, "summary": 3796, "ni": 3797, "\u0120bpy": 3798, "\u0120All": 3799, "TIES": 3800, "primary": 3801, "\u0120flag": 3802, "\u0120HTTP": 3803, "rag": 3804, "produ": 3805, "rows": 3806, "TLV": 3807, "\u0120don": 3808, "dr": 3809, "pa": 3810, "xE": 3811, "ker": 3812, "ons": 3813, "123": 3814, "ould": 3815, "gy": 3816, "\u0120valueNEWLINE": 3817, "memory": 3818, "sequence": 3819, "-------": 3820, "Tensor": 3821, "flag": 3822, "zen": 3823, "\u0120enum": 3824, "PL": 3825, "vas": 3826, "dirname": 3827, "boxes": 3828, "ssible": 3829, "\u0120\"'": 3830, "cons": 3831, "Thread": 3832, "nan": 3833, "hy": 3834, "ategory": 3835, "neg": 3836, "TIC": 3837, "Entry": 3838, "\u0120mean": 3839, "\u0120Close": 3840, "\u0120\u0120\u0120\u0120\u0120\u0120\u0120\u0120\u0120\u0120\u0120\u0120\u0120\u0120\u0120\u0120\u0120\u0120\u0120\u0120\u0120\u0120\u0120\u0120": 3841, "lear": 3842, "'})": 3843, "agent": 3844, "\u0120types": 3845, "/',": 3846, ".*": 3847, "uce": 3848, "Struct": 3849, "Vis": 3850, "SET": 3851, "\u0120keep": 3852, "dat": 3853, "iltin": 3854, "seed": 3855, "ets": 3856, "Boolean": 3857, "ua": 3858, "pping": 3859, "\u0120scope": 3860, "warn": 3861, "NG": 3862, "ability": 3863, "tab": 3864, "024": 3865, "pn": 3866, "Pl": 3867, "\u0120sw": 3868, "loads": 3869, "-%": 3870, "\u0120correct": 3871, "\u0120want": 3872, "alpha": 3873, "abc": 3874, "\u0120setup": 3875, "FLAGS": 3876, "logging": 3877, "\u0120Base": 3878, "cessed": 3879, "\u0120final": 3880, "setattr": 3881, "\u012030": 3882, "LL": 3883, "velo": 3884, "commit": 3885, "\u0120Di": 3886, "menu": 3887, "dle": 3888, "protocol": 3889, "\u0120sim": 3890, "Items": 3891, "({'": 3892, "rapper": 3893, "\u0120Attribute": 3894, "\u0120delete": 3895, "olve": 3896, "dc": 3897, "\u0120CO": 3898, "ured": 3899, "\u0120contains": 3900, "NEWLINENEWLINEif": 3901, "encoding": 3902, "SON": 3903, "oly": 3904, "clear": 3905, "\u0120pick": 3906, "Added": 3907, "Filter": 3908, "lar": 3909, "\u0120Sh": 3910, "terNEWLINE": 3911, "CI": 3912, "500": 3913, "raises": 3914, "bro": 3915, "va": 3916, "NEWLINEclass": 3917, "aly": 3918, "\u0120success": 3919, "allow": 3920, "BO": 3921, "exc": 3922, "apping": 3923, "aterial": 3924, "\u0120conf": 3925, "/%": 3926, "MessageWindow": 3927, "reset": 3928, "Cisco": 3929, "\u0120Found": 3930, "\u0120custom": 3931, "DATA": 3932, "\u0120generate": 3933, "11111111": 3934, "\u0120vector": 3935, "\u0120File": 3936, "vm": 3937, "rT": 3938, "\u0120ge": 3939, "steps": 3940, "depth": 3941, "`,": 3942, "vpn": 3943, "\u0120original": 3944, "tence": 3945, "Implemented": 3946, "Su": 3947, "\u0120plugin": 3948, "vironment": 3949, "\u0120nodes": 3950, "\u0120grad": 3951, "\u0120them": 3952, "fill": 3953, "zero": 3954, "att": 3955, "SION": 3956, "('-": 3957, "ram": 3958, "Variable": 3959, "Flags": 3960, "pu": 3961, "Protocol": 3962, "\u0120tests": 3963, "ighbor": 3964, "interval": 3965, "\u0120account": 3966, "SIZE": 3967, "segment": 3968, "Option": 3969, "ynam": 3970, "classmethodNEWLINE": 3971, "ads": 3972, "\u0120even": 3973, "\u0120attributes": 3974, "\u0120font": 3975, "\u0120[[-": 3976, "github": 3977, "\u0120aut": 3978, "ridge": 3979, "collection": 3980, "\u0120tr": 3981, "bi": 3982, "dential": 3983, "aaaaaaaa": 3984, "\u0120ip": 3985, "holder": 3986, "Down": 3987, "cisco": 3988, "validate": 3989, "Query": 3990, "training": 3991, "\u0120iprot": 3992, "NEWLINEbuf": 3993, "gnore": 3994, "\u0120Al": 3995, "sym": 3996, "compute": 3997, "\u0120errors": 3998, "lex": 3999, "\u0120mon": 4000, "container": 4001, "enabled": 4002, "\u0120\u0120\u0120\u0120\u0120\u0120\u0120\u0120\u0120\u0120\u0120\u0120\u0120\u0120\u0120\u0120\u0120\u0120\u0120\u0120\u0120\u0120\u0120\u0120\u0120\u0120\u0120\u0120\u0120": 4003, "zz": 4004, "\u0120convert": 4005, "success": 4006, "cla": 4007, "clean": 4008, "\u0120modify": 4009, "fb": 4010, "PA": 4011, ":\\": 4012, "\u0120To": 4013, "\u0120sen": 4014, "ector": 4015, "click": 4016, "ICAg": 4017, "\u0120reference": 4018, "374": 4019, "vs": 4020, "draw": 4021, "()),": 4022, "ority": 4023, "vari": 4024, "Invalid": 4025, "\u0120WARRANTIES": 4026, "\u0120dim": 4027, "\":\"": 4028, "mk": 4029, "\u0120byte": 4030, "okie": 4031, "\u0120component": 4032, "stead": 4033, "AAAAAAAA": 4034, "\u0120obtain": 4035, "\u0120TypeError": 4036, "\u0120~": 4037, "\u0120defined": 4038, "center": 4039, "eq": 4040, "medi": 4041, "PolicyMap": 4042, "READ": 4043, ")\"": 4044, "\u0120different": 4045, "Method": 4046, "(\"\\": 4047, "branch": 4048, "izes": 4049, "comment": 4050, "constructor": 4051, "NEWLINEI": 4052, "\u0120fac": 4053, "CTION": 4054, "eded": 4055, "ils": 4056, "\u0120gen": 4057, "sage": 4058, "\u0120terms": 4059, "render": 4060, "\u0120oprot": 4061, "tool": 4062, "\u0120\u0120\u0120\u0120\u0120\u0120\u0120\u0120\u0120\u0120\u0120\u0120\u0120\u0120\u0120\u0120\u0120\u0120\u0120\u0120\u0120\u0120\u0120\u0120\u0120\u0120": 4063, ",\"": 4064, "\u0120Lo": 4065, "sql": 4066, "\u0120transform": 4067, "AF": 4068, "\u0120255": 4069, "\u0120conv": 4070, "modules": 4071, "<<": 4072, "tc": 4073, "xC": 4074, "NEWLINEprint": 4075, "\u0120mod": 4076, "Args": 4077, "multi": 4078, "__.": 4079, "\u0120operation": 4080, "ITION": 4081, "lyph": 4082, "apshot": 4083, "gh": 4084, "\u0120cons": 4085, "\u0120\u0120\u0120\u0120\u0120\u0120\u0120\u0120\u0120\u0120\u0120\u0120\u0120\u0120\u0120\u0120\u0120\u0120\u0120\u0120\u0120\u0120\u0120\u0120\u0120\u0120\u0120\u0120\u0120\u0120\u0120\u0120\u0120\u0120\u0120\u0120\u0120\u0120\u0120\u0120\u0120\u0120\u0120\u0120\u0120\u0120\u0120\u0120\u0120\u0109": 4086, "\u0120\u0120\u0120\u0120\u0120\u0120\u0120\u0120\u0120\u0120\u0120\u0120\u0120\u0120\u0120\u0120\u0120\u0120\u0120\u0120\u0120\u0120\u0120\u0120\u0120\u0120\u0120\u0120\u0120\u0120\u0120\u0120\u0120\u0120\u0120\u0120\u0120\u0120\u0120\u0120\u0120\u0120\u0120\u0120\u0120\u0120\u0120\u0120\u0120\u0120\u0109": 4087, "\u0120\u0120\u0120\u0120\u0120\u0120\u0120\u0120\u0120\u0120\u0120\u0120\u0120\u0120\u0120\u0120\u0120\u0120\u0120\u0120\u0120\u0120\u0120\u0120\u0120\u0120\u0120\u0120\u0120\u0120\u0120\u0120\u0120\u0120\u0120\u0120\u0120\u0120\u0120\u0120\u0120\u0120\u0120\u0120\u0120\u0120\u0120\u0120\u0120\u0120\u0120\u0109": 4088, "\u0120\u0120\u0120\u0120\u0120\u0120\u0120\u0120\u0120\u0120\u0120\u0120\u0120\u0120\u0120\u0120\u0120\u0120\u0120\u0120\u0120\u0120\u0120\u0120\u0120\u0120\u0120\u0120\u0120\u0120\u0120\u0120\u0120\u0120\u0120\u0120\u0120\u0120\u0120\u0120\u0120\u0120\u0120\u0120\u0120\u0120\u0120\u0120\u0120\u0120\u0120\u0120\u0109": 4089, "proxy": 4090, "\u0120received": 4091, "Layer": 4092, "\u012019": 4093, "posit": 4094, "acc": 4095, "edge": 4096, "inx": 4097, "\u0120because": 4098, "\u0120Import": 4099, "atic": 4100, "lu": 4101, "outputs": 4102, "assertIs": 4103, "Template": 4104, "\u0120CloseMessageWindow": 4105, "xF": 4106, "()))": 4107, "Level": 4108, "distance": 4109, "ja": 4110, "/>": 4111, ")\\": 4112, "ulation": 4113, "127": 4114, "\u0120they": 4115, "125": 4116, "Access": 4117, "LYPD": 4118, "\u0109\u0109\u0109\u0109\u0109\u0109": 4119, "\u0120requests": 4120, "fetch": 4121, "attrs": 4122, "quare": 4123, "999": 4124, "\u0120replace": 4125, "fr": 4126, "year": 4127, "DEFAULT": 4128, "release": 4129, "CS": 4130, "\u0120stack": 4131, "\u0120metri": 4132, "ung": 4133, "\u0120render": 4134, "ITE": 4135, "Factory": 4136, "Const": 4137, "itial": 4138, "Link": 4139, "ws": 4140, "\u0120util": 4141, "Pri": 4142, "istry": 4143, "LEU": 4144, "convert": 4145, "created": 4146, "Dir": 4147, "Graph": 4148, "\u0120])": 4149, "System": 4150, "aml": 4151, "cpu": 4152, "Rou": 4153, "DF": 4154, "car": 4155, "\u0120passed": 4156, "SCRIP": 4157, "NESS": 4158, "\u0120incl": 4159, "]*": 4160, "MAX": 4161, "fac": 4162, "\u0120FILE": 4163, "lished": 4164, "include": 4165, "amily": 4166, "timestamp": 4167, "\u0120chunk": 4168, "ntax": 4169, "units": 4170, "hex": 4171, "ping": 4172, "binary": 4173, ".'": 4174, "\u0120dimension": 4175, "\u0120images": 4176, "nb": 4177, "\u0120PAR": 4178, "ffff": 4179, "mun": 4180, "CONST": 4181, "Enum": 4182, "033": 4183, "sleep": 4184, "\u0120ow": 4185, "\u0120cell": 4186, "\u0120html": 4187, "ves": 4188, "Logger": 4189, "arr": 4190, "respon": 4191, "warning": 4192, "###": 4193, "attributes": 4194, "rank": 4195, "\"},": 4196, "Tree": 4197, "metric": 4198, "engine": 4199, "Stats": 4200, "\u0120report": 4201, "mount": 4202, "gorithm": 4203, "Valid": 4204, "\u0120AND": 4205, "\u0120loop": 4206, "drop": 4207, "trace": 4208, "dirs": 4209, "ends": 4210, "\u0120points": 4211, "oth": 4212, "\u0120score": 4213, "chunk": 4214, "hes": 4215, "\u0120later": 4216, "\u0120isNEWLINE": 4217, "\u0120fl": 4218, "\u0120seq": 4219, "lack": 4220, "\u0120Free": 4221, "\u0120App": 4222, "\u0120features": 4223, "(**": 4224, "xr": 4225, "volume": 4226, "\u0120skip": 4227, "\u0120alpha": 4228, "DateTime": 4229, "dp": 4230, "sr": 4231, "DR": 4232, "Task": 4233, "\u0120dataNEWLINE": 4234, "ili": 4235, "\u012050": 4236, "licit": 4237, "factory": 4238, "1000": 4239, "EST": 4240, "cursor": 4241, "cluster": 4242, "\u0120Ap": 4243, "Instruction": 4244, "alled": 4245, "entity": 4246, "language": 4247, "\u0120Config": 4248, "aries": 4249, "amma": 4250, "\u0120payload": 4251, ">,": 4252, "\u0120Image": 4253, "filters": 4254, "\u0120PRO": 4255, "CF": 4256, "TA": 4257, "gan": 4258, "feed": 4259, "\u0120No": 4260, "\u0120section": 4261, "ka": 4262, "oto": 4263, "\u0120Option": 4264, "\u0120setting": 4265, "short": 4266, "bias": 4267, "\u0120select": 4268, "\u0120rep": 4269, ")])": 4270, "\u0120\u0120\u0120\u0120\u0120\u0120\u0120\u0120\u0120\u0120\u0120\u0120\u0120\u0120\u0120\u0120\u0120\u0120\u0120\u0120\u0120\u0120\u0120\u0120\u0120\u0120\u0120\u0120\u0120\u0120": 4271, "\u0120//": 4272, "\u00e2\u0122": 4273, "Ver": 4274, "IIIIIIIIIIIIIIII": 4275, "LS": 4276, "WN": 4277, "\u0120ca": 4278, "sched": 4279, "NEWLINENEWLINENEWLINEif": 4280, "\u0120pytest": 4281, "Float": 4282, "\u0120compute": 4283, "ways": 4284, "dfmp": 4285, "THER": 4286, "export": 4287, "\u0120email": 4288, "\u0120these": 4289, "comb": 4290, "Callback": 4291, "MIN": 4292, "culate": 4293, "home": 4294, "stderr": 4295, "px": 4296, "note": 4297, "flat": 4298, "dNEWLINE": 4299, "\u0120epoch": 4300, "\u0120author": 4301, "\u012018": 4302, "\u0120absolute": 4303, "We": 4304, "uation": 4305, "\u0120store": 4306, "tokens": 4307, "\u0120EX": 4308, "\u0120pad": 4309, "EC": 4310, "Back": 4311, "ars": 4312, "License": 4313, "symbol": 4314, "ats": 4315, "Entity": 4316, "pose": 4317, "blem": 4318, "akes": 4319, "(\"%": 4320, "soft": 4321, "\u0120weights": 4322, "IGHT": 4323, "\u0120auto": 4324, "vocab": 4325, "Column": 4326, "mul": 4327, ":**": 4328, "]):": 4329, "curacy": 4330, "\u0120implement": 4331, "PHE": 4332, "amo": 4333, "nected": 4334, "\u0120queue": 4335, "\u0120pair": 4336, "Stream": 4337, "oriz": 4338, "\u0120exc": 4339, "fp": 4340, "master": 4341, "Objects": 4342, "heet": 4343, "\u0120cfg": 4344, "rTalk": 4345, "\u0120ChrTalk": 4346, "ving": 4347, "\u0120whether": 4348, "\u0120unique": 4349, ")).": 4350, "Ph": 4351, "ence": 4352, "RC": 4353, "\u012017": 4354, "mes": 4355, ".\",": 4356, "lang": 4357, "\u0120track": 4358, "\u0120embed": 4359, "\u0120sure": 4360, "liance": 4361, "}}": 4362, "Scen": 4363, "Conv": 4364, "={'": 4365, "ished": 4366, "Location": 4367, "]])": 4368, "ancel": 4369, "\u012040": 4370, "ialog": 4371, "ti": 4372, "132": 4373, "Open": 4374, ",),": 4375, "ords": 4376, "Pool": 4377, "\u0120pool": 4378, "\u0120widget": 4379, "plan": 4380, "ored": 4381, "OK": 4382, "Mock": 4383, "\u0120inte": 4384, "ometry": 4385, "chedule": 4386, "reed": 4387, "Off": 4388, "\u0120'{": 4389, "\u0120sort": 4390, "assign": 4391, "apply": 4392, "spect": 4393, "Length": 4394, "enu": 4395, "crypt": 4396, "\u0120NotImplemented": 4397, "force": 4398, "ULAR": 4399, "PORT": 4400, "hs": 4401, "\u0120\u0120\u0120\u0120\u0120\u0120\u0120\u0120\u0120\u0120\u0120\u0120\u0120\u0120\u0120\u0120\u0120\u0120\u0120\u0120\u0120\u0120\u0120\u0120\u0120\u0120\u0120\u0120\u0120\u0120\u0120\u0120\u0120\u0120\u0120": 4402, "\u0120best": 4403, "DS": 4404, "\u0120instead": 4405, "Mat": 4406, "And": 4407, "Types": 4408, "scal": 4409, "ines": 4410, "UI": 4411, "revision": 4412, "\u0120useful": 4413, "\u0120draw": 4414, "129": 4415, "reduce": 4416, "\u0120await": 4417, "Ab": 4418, "ROM": 4419, "ixel": 4420, "\u0120real": 4421, "TIME": 4422, "\u0120web": 4423, "astype": 4424, "docs": 4425, "New": 4426, "called": 4427, "\u0120IP": 4428, "SIS": 4429, "\u0120Per": 4430, "Iter": 4431, "OF": 4432, "asure": 4433, "002": 4434, "\u0120conn": 4435, "invalid": 4436, "\u0120about": 4437, "Met": 4438, ")\",": 4439, "users": 4440, "cuda": 4441, "ensed": 4442, "final": 4443, "Work": 4444, "118": 4445, "ava": 4446, "icon": 4447, "tention": 4448, "535": 4449, "changed": 4450, "itude": 4451, "\u0120\"__": 4452, "PB": 4453, "\u0120\"--": 4454, "PS": 4455, "Ptr": 4456, "\u0120buffer": 4457, "region": 4458, "Windows": 4459, "\u0120En": 4460, "\u0120loc": 4461, "('%": 4462, "ques": 4463, "alys": 4464, "simple": 4465, ")'": 4466, "\u0120failed": 4467, "tection": 4468, "),'": 4469, "rable": 4470, "\u0120nameNEWLINE": 4471, "cret": 4472, "ANG": 4473, "sur": 4474, "dims": 4475, "POST": 4476, "POSE": 4477, "\u0120short": 4478, "custom": 4479, "Options": 4480, "sole": 4481, "ULL": 4482, "andid": 4483, "tended": 4484, "\u0120assign": 4485, "\u0120based": 4486, "assertEquals": 4487, "pytest": 4488, "112": 4489, "payload": 4490, "\u0120ans": 4491, "\u0120permissions": 4492, "\u0120trace": 4493, "leaf": 4494, "DA": 4495, "tty": 4496, "lap": 4497, "PAR": 4498, "'d": 4499, "ube": 4500, "\u0120multiple": 4501, "leted": 4502, "none": 4503, "\u0120mer": 4504, "115": 4505, "umeric": 4506, "\u0120added": 4507, "\u0120pe": 4508, "ValueError": 4509, "enum": 4510, "alysis": 4511, "role": 4512, "HA": 4513, "APT": 4514, "requen": 4515, "\u0120sql": 4516, "pository": 4517, "where": 4518, "\u0120doesn": 4519, "igrations": 4520, "utable": 4521, "\u0120Foundation": 4522, "rozen": 4523, "\u0120direct": 4524, "INFO": 4525, "torch": 4526, "ignore": 4527, "\u0120prob": 4528, "PUT": 4529, "ye": 4530, "ET": 4531, "'re": 4532, "\u0120methods": 4533, "UM": 4534, "\u0120columns": 4535, "tick": 4536, "\u0120applic": 4537, "-\\": 4538, "Part": 4539, "117": 4540, "\u0120actual": 4541, "rowser": 4542, "MPLE": 4543, "\u0120vari": 4544, "\");": 4545, "atom": 4546, "\u0120el": 4547, "best": 4548, "\u0120layout": 4549, "('<": 4550, "tt": 4551, "../": 4552, "BUG": 4553, "Exp": 4554, "bove": 4555, "\u0120transitions": 4556, "upper": 4557, "install": 4558, "ral": 4559, "cos": 4560, "Settings": 4561, "generate": 4562, "OUT": 4563, "owner": 4564, "\u0120Open": 4565, "ibility": 4566, "ks": 4567, "chain": 4568, "\u0120variables": 4569, "just": 4570, "verbose": 4571, "mc": 4572, "\u0120\"-": 4573, "\u0120ignore": 4574, "sel": 4575, "\u0120close": 4576, "So": 4577, "110": 4578, "raise": 4579, "\u0120FIT": 4580, "Parameter": 4581, "umb": 4582, "pick": 4583, "\u0120selected": 4584, "uf": 4585, "'\",": 4586, "Sy": 4587, "\u0120Example": 4588, "\u0120previous": 4589, "\u0120force": 4590, "\u0120every": 4591, "\u0120PUR": 4592, "icro": 4593, "\u0120along": 4594, "ERCHAN": 4595, "vals": 4596, "ano": 4597, "\u0120})": 4598, "reference": 4599, "pare": 4600, "cost": 4601, "cloud": 4602, "xA": 4603, "600": 4604, "ERCHANT": 4605, "dicate": 4606, "driver": 4607, "105": 4608, "history": 4609, "database": 4610, "\u0120feed": 4611, "Inf": 4612, "Obj": 4613, "CODE": 4614, "WR": 4615, "Ge": 4616, "iss": 4617, "\u0120Make": 4618, "pid": 4619, "ACE": 4620, "\u0120clean": 4621, "\u0120done": 4622, "\u0120warn": 4623, "mesh": 4624, "ga": 4625, "\u0120associ": 4626, "expand": 4627, "\u0120inNEWLINE": 4628, "\u0120PURPOSE": 4629, "beta": 4630, "\u0120distance": 4631, "ested": 4632, "Found": 4633, "dumps": 4634, "Sign": 4635, "CG": 4636, "ather": 4637, "\u0120supported": 4638, "mem": 4639, "!!": 4640, "duce": 4641, "linear": 4642, "149": 4643, "public": 4644, "Names": 4645, "\u0120subprocess": 4646, "Network": 4647, "ynamic": 4648, "inf": 4649, "UpdateInstruction": 4650, "hook": 4651, "108": 4652, "Sty": 4653, "idual": 4654, "Buffer": 4655, "ixin": 4656, "cour": 4657, "\u0120simple": 4658, "IX": 4659, "\u0120fileNEWLINE": 4660, "048": 4661, "NET": 4662, "sqrt": 4663, "counter": 4664, "ERCHANTABILITY": 4665, "\u0120PARTIC": 4666, "ertifi": 4667, "remote": 4668, "\u01201000": 4669, "uk": 4670, "\u0120SO": 4671, "\u0120_,": 4672, "\u0120writing": 4673, "\u0120bit": 4674, "\u0120flags": 4675, "\u0120pred": 4676, "\u0120PARTICULAR": 4677, "\u0120BA": 4678, "LOCK": 4679, "fake": 4680, "NC": 4681, "\u0120sig": 4682, "\u0120sn": 4683, "logy": 4684, "ferences": 4685, "Range": 4686, "prec": 4687, "js": 4688, "lick": 4689, "UTH": 4690, "FILENAME": 4691, "\u0120tri": 4692, "\u0120FITNESS": 4693, "192": 4694, "\u0120KIND": 4695, "false": 4696, "\u0120existing": 4697, "EV": 4698, "Dialog": 4699, "\u0120install": 4700, "\u0120through": 4701, "variables": 4702, "ptr": 4703, "\u0120PO": 4704, "\u0120above": 4705, "scores": 4706, "\u0120tags": 4707, "Transition": 4708, "Child": 4709, "835": 4710, "\u0120common": 4711, "\u0120static": 4712, "\u0120Time": 4713, "parts": 4714, "\u0120clo": 4715, "\u0120possible": 4716, "\u0120))": 4717, "\u0120Function": 4718, "\u0120product": 4719, "double": 4720, "116": 4721, "\u0120how": 4722, "DC": 4723, "cient": 4724, "Serial": 4725, "threshold": 4726, "entication": 4727, "\u0120Bo": 4728, "137": 4729, "xFE": 4730, "TS": 4731, "\u0120iss": 4732, "operator": 4733, "NBC": 4734, "PER": 4735, "\u0120sent": 4736, "\u0120multi": 4737, "\u0120move": 4738, "\u0120wait": 4739, "sens": 4740, "SAPT": 4741, "bc": 4742, "BooleanField": 4743, "ually": 4744, "\u0120Up": 4745, "stim": 4746, "greg": 4747, "\u0120expression": 4748, "states": 4749, "returns": 4750, "My": 4751, "\u0120fig": 4752, "Chr": 4753, "teri": 4754, "-----": 4755, "generator": 4756, "single": 4757, "amera": 4758, "\u0120{},": 4759, "RA": 4760, "\u0120documentation": 4761, "Returns": 4762, "\u0120urllib": 4763, "\u0120both": 4764, "price": 4765, "ases": 4766, "\u0120edge": 4767, "selected": 4768, "original": 4769, "coded": 4770, "\u0120\u0120\u0120\u0120\u0120\u0120\u0120\u0120\u0120\u0120\u0120\u0120\u0120\u0120\u0120\u0120\u0120\u0120\u0120\u0120\u0120\u0120\u0120\u0120\u0120\u0120\u0120\u0120": 4771, "\u012025": 4772, "dm": 4773, "\u0120Apache": 4774, "wx": 4775, "ools": 4776, "/'": 4777, "114": 4778, "\u0120Lic": 4779, "spath": 4780, "WS": 4781, "DESCRIP": 4782, "\u0120generated": 4783, "',),": 4784, "lation": 4785, ".)": 4786, "rec": 4787, "\u0120functions": 4788, "Deta": 4789, "\u0120binary": 4790, "learn": 4791, "Application": 4792, "\u0120reverse": 4793, "\u0120cluster": 4794, "named": 4795, "130": 4796, "\u0120look": 4797, ":'": 4798, "\u0120relative": 4799, "unch": 4800, "parameter": 4801, "COL": 4802, "ertificate": 4803, "iod": 4804, "opts": 4805, "orter": 4806, "\u0120Inc": 4807, "Argument": 4808, "\u0120ctypes": 4809, "\u0120grid": 4810, "fname": 4811, "series": 4812, "repo": 4813, "\"><": 4814, "\u0120our": 4815, "\u0120running": 4816, "\u0120NotImplementedError": 4817, "stor": 4818, "\u0120exit": 4819, "\u0120Num": 4820, "FFFFFFFF": 4821, "_)": 4822, "chor": 4823, "signal": 4824, "\u0120rate": 4825, "]\\|": 4826, "mar": 4827, ")+": 4828, "\u0120Unknown": 4829, ">\"": 4830, "\u0120missing": 4831, "Global": 4832, "uded": 4833, "plotlib": 4834, "\u0120outputs": 4835, "WARE": 4836, "Av": 4837, "checkpoint": 4838, "\u0120disable": 4839, "\u0120forward": 4840, "ttp": 4841, "cut": 4842, "stage": 4843, "assertFalse": 4844, "NER": 4845, "\u0120exists": 4846, "MIT": 4847, "\u0120NOT": 4848, "schedule": 4849, "MODE": 4850, "xture": 4851, "\u0120He": 4852, "\u012065": 4853, "props": 4854, "Cl": 4855, "\u0120place": 4856, "Ns": 4857, "avg": 4858, "seg": 4859, "\u0120memory": 4860, "after": 4861, "AutoField": 4862, "blocks": 4863, "lend": 4864, "\u0120attrs": 4865, "\u0120pk": 4866, "periment": 4867, "\u0120classes": 4868, "VM": 4869, "freq": 4870, "aff": 4871, "zy": 4872, "uplic": 4873, "apter": 4874, "lain": 4875, "tw": 4876, "Target": 4877, "utor": 4878, "dn": 4879, "\u0120application": 4880, "(%": 4881, "FORM": 4882, "104": 4883, "\u0120buf": 4884, "\u0120MERCHANTABILITY": 4885, "'m": 4886, "\u0120protocol": 4887, "\u0120correspon": 4888, "\u0120hand": 4889, "shared": 4890, "\"].": 4891, "PY": 4892, "USER": 4893, "area": 4894, "CU": 4895, "\u0120invalid": 4896, "------------------------------------------------------------------------": 4897, "Record": 4898, "\u0120mp": 4899, "WORD": 4900, "}'.": 4901, "ail": 4902, "second": 4903, "\u0120-=": 4904, "\u0120sm": 4905, "\u0120pattern": 4906, "199": 4907, "curs": 4908, "\u0120serialized": 4909, "serialize": 4910, "ransport": 4911, "126": 4912, "\u0120cursor": 4913, "download": 4914, "mag": 4915, "Dist": 4916, "\u0120Use": 4917, "\u0120day": 4918, "\u0120]))": 4919, "004": 4920, "SN": 4921, "\u0120argparse": 4922, "\u0120comment": 4923, "safe": 4924, "argin": 4925, "295": 4926, "\u0120xrange": 4927, "ression": 4928, "bad": 4929, "\u0120async": 4930, "pers": 4931, "\u0120connect": 4932, "Tunnel": 4933, "\u0120fn": 4934, "\u0120QtGui": 4935, "\u0120desc": 4936, "Bar": 4937, "NK": 4938, "FB": 4939, "ydk": 4940, "dl": 4941, "ified": 4942, "clus": 4943, "\u0120zero": 4944, "\u0120signal": 4945, "124": 4946, "\u0120{}),": 4947, "uted": 4948, ">>>>": 4949, "\u0120sess": 4950, "\u0120atNEWLINE": 4951, "events": 4952, "\u0120remote": 4953, "Ident": 4954, "Begin": 4955, "platform": 4956, "\u0120Auth": 4957, "LECT": 4958, "question": 4959, "\u0120void": 4960, "xB": 4961, "uffle": 4962, "\u0120BR": 4963, "DT": 4964, "One": 4965, "\u0120bar": 4966, "012": 4967, "apache": 4968, "tener": 4969, "seconds": 4970, "RES": 4971, "optional": 4972, "\u0120elements": 4973, "135": 4974, "archive": 4975, "\u0120180": 4976, "chi": 4977, "\u0120[])": 4978, "\u0120Licensed": 4979, "Tests": 4980, "bucket": 4981, "pix": 4982, "168": 4983, "\u0120validate": 4984, "\u0120TestItem": 4985, "DITION": 4986, "\u0120equal": 4987, "Widgets": 4988, "ko": 4989, "rp": 4990, "\u0120WARRANTY": 4991, "############": 4992, "Description": 4993, "')],": 4994, "}\".": 4995, "igration": 4996, "\u0120setUp": 4997, "ario": 4998, "term": 4999, "\u0120Th": 5000, "\u0120username": 5001, "\u0120applicable": 5002, "fast": 5003, "\u0120HT": 5004, "spose": 5005, "urls": 5006, "109": 5007, "[:-": 5008, "\u0120LE": 5009, "mas": 5010, "\u0120entity": 5011, "MI": 5012, "za": 5013, "\u0120intNEWLINE": 5014, "actor": 5015, "gu": 5016, "Top": 5017, "ands": 5018, "\u0120their": 5019, "Scale": 5020, "cn": 5021, "\u0120Log": 5022, "AU": 5023, "\u0120schema": 5024, "\u0120messages": 5025, "Opt": 5026, "006": 5027, "Rule": 5028, "ypes": 5029, "Cache": 5030, "144": 5031, "sure": 5032, "Mac": 5033, "NEWLINEb": 5034, "scene": 5035, "liter": 5036, "\u0120tensorflow": 5037, "145": 5038, "\u0120ImportError": 5039, "\u0120active": 5040, "uate": 5041, "initializer": 5042, "\u0120pop": 5043, "\u0120dt": 5044, "\u0120depth": 5045, "processing": 5046, "Menu": 5047, "\u0120gover": 5048, "219": 5049, "distribute": 5050, "uring": 5051, "tect": 5052, "Ut": 5053, "illa": 5054, "correct": 5055, "\u0120folder": 5056, "\u0120container": 5057, "|\\": 5058, "Reference": 5059, "\u0120button": 5060, "TF": 5061, "\u0120{}\".": 5062, "FIG": 5063, "\u0120ReturnsNEWLINE": 5064, "IF": 5065, "\u0120\"_": 5066, "eno": 5067, "??": 5068, "\u0120rot": 5069, "*(": 5070, "\u0120As": 5071, "Many": 5072, "bf": 5073, ":',": 5074, "lst": 5075, "esc": 5076, "ARG": 5077, "146": 5078, ";;": 5079, "\u0120provide": 5080, "032": 5081, "\u012010000": 5082, "screen": 5083, "uch": 5084, "ural": 5085, "setterNEWLINE": 5086, "''':": 5087, "\u0120fp": 5088, "__\":": 5089, "Packet": 5090, "ading": 5091, "\u0120stri": 5092, "intern": 5093, "\u0120again": 5094, "\u0120false": 5095, "dentials": 5096, "\u0120paths": 5097, "2017": 5098, "constant": 5099, "\u0120strings": 5100, "\u0120Do": 5101, "Profile": 5102, "LR": 5103, "\u0120properties": 5104, "\u0120dec": 5105, "requency": 5106, "_%": 5107, "\u0120hidden": 5108, "([])": 5109, "rigger": 5110, "\u0120KeyError": 5111, "\u0120rad": 5112, "integer": 5113, "111": 5114, "andas": 5115, "pipe": 5116, "\u0120sysNEWLINEimport": 5117, "\u0120tokens": 5118, "em": 5119, "creen": 5120, "Channel": 5121, "rm": 5122, "tract": 5123, "\u0120indices": 5124, "\u0120six": 5125, "ational": 5126, "\u0120being": 5127, "ouse": 5128, "\u0120specify": 5129, "\u0120express": 5130, "\u0120'')": 5131, "ourse": 5132, "202": 5133, "arguments": 5134, "\u0120war": 5135, "\u0120HTML": 5136, "\u0120rows": 5137, "/{": 5138, "EP": 5139, "orth": 5140, "views": 5141, "\u0120-------": 5142, "player": 5143, "\u0120apply": 5144, "\u0120Val": 5145, "ressed": 5146, "ilar": 5147, "\u0120published": 5148, "colors": 5149, "\u0120MO": 5150, "firm": 5151, "mapping": 5152, "CR": 5153, "asse": 5154, "elif": 5155, "lots": 5156, "NEWLINEif": 5157, "Order": 5158, "fic": 5159, "\u0120Point": 5160, "ratio": 5161, "xFF": 5162, "amount": 5163, "aper": 5164, "\u0120valueNEWLINENEWLINE": 5165, "\u0120compliance": 5166, "([[": 5167, "\u0120finally": 5168, "008": 5169, "tle": 5170, "arange": 5171, "\u0120continueNEWLINENEWLINE": 5172, "rency": 5173, "\u0120note": 5174, "ropy": 5175, "Del": 5176, "\u0120tw": 5177, "\u0120fill": 5178, "basic": 5179, "xi": 5180, "\u0120coordin": 5181, "eve": 5182, "\u0120way": 5183, "\u0120what": 5184, "\u0120diff": 5185, "\u0120By": 5186, "\u0120separ": 5187, "\u0120144": 5188, "Sk": 5189, "Infop": 5190, "ICAgICAg": 5191, "predict": 5192, "005": 5193, "Vector": 5194, "]=": 5195, "\u0120associated": 5196, "TC": 5197, "\u0120byNEWLINE": 5198, "404": 5199, "DDDD": 5200, "tems": 5201, "gpu": 5202, "\u0120profile": 5203, "backend": 5204, "\u0120packet": 5205, "Host": 5206, "\u0120patch": 5207, "quent": 5208, "times": 5209, "003": 5210, "\u0120since": 5211, "\u0120neg": 5212, "\u0120choices": 5213, "chine": 5214, "reader": 5215, "().__": 5216, "support": 5217, "poly": 5218, "mbers": 5219, "\u0120region": 5220, "\u0120Node": 5221, "\u0120>>": 5222, "slice": 5223, "\u0120norm": 5224, "media": 5225, "\u0120who": 5226, "sizeNEWLINE": 5227, "bal": 5228, "}\\": 5229, "UU": 5230, "\u0120136": 5231, "high": 5232, "\u0120Model": 5233, "\u0120spe": 5234, "AE": 5235, "ras": 5236, "203": 5237, "exceptions": 5238, "jor": 5239, "choices": 5240, "pted": 5241, "\u0120present": 5242, "ely": 5243, "rence": 5244, "caten": 5245, "\u0120foo": 5246, "\u012023": 5247, "\u0120otherwise": 5248, "CRE": 5249, "='',": 5250, "proc": 5251, "ploy": 5252, "AV": 5253, "\u0120appro": 5254, "encoder": 5255, "DateTimeField": 5256, "\u0120such": 5257, "\u0120distribution": 5258, "Ext": 5259, "istics": 5260, "XML": 5261, "Mixin": 5262, "period": 5263, "shift": 5264, "hi": 5265, "cip": 5266, "Sw": 5267, "DITIONS": 5268, "contain": 5269, "Local": 5270, "ea": 5271, "\u0120Variable": 5272, "ilities": 5273, "\u0120law": 5274, "119": 5275, "orizont": 5276, "\u0120lin": 5277, "025": 5278, "Bit": 5279, "available": 5280, "complete": 5281, "setting": 5282, "Python": 5283, "\u0120governing": 5284, "sha": 5285, "SV": 5286, "nx": 5287, "isode": 5288, "TypeError": 5289, "IR": 5290, "LOG": 5291, "gi": 5292, "\u0120align": 5293, ")(": 5294, "pendencies": 5295, "009": 5296, "@@": 5297, "Mon": 5298, "compat": 5299, "DU": 5300, "Uni": 5301, "wb": 5302, "\u0120135": 5303, "177": 5304, "iki": 5305, "course": 5306, "\u0120stdout": 5307, "\u0120factor": 5308, "\u0120face": 5309, "235": 5310, "testing": 5311, "cipy": 5312, "delay": 5313, "\u0120forNEWLINE": 5314, "\u0120join": 5315, "\u0120\"\",": 5316, "ado": 5317, "Use": 5318, "omatic": 5319, "\u0120license": 5320, "enable": 5321, "Side": 5322, "\u0120timestamp": 5323, "\u0120\u0120\u0120\u0120\u0120\u0120\u0120\u0120\u0120\u0120\u0120\u0120\u0120\u0120\u0120\u0120\u0120\u0120\u0120\u0120\u0120\u0120\u0120\u0120\u0120\u0120\u0120\u0120\u0120\u0120\u0120\u0120\u0120\u0120\u0120\u0120\u0120\u0120\u0120\u0120\u0120\u0120\u0120\u0120\u0120\u0120\u0120\u0120\u0120\u0120\u0120\u0120\u0120\u0109": 5324, "\u0120\u0120\u0120\u0120\u0120\u0120\u0120\u0120\u0120\u0120\u0120\u0120\u0120\u0120\u0120\u0120\u0120\u0120\u0120\u0120\u0120\u0120\u0120\u0120\u0120\u0120\u0120\u0120\u0120\u0120\u0120\u0120\u0120\u0120\u0120\u0120\u0120\u0120\u0120\u0120\u0120\u0120\u0120\u0120\u0120\u0120\u0120\u0120\u0120\u0120\u0120\u0120\u0120\u0120\u0109": 5325, "\u0120\u0120\u0120\u0120\u0120\u0120\u0120\u0120\u0120\u0120\u0120\u0120\u0120\u0120\u0120\u0120\u0120\u0120\u0120\u0120\u0120\u0120\u0120\u0120\u0120\u0120\u0120\u0120\u0120\u0120\u0120\u0120\u0120\u0120\u0120\u0120\u0120\u0120\u0120\u0120\u0120\u0120\u0120\u0120\u0120\u0120\u0120\u0120\u0120\u0120\u0120\u0120\u0120\u0120\u0120\u0109": 5326, "\u0120\u0120\u0120\u0120\u0120\u0120\u0120\u0120\u0120\u0120\u0120\u0120\u0120\u0120\u0120\u0120\u0120\u0120\u0120\u0120\u0120\u0120\u0120\u0120\u0120\u0120\u0120\u0120\u0120\u0120\u0120\u0120\u0120\u0120\u0120\u0120\u0120\u0120\u0120\u0120\u0120\u0120\u0120\u0120\u0120\u0120\u0120\u0120\u0120\u0120\u0120\u0120\u0120\u0120\u0120\u0120\u0109": 5327, "Batch": 5328, "cade": 5329, "\u0120CONDITIONS": 5330, "star": 5331, "\u0120beNEWLINE": 5332, "IE": 5333, "regex": 5334, "\u0120stringNEWLINE": 5335, "dings": 5336, "\u0120cannot": 5337, "'^": 5338, "\u0120high": 5339, "\u0120132": 5340, "rd": 5341, "tected": 5342, "Parameters": 5343, "inv": 5344, "\u0120intNEWLINENEWLINE": 5345, "lite": 5346, "getLogger": 5347, "Var": 5348, "free": 5349, "\u0120BASIS": 5350, "&&": 5351, "sep": 5352, "\u0120stats": 5353, "utes": 5354, "translate": 5355, "bd": 5356, "eg": 5357, "\u0120pickle": 5358, ",)": 5359, "1234": 5360, "Edit": 5361, "')]": 5362, "DESCRIPTOR": 5363, "some": 5364, "429": 5365, "\u0120Uni": 5366, "ONG": 5367, "\u0120Dis": 5368, "PU": 5369, "Jo": 5370, "Vrf": 5371, "uting": 5372, "\u0120collections": 5373, "under": 5374, "forms": 5375, "power": 5376, "()]": 5377, "udio": 5378, "\u0120Number": 5379, "NEWLINEC": 5380, "\u0120within": 5381, "``.": 5382, "secret": 5383, "cols": 5384, "\u0120Out": 5385, "bat": 5386, "bg": 5387, "\u0120138": 5388, "\u0120DO": 5389, "abspath": 5390, "}.": 5391, "\u0120could": 5392, "links": 5393, "120": 5394, "\u0120parsed": 5395, "8834": 5396, "cnt": 5397, "done": 5398, "\u0120Bu": 5399, "=[],": 5400, "\u0120134": 5401, "\u0120agreed": 5402, "Account": 5403, "\u0120eq": 5404, "\u0120Trans": 5405, "hand": 5406, "039": 5407, "\u0120side": 5408, "ulate": 5409, "106": 5410, "defined": 5411, "Width": 5412, "REQU": 5413, "undle": 5414, "WE": 5415, "\u0120volume": 5416, "Sto": 5417, "Document": 5418, "++++": 5419, "joint": 5420, "boolean": 5421, "gui": 5422, "Unit": 5423, "unct": 5424, "------": 5425, "metrics": 5426, "dropout": 5427, "\u0120download": 5428, "CONT": 5429, "ynch": 5430, "super": 5431, "Active": 5432, "Style": 5433, "ues": 5434, "quote": 5435, "\u0120library": 5436, "']),": 5437, "\u0120133": 5438, "FTWARE": 5439, "TYR": 5440, "lev": 5441, "\u0120allowed": 5442, "perform": 5443, "thernet": 5444, "rees": 5445, "dleware": 5446, "peat": 5447, "////////////////": 5448, "\u0120cy": 5449, "IH": 5450, "\u0120would": 5451, "sin": 5452, "contents": 5453, "\u0120Sub": 5454, "STRING": 5455, "builtin": 5456, "(\"/": 5457, "Normal": 5458, "\u0120typ": 5459, "188": 5460, "\u012080": 5461, "mut": 5462, "\u0120139": 5463, "BR": 5464, "\u0120BE": 5465, "orizontal": 5466, "orn": 5467, "139": 5468, "\u0120<<": 5469, "\u0120ipv": 5470, "pointer": 5471, "Op": 5472, "tte": 5473, "\u0120game": 5474, "\u0120delta": 5475, "Web": 5476, "forward": 5477, "\u0120129": 5478, "scribe": 5479, "ah": 5480, "\u0120mapping": 5481, "\u0120Text": 5482, "bed": 5483, "havi": 5484, "\u0120words": 5485, "AX": 5486, "________": 5487, "()):": 5488, "mol": 5489, "\u0120:,": 5490, "lint": 5491, "targets": 5492, "789": 5493, "EEEE": 5494, "lert": 5495, "GT": 5496, "\u0120symbol": 5497, "\u0120Optional": 5498, "lookup": 5499, "prev": 5500, "ivity": 5501, "resources": 5502, "180": 5503, "\u0120Unless": 5504, "('.": 5505, "\u0120blank": 5506, "\u0120{}'.": 5507, "distribution": 5508, "\u012028": 5509, "\u012075": 5510, "SU": 5511, "\u0120category": 5512, "xD": 5513, "\u0120identifier": 5514, "\u0120environment": 5515, "lier": 5516, "DING": 5517, "+\"": 5518, "134": 5519, "plt": 5520, "BP": 5521, "\u0120determin": 5522, "153": 5523, "endswith": 5524, "merge": 5525, "Ali": 5526, "NEWLINEexcept": 5527, "provider": 5528, "VIC": 5529, "tion": 5530, "relation": 5531, "STATE": 5532, "quested": 5533, "\u0120redistribute": 5534, "Attributes": 5535, "\u0120migrations": 5536, "\u0120retri": 5537, "writer": 5538, "136": 5539, "bbox": 5540, "css": 5541, "CD": 5542, "terns": 5543, "sch": 5544, "\\'": 5545, "043": 5546, "\u0120oc": 5547, "arse": 5548, "\u0120pixel": 5549, "voke": 5550, "__.__": 5551, "2018": 5552, "\u0120Ac": 5553, "\u0120Field": 5554, "Current": 5555, "serve": 5556, "nr": 5557, "agement": 5558, "103": 5559, "VO": 5560, ")-": 5561, "\u0120145": 5562, "\u0120seconds": 5563, "internal": 5564, "break": 5565, "ERS": 5566, "\u0120sage": 5567, "resses": 5568, "dst": 5569, "\u0120prop": 5570, "NEWLINEs": 5571, "clip": 5572, "ender": 5573, "\u0120video": 5574, "))))": 5575, "\u0120###": 5576, "ring": 5577, "\u0120outfile": 5578, "sync": 5579, "ECT": 5580, "\u012022": 5581, "Search": 5582, "Nj": 5583, "\u0120spec": 5584, "029": 5585, "unpack": 5586, "509": 5587, "CATION": 5588, "QtCore": 5589, "Sup": 5590, "\u0120needed": 5591, "157": 5592, "113": 5593, "escription": 5594, "Over": 5595, "Warning": 5596, "equ": 5597, "ond": 5598, "CB": 5599, "kind": 5600, "pus": 5601, "async": 5602, "\u012042": 5603, "\u0120hope": 5604, "\u0120policy": 5605, "\u0120OS": 5606, "month": 5607, "LASS": 5608, "Queue": 5609, "loaded": 5610, "ade": 5611, "VERSION": 5612, "\u0120fit": 5613, "yNEWLINE": 5614, "ki": 5615, "extract": 5616, "jobs": 5617, "processed": 5618, "Proxy": 5619, "122": 5620, "\u0120cap": 5621, "\u0120win": 5622, "\u0120When": 5623, "\"}),": 5624, "sess": 5625, "Msg": 5626, "ranty": 5627, "ov": 5628, "\u0120keyword": 5629, "\u0120operator": 5630, "choice": 5631, "rays": 5632, "hat": 5633, "Plugin": 5634, "GN": 5635, "detail": 5636, "\u0120\":": 5637, "\u0120maximum": 5638, "\u01201407": 5639, "647": 5640, "\u0120Ra": 5641, "\u0120kw": 5642, "\u0120pythonNEWLINE": 5643, "']))": 5644, "\u0120tool": 5645, "flush": 5646, "Offset": 5647, "\u0120activation": 5648, "MAP": 5649, "Container": 5650, "Empty": 5651, "GF": 5652, "\u0120AR": 5653, "\u0120uses": 5654, "LOW": 5655, "deg": 5656, "(('": 5657, "Simple": 5658, "\u0120optionalNEWLINE": 5659, "\u0120platform": 5660, "optim": 5661, "Ip": 5662, "Changed": 5663, "jection": 5664, ">'},": 5665, "EL": 5666, "lb": 5667, "\u0120conver": 5668, "\u0120art": 5669, "\u0120warranty": 5670, "\u0120108": 5671, "PT": 5672, ":,": 5673, "\u0120reset": 5674, "\u0120FROM": 5675, "(\"--": 5676, "regis": 5677, "MC": 5678, "\u012077": 5679, "NOT": 5680, "\u0120repr": 5681, "gon": 5682, "\u0120begin": 5683, "\u0120Input": 5684, "_{": 5685, "SL": 5686, "\u0120softwareNEWLINE": 5687, "\u0120scal": 5688, "\u0120150": 5689, "PropertyMeta": 5690, "\u0120objectNEWLINE": 5691, "CLU": 5692, "sd": 5693, "push": 5694, "\u0120samples": 5695, "before": 5696, "\u0120optimizer": 5697, "rong": 5698, "DEBUG": 5699, "107": 5700, "\u0120SOFTWARE": 5701, "TypeId": 5702, "controller": 5703, "\u0120137": 5704, "auss": 5705, "\u0120hel": 5706, "\u0120menu": 5707, "\"\"\",": 5708, "\u0120io": 5709, "\u0120bias": 5710, "\u0120verify": 5711, "mpt": 5712, "dummy": 5713, "CPU": 5714, "ym": 5715, "\u0120prev": 5716, "\u0120JSON": 5717, "ii": 5718, "embedding": 5719, ">:": 5720, "\u0120standard": 5721, "tic": 5722, "pdf": 5723, "\u0120export": 5724, "ferred": 5725, "\u0120optim": 5726, "person": 5727, "Tool": 5728, "scpexpr": 5729, "\u0120')": 5730, "\u0120layers": 5731, "\u0120conditions": 5732, "effect": 5733, "placeholder": 5734, "Pe": 5735, "reverse": 5736, "\u012078": 5737, "indent": 5738, "150": 5739, "allel": 5740, "\u0120ST": 5741, "Position": 5742, "0000000000000000": 5743, "LIST": 5744, "\u0120subject": 5745, "\u0120member": 5746, "Row": 5747, "159": 5748, "constraint": 5749, "\u0120kind": 5750, "\u0120reason": 5751, "Register": 5752, "rpc": 5753, "\u0120perform": 5754, "ev": 5755, "ynchron": 5756, "tile": 5757, "mult": 5758, "\u0120icon": 5759, "begin": 5760, "voice": 5761, "anded": 5762, "\u0120256": 5763, "roy": 5764, "elements": 5765, "alias": 5766, "white": 5767, "141": 5768, "\u0120center": 5769, "istent": 5770, "Ho": 5771, "\u0120proxy": 5772, "axes": 5773, "\u0120person": 5774, "\u0120dev": 5775, "{\"": 5776, "\u0120Qu": 5777, "progress": 5778, "NA": 5779, "|'": 5780, "]{": 5781, "\u0120pol": 5782, "Component": 5783, "acity": 5784, "found": 5785, "fmt": 5786, "\u0120warnings": 5787, "selection": 5788, "\u0120head": 5789, "Af": 5790, "learning": 5791, "RI": 5792, "lc": 5793, "istic": 5794, "\u0120seed": 5795, "dimen": 5796, "anner": 5797, "045": 5798, "375": 5799, "Failed": 5800, "sock": 5801, "rack": 5802, "eras": 5803, "\u0120atom": 5804, "\u012079": 5805, "\u0120lis": 5806, "\u0120146": 5807, "\u0120(%": 5808, "boot": 5809, "kl": 5810, "\u0120Window": 5811, "Attr": 5812, "ORS": 5813, "ilt": 5814, "Params": 5815, "basename": 5816, "ategy": 5817, "\u0120Arg": 5818, "049": 5819, "\u0120google": 5820, "Write": 5821, "Ep": 5822, "emb": 5823, "vn": 5824, "ART": 5825, "*.": 5826, "cture": 5827, "erature": 5828, "\u0120users": 5829, "\u0120matplotlib": 5830, "\u0120AttributeError": 5831, "\u0120sq": 5832, "\u0120149": 5833, "quee": 5834, "bits": 5835, "CONFIG": 5836, "\u0120npNEWLINEimport": 5837, "clar": 5838, "\u0120chain": 5839, "\u012031": 5840, "ateway": 5841, "private": 5842, "frozen": 5843, "iler": 5844, "\u0120related": 5845, "QP": 5846, "'+": 5847, "3748834": 5848, "dimension": 5849, "identifier": 5850, "gf": 5851, "crement": 5852, "\u0120always": 5853, "\u0120pr": 5854, "hn": 5855, "suffix": 5856, "\u0120130": 5857, "Pass": 5858, "NEWLINEparser": 5859, "155": 5860, "\u0120148": 5861, "precated": 5862, "scan": 5863, "\u0120execute": 5864, "\u0120gt": 5865, "verify": 5866, "Sequence": 5867, "\u0120140": 5868, "\u0120Ge": 5869, "MN": 5870, "ju": 5871, "STATUS": 5872, "gno": 5873, "\u0120generator": 5874, ";-": 5875, "details": 5876, "tb": 5877, "$',": 5878, "Transient": 5879, "gc": 5880, "152": 5881, "\u0120metric": 5882, "NING": 5883, "\u0120TType": 5884, "\u0120events": 5885, "\u0120Column": 5886, "ssl": 5887, "096": 5888, "Imp": 5889, "\u0120_(\"": 5890, "147": 5891, "Nodes": 5892, "scape": 5893, "USE": 5894, "')[": 5895, "wards": 5896, "419": 5897, "===": 5898, "missing": 5899, "\u0120eps": 5900, "ilon": 5901, "189": 5902, "Flow": 5903, "big": 5904, "\u0120addr": 5905, "Handle": 5906, "ngine": 5907, "\u0120Request": 5908, "\u0120Event": 5909, "\u0120Index": 5910, "ERE": 5911, "\u0120indent": 5912, "\u012014073748834": 5913, "dx": 5914, "OD": 5915, "],[": 5916, "team": 5917, "gE": 5918, "escape": 5919, "Sum": 5920, "RED": 5921, "\u0120rv": 5922, "wY": 5923, "mbols": 5924, "\u0120shell": 5925, "\u0120glyph": 5926, "Admin": 5927, "ARY": 5928, "ao": 5929, "OL": 5930, "\u0120lower": 5931, "Delete": 5932, "\u0120extract": 5933, "007": 5934, "anon": 5935, "\u0120TH": 5936, "\u0120Error": 5937, "raction": 5938, "\u0120selfNEWLINE": 5939, "148": 5940, "ming": 5941, "~~~~~~~~": 5942, "ali": 5943, "agic": 5944, "\u0120dep": 5945, "eff": 5946, "tar": 5947, "\u012059": 5948, "\u0120updated": 5949, "\u0120rest": 5950, ":-": 5951, "validation": 5952, "']\"}),": 5953, "\u0120101": 5954, "Bin": 5955, "tasks": 5956, ">>>": 5957, "\u0120lock": 5958, "66666666": 5959, "LAY": 5960, "\u0120Update": 5961, "optimizer": 5962, "PBED": 5963, "GC": 5964, "\u0120SetChr": 5965, "\u0120annot": 5966, "rev": 5967, "\u0120agent": 5968, "days": 5969, "sid": 5970, "origin": 5971, "\u0120opts": 5972, "grade": 5973, "\u0120compat": 5974, "har": 5975, "\u012074": 5976, "\u0120storage": 5977, "035": 5978, "vr": 5979, ")')": 5980, "\u0120SE": 5981, "cei": 5982, "\u0120parts": 5983, "decay": 5984, "\u012000": 5985, "\u0120131": 5986, "duration": 5987, "isted": 5988, "\u0120structure": 5989, "\u0120116": 5990, "\u012068": 5991, "\u0120cpp": 5992, "\u0120Net": 5993, "ific": 5994, "\u0120complete": 5995, "defaults": 5996, "\u0120via": 5997, "logits": 5998, "022": 5999, "Cre": 6000, "\u0120pipe": 6001, "Rel": 6002, "percent": 6003, "164": 6004, "\u0120another": 6005, "\u012029": 6006, ":])": 6007, "138": 6008, "ya": 6009, "\u012066": 6010, "069": 6011, "\u0120character": 6012, "une": 6013, "\u0120cop": 6014, "udo": 6015, "dence": 6016, "\u0120edit": 6017, "Font": 6018, "\u0120copyright": 6019, "sz": 6020, "\u0120unt": 6021, "alg": 6022, "assertIn": 6023, "7777": 6024, "Ax": 6025, "transpose": 6026, "blob": 6027, "SQL": 6028, "cing": 6029, "037": 6030, "('_": 6031, "ande": 6032, "counts": 6033, "usage": 6034, "uv": 6035, "185": 6036, "\u0120ids": 6037, "endpoint": 6038, "uous": 6039, "........": 6040, "Random": 6041, "aris": 6042, "\u0120LicenseNEWLINE": 6043, "usto": 6044, ",\\": 6045, "\u0120late": 6046, "\u0120backend": 6047, "\u0120branch": 6048, "rector": 6049, "038": 6050, "packet": 6051, "Socket": 6052, "commands": 6053, "\u0120entries": 6054, "TextField": 6055, "\u0120changed": 6056, "hist": 6057, "Native": 6058, "TTER": 6059, "sorted": 6060, "018": 6061, "ampling": 6062, "quant": 6063, "pkg": 6064, "CESS": 6065, "\u0120DB": 6066, "WI": 6067, "\u0120boxes": 6068, "rift": 6069, "Build": 6070, "Parse": 6071, "EM": 6072, "********************************": 6073, "gnu": 6074, "\u0120notice": 6075, "cesses": 6076, "eps": 6077, "\"]:": 6078, "CID": 6079, "untimeError": 6080, "\u0120signature": 6081, "edges": 6082, "mitted": 6083, "rv": 6084, "\u0120filters": 6085, "WAR": 6086, "\u0120_('": 6087, "\u0120115": 6088, "share": 6089, "You": 6090, "loor": 6091, "\u0120corresponding": 6092, "\u0120merge": 6093, "arge": 6094, "mos": 6095, "\u0120flow": 6096, "\u0120Temp": 6097, "unknown": 6098, "\u0120contents": 6099, "terminal": 6100, "\u0120Mock": 6101, "frames": 6102, "\u0120147": 6103, "\u0120cms": 6104, "subject": 6105, "\u0120admin": 6106, "\u0120validation": 6107, "10000": 6108, "\\$\\$": 6109, "hour": 6110, "direction": 6111, "\u0120\"{": 6112, "zilla": 6113, "\u0120expect": 6114, "064": 6115, "\u0120csv": 6116, "servation": 6117, "\u0120additional": 6118, "\u0120[['": 6119, "upload": 6120, "\u0120Ad": 6121, "configuration": 6122, "\u0120too": 6123, "plugins": 6124, "ALID": 6125, "\u0120nd": 6126, "\u0120most": 6127, "Prefix": 6128, ":.": 6129, "\u0120159": 6130, "cha": 6131, "\u0120FL": 6132, "phinx": 6133, "\u0120Tensor": 6134, "Exec": 6135, "Norm": 6136, "\u0120bbox": 6137, "Program": 6138, "\u0120#<": 6139, "uding": 6140, "queeze": 6141, "uest": 6142, "\u0120shutil": 6143, "ITY": 6144, "feat": 6145, "Load": 6146, "\u0120listNEWLINE": 6147, "dep": 6148, "\u0120160": 6149, "adcast": 6150, "\u0120groups": 6151, "pay": 6152, "')(": 6153, "->": 6154, "urface": 6155, "cio": 6156, "028": 6157, "cert": 6158, "\u0120Be": 6159, "binding": 6160, ">'],": 6161, "bus": 6162, "elts": 6163, "vor": 6164, "ough": 6165, "trained": 6166, "\u0120let": 6167, "SELECT": 6168, "\"\")": 6169, "\u0120dst": 6170, "016": 6171, "DED": 6172, ",))": 6173, "\u0120(['": 6174, "\u0120href": 6175, "come": 6176, "\u0120120": 6177, "\u0120deri": 6178, "]).": 6179, "\u0120site": 6180, "andidate": 6181, "Can": 6182, "FieldDescriptor": 6183, "require": 6184, "FD": 6185, "Rect": 6186, "\u0120segment": 6187, "\u0120Path": 6188, "023": 6189, "Ow": 6190, "143": 6191, "\u0120uint": 6192, "\u0120Valid": 6193, "\u0120round": 6194, "ndarray": 6195, "pendency": 6196, "\u0120158": 6197, "\u0120division": 6198, "\u0120123": 6199, "identity": 6200, "059": 6201, "\u0120vocab": 6202, "\u012036": 6203, "\u0120141": 6204, "accept": 6205, "Information": 6206, "obs": 6207, "Track": 6208, "\u0120threshold": 6209, "Bz": 6210, "udent": 6211, "ini": 6212, "\u0120Pre": 6213, "\"+": 6214, "_):": 6215, "cid": 6216, "volution": 6217, "\u0120clear": 6218, "exist": 6219, "247": 6220, "Project": 6221, "169": 6222, "222": 6223, "padding": 6224, "running": 6225, "227": 6226, "Hash": 6227, "\u0120reader": 6228, "hr": 6229, "same": 6230, "scalar": 6231, "topic": 6232, "OM": 6233, "\u0120tab": 6234, "\u0120dat": 6235, "250": 6236, "maps": 6237, "tod": 6238, "Spec": 6239, "\u0120eng": 6240, "rea": 6241, "resize": 6242, "\u0120My": 6243, "Schema": 6244, "Select": 6245, "\u0120LETTER": 6246, "\u0120matches": 6247, "\u0120142": 6248, "\u0120changes": 6249, "\u0120vert": 6250, "\u0120163": 6251, "\u0120times": 6252, "\u0120amount": 6253, "\u0120pyxb": 6254, "hou": 6255, "058": 6256, "\u0120primary": 6257, "ny": 6258, "Rate": 6259, "ftime": 6260, "\u0120direction": 6261, "PN": 6262, "\u0120\"[": 6263, "\u0120*(": 6264, "ares": 6265, "\u0120many": 6266, "cial": 6267, "chan": 6268, "\u0120role": 6269, "\u0120suffix": 6270, "Url": 6271, "BY": 6272, "\u0120wrap": 6273, "Matrix": 6274, "166": 6275, "\u0120defaults": 6276, "Builder": 6277, "fun": 6278, "Remove": 6279, "\u0120acc": 6280, "\u0120IO": 6281, ">')": 6282, "\u0120155": 6283, "\u0120summary": 6284, "complex": 6285, "\u0120inv": 6286, "oom": 6287, "Cal": 6288, "CLASS": 6289, "trig": 6290, "quences": 6291, "blue": 6292, "bottom": 6293, "sparse": 6294, "\u0120Object": 6295, "401": 6296, "FN": 6297, "land": 6298, "Configuration": 6299, "wi": 6300, "concat": 6301, "loud": 6302, "cover": 6303, "\u012069": 6304, "\u0120Group": 6305, "\u0120override": 6306, "services": 6307, "HBC": 6308, "Collection": 6309, "expression": 6310, "meth": 6311, "055": 6312, "\u0120Le": 6313, "\u0120route": 6314, "Route": 6315, "\u0120means": 6316, "\u0120endpoint": 6317, "kit": 6318, "\u0120VBase": 6319, "\u0120pylint": 6320, "={}": 6321, "\u0120core": 6322, "ied": 6323, "\u0120fake": 6324, "\u0120take": 6325, "derer": 6326, "ited": 6327, "\u0120cat": 6328, "026": 6329, "158": 6330, "Multi": 6331, "160": 6332, "sb": 6333, "\u0120put": 6334, "\u0120--------------------------------": 6335, "gz": 6336, "\u0120tm": 6337, "sses": 6338, "156": 6339, "chemy": 6340, "\u0120114": 6341, "\u0120insert": 6342, "ifest": 6343, "AUTH": 6344, "\u0120shared": 6345, "hostname": 6346, "\u0120112": 6347, ")}": 6348, "\u0120public": 6349, "\u0120OTHER": 6350, "\u012026": 6351, "negative": 6352, "(\"-": 6353, "CHAR": 6354, "switch": 6355, "ancestor": 6356, "fang": 6357, "decoder": 6358, "transport": 6359, "\u0120itNEWLINE": 6360, "),(": 6361, "\u0120interval": 6362, "RIGHT": 6363, "builder": 6364, "\u0120selection": 6365, "\u0120below": 6366, "\u0120Argument": 6367, "mir": 6368, "attach": 6369, "\u0120release": 6370, "\u0120ast": 6371, "ital": 6372, "addWidget": 6373, "aving": 6374, "Loader": 6375, "179": 6376, "iso": 6377, "Enabled": 6378, "154": 6379, "dig": 6380, "\u0120needs": 6381, "\u0120scipy": 6382, "neighbor": 6383, "Sample": 6384, "uman": 6385, "filepath": 6386, "izers": 6387, "','','','','": 6388, "FG": 6389, "\u0120require": 6390, "ADD": 6391, "'\"": 6392, "lv": 6393, "\u0120requires": 6394, "Lib": 6395, "089": 6396, ")?": 6397, "\u0120119": 6398, "Ass": 6399, "ACT": 6400, "\u0120rank": 6401, "\u0120units": 6402, "&#": 6403, "\u0120300": 6404, "SW": 6405, "\u0120:]": 6406, "gments": 6407, "ele": 6408, "\u0120named": 6409, "AI": 6410, "contact": 6411, "Go": 6412, "HEAD": 6413, "adapt": 6414, "tel": 6415, "([\"": 6416, "spf": 6417, "fab": 6418, "\u012021": 6419, "\u0120Queue": 6420, "inner": 6421, "PH": 6422, "\u0120year": 6423, "027": 6424, "codes": 6425, "lon": 6426, "ives": 6427, "mx": 6428, "034": 6429, "Extension": 6430, "165": 6431, "ench": 6432, "SR": 6433, "\u012035": 6434, "\u0120enable": 6435, "components": 6436, "atus": 6437, "once": 6438, "\u0120equ": 6439, "\u0120implementation": 6440, "\u012099": 6441, "(\"<": 6442, "bgp": 6443, "NUM": 6444, "operation": 6445, "updated": 6446, "\u0120Inter": 6447, "effi": 6448, "abilities": 6449, "ongo": 6450, "\u0120####": 6451, "\u0120got": 6452, "pd": 6453, "329": 6454, "icast": 6455, "\u0120161": 6456, "234": 6457, "condition": 6458, "Domain": 6459, "Last": 6460, "world": 6461, "ategor": 6462, "Train": 6463, "\u0120Code": 6464, "\u0120commands": 6465, "xsd": 6466, "library": 6467, "\u0120instances": 6468, "pyxb": 6469, "Values": 6470, "\u0120gl": 6471, "================================================================": 6472, ":`~": 6473, "ritems": 6474, "Mark": 6475, "band": 6476, "\u0120pandas": 6477, "\u0120bad": 6478, "\u0120143": 6479, "\u0120operations": 6480, "nc": 6481, "\u0120calcul": 6482, "\u0120\u0120\u0120\u0120\u0120\u0120\u0120\u0120\u0120\u0120\u0120\u0120\u0120\u0120\u0120\u0120\u0120\u0120\u0120\u0120\u0120\u0120\u0120\u0120\u0120\u0120\u0120\u0120\u0120\u0120\u0120\u0120\u0120\u0120": 6483, "failed": 6484, "\u0120term": 6485, "BASE": 6486, "178": 6487, "``,": 6488, "uniform": 6489, "\u012058": 6490, "Comple": 6491, "tens": 6492, "\u0120'+": 6493, "categor": 6494, "\u0120FIL": 6495, "Mask": 6496, "outfile": 6497, "\u0120boolean": 6498, "positive": 6499, "\u0120period": 6500, "\u0120bind": 6501, "akelts": 6502, "044": 6503, "diag": 6504, "hello": 6505, "\u0120mid": 6506, "gradient": 6507, "\u0120wrapper": 6508, "\u0120bucket": 6509, "Provider": 6510, "\u0120chars": 6511, "\u0120lr": 6512, "\u0120flat": 6513, "router": 6514, "\u0120counter": 6515, "\u0120strNEWLINENEWLINE": 6516, "iteritems": 6517, "trl": 6518, "\u0120breakNEWLINENEWLINE": 6519, "2016": 6520, "hot": 6521, "\u0120166": 6522, "\u0120definition": 6523, "\u0120limitations": 6524, "175": 6525, "sheet": 6526, "010": 6527, "\u0120special": 6528, "\u0120['_": 6529, "\u012034": 6530, "ird": 6531, "two": 6532, "=='": 6533, "-<": 6534, "Main": 6535, "\u0120internal": 6536, "\u0120400": 6537, "Inst": 6538, "Helper": 6539, "radius": 6540, "377": 6541, "\u0120usage": 6542, "\u0120{'<": 6543, "transaction": 6544, "SG": 6545, "\u0120156": 6546, "VALID": 6547, "dy": 6548, "}'": 6549, "\u0120accept": 6550, "655": 6551, "disk": 6552, "\u0120drop": 6553, "dde": 6554, "\u0120Run": 6555, "Operation": 6556, "speed": 6557, "\u0120?": 6558, "\u0120threading": 6559, "recv": 6560, "PP": 6561, "entries": 6562, "circ": 6563, "\u0120targets": 6564, "/(": 6565, "\u0120162": 6566, "dh": 6567, "\u0120reserved": 6568, "Lim": 6569, "Only": 6570, "packages": 6571, "ula": 6572, "ustomer": 6573, "see": 6574, "\u0120boolNEWLINE": 6575, "\u0120expr": 6576, "\u0120164": 6577, "aaaaaaaaaaaaaaaa": 6578, "174": 6579, "alette": 6580, "REG": 6581, "-(": 6582, "078": 6583, "\u0120\u0120\u0120\u0120\u0120\u0120\u0120\u0120\u0120\u0120\u0120\u0120\u0120\u0120\u0120\u0120\u0120\u0120\u0120\u0120\u0120\u0120\u0120\u0120\u0120\u0120\u0120\u0120\u0120\u0120\u0120\u0120\u0120": 6584, "\u0120mesh": 6585, "Wrapper": 6586, "ights": 6587, "\u0120154": 6588, "\u0120\u0120\u0120\u0120\u0120\u0120\u0120\u0120\u0120\u0120\u0120\u0120\u0120\u0120\u0120\u0120\u0120\u0120\u0120\u0120\u0120\u0120\u0120\u0120\u0120\u0120\u0120\u0120\u0120\u0120\u0120\u0120\u0120\u0120\u0120\u0120\u0120\u0120\u0120\u0120\u0120\u0120\u0120\u0120\u0120\u0120\u0120\u0120\u0120\u0120\u0120\u0120\u0120\u0120\u0120\u0120\u0120\u0109": 6589, "\u0120\u0120\u0120\u0120\u0120\u0120\u0120\u0120\u0120\u0120\u0120\u0120\u0120\u0120\u0120\u0120\u0120\u0120\u0120\u0120\u0120\u0120\u0120\u0120\u0120\u0120\u0120\u0120\u0120\u0120\u0120\u0120\u0120\u0120\u0120\u0120\u0120\u0120\u0120\u0120\u0120\u0120\u0120\u0120\u0120\u0120\u0120\u0120\u0120\u0120\u0120\u0120\u0120\u0120\u0120\u0120\u0120\u0120\u0109": 6590, "\u0120\u0120\u0120\u0120\u0120\u0120\u0120\u0120\u0120\u0120\u0120\u0120\u0120\u0120\u0120\u0120\u0120\u0120\u0120\u0120\u0120\u0120\u0120\u0120\u0120\u0120\u0120\u0120\u0120\u0120\u0120\u0120\u0120\u0120\u0120\u0120\u0120\u0120\u0120\u0120\u0120\u0120\u0120\u0120\u0120\u0120\u0120\u0120\u0120\u0120\u0120\u0120\u0120\u0120\u0120\u0120\u0120\u0120\u0120\u0109": 6591, "\u0120\u0120\u0120\u0120\u0120\u0120\u0120\u0120\u0120\u0120\u0120\u0120\u0120\u0120\u0120\u0120\u0120\u0120\u0120\u0120\u0120\u0120\u0120\u0120\u0120\u0120\u0120\u0120\u0120\u0120\u0120\u0120\u0120\u0120\u0120\u0120\u0120\u0120\u0120\u0120\u0120\u0120\u0120\u0120\u0120\u0120\u0120\u0120\u0120\u0120\u0120\u0120\u0120\u0120\u0120\u0120\u0120\u0120\u0120\u0120\u0109": 6592, "2013": 6593, "\u0120IMP": 6594, "\u0120were": 6595, "Unknown": 6596, "\u0120warning": 6597, "cont": 6598, "peer": 6599, "066": 6600, "\u0120FILTER": 6601, "tm": 6602, "slug": 6603, "pendent": 6604, "\u0120scores": 6605, "\u0120thisNEWLINE": 6606, "\u0120estim": 6607, "former": 6608, "015": 6609, ">=": 6610, "\u0120500": 6611, "URE": 6612, "\u0120GL": 6613, "pls": 6614, "\u0120152": 6615, "\u0120learning": 6616, "224": 6617, "Mis": 6618, "Dataset": 6619, "},'": 6620, "Generator": 6621, "\u0120165": 6622, "pin": 6623, "\u0120cost": 6624, "ORY": 6625, "canvas": 6626, "corator": 6627, "ASE": 6628, "background": 6629, "\u012038": 6630, "056": 6631, "\u0120Initial": 6632, "\u0120ensure": 6633, "\u0120151": 6634, "mooth": 6635, "family": 6636, "\u0120constraint": 6637, "\u0120'[": 6638, "\u0120dump": 6639, "estim": 6640, "Initial": 6641, "\u0120states": 6642, "\u0120fix": 6643, "RECT": 6644, ":{": 6645, "\u0120Go": 6646, "176": 6647, "ocker": 6648, "jpg": 6649, "rength": 6650, "gnored": 6651, "MBJ": 6652, "wrapper": 6653, "valueNEWLINE": 6654, "ZW": 6655, "alth": 6656, "almost": 6657, "uplicate": 6658, "fully": 6659, "shell": 6660, "\u0120mx": 6661, "modified": 6662, "lision": 6663, "\u0120condition": 6664, "068": 6665, "tor": 6666, "PBE": 6667, "\u0120callable": 6668, "\u012027": 6669, "catenate": 6670, "HHH": 6671, "strument": 6672, "\u0120153": 6673, "019": 6674, "irt": 6675, "\u012090": 6676, "\u0120player": 6677, "XY": 6678, "\u0120extensions": 6679, "][\"": 6680, "\u0109\u0109\u0109\u0109\u0109\u0109\u0109": 6681, "223": 6682, "lour": 6683, "\u0120157": 6684, "Controller": 6685, "\u0120decay": 6686, "FIX": 6687, "\u0120--*": 6688, "Bytes": 6689, "\u0120fetch": 6690, "squeeze": 6691, "\u0120nb": 6692, "ifiers": 6693, "external": 6694, "\u0120beta": 6695, "\u0120tick": 6696, "mn": 6697, "\u0120low": 6698, "Stack": 6699, "\u0120107": 6700, "Sc": 6701, "HOST": 6702, "signature": 6703, "mot": 6704, "Pr": 6705, "\u0120characters": 6706, "036": 6707, "examples": 6708, "lid": 6709, "Grid": 6710, "coords": 6711, "Desc": 6712, "rules": 6713, "maz": 6714, "\u0120stored": 6715, "\u0120actions": 6716, ">','": 6717, "}/": 6718, "\u0120enabled": 6719, "Store": 6720, "ech": 6721, "\u0120rights": 6722, "dian": 6723, ";\\": 6724, "Mi": 6725, "qt": 6726, "Metadata": 6727, "pts": 6728, "\u0120automatic": 6729, "\u0120during": 6730, "Storage": 6731, "\u0120104": 6732, "rum": 6733, "mor": 6734, "\u0120algorithm": 6735, "pixel": 6736, "HTML": 6737, "Script": 6738, "\u0120cm": 6739, "QtGui": 6740, "Print": 6741, "added": 6742, "\u0120Cal": 6743, "USH": 6744, "CCCC": 6745, "square": 6746, "hing": 6747, "deep": 6748, "\u0109\u0120": 6749, "\u0120progress": 6750, "ventory": 6751, "ros": 6752, "\u0120repo": 6753, "\u012048": 6754, "\u0120origin": 6755, "requires": 6756, "\u0120remain": 6757, "ln": 6758, "regular": 6759, "xNEWLINE": 6760, "\u0120Reg": 6761, "\u0120Class": 6762, "077": 6763, "\u0120schedule": 6764, "\u0120glob": 6765, "aste": 6766, "\u0120Language": 6767, "orary": 6768, "SK": 6769, "itter": 6770, "\u0120168": 6771, "instances": 6772, "1111111111111111": 6773, "%%%%": 6774, "PSP": 6775, "\u0120stderr": 6776, "yy": 6777, "\u0120127": 6778, "\u0120keras": 6779, "\u0120'{}": 6780, "Reader": 6781, "keyword": 6782, "sf": 6783, "duction": 6784, "\u0120111": 6785, "rn": 6786, "Iterator": 6787, "ungs": 6788, "\u0120average": 6789, "vie": 6790, "\u0120uid": 6791, "Speci": 6792, "]',": 6793, "\u0120lon": 6794, "}',": 6795, "multip": 6796, "lendar": 6797, "visible": 6798, "\u0120Form": 6799, "\u0120\")": 6800, "elem": 6801, "processor": 6802, "VALUE": 6803, "\u0120sens": 6804, "registry": 6805, "\u0120course": 6806, "\u0120ep": 6807, "exclude": 6808, "havior": 6809, "requests": 6810, "reater": 6811, "terable": 6812, "uz": 6813, "============": 6814, "vc": 6815, "4967": 6816, "COMM": 6817, "\u0120least": 6818, "\u0120slice": 6819, "\u0120'\"": 6820, "Title": 6821, "ij": 6822, "\u0120\u0120\u0120\u0120\u0120\u0120\u0120\u0120\u0120\u0120\u0120\u0120\u0120\u0120\u0120\u0120\u0120\u0120\u0120\u0120\u0120\u0120\u0120\u0120\u0120\u0120\u0120\u0120\u0120\u0120\u0120\u0120\u0120\u0120\u0120\u0120\u0120\u0120\u0120": 6823, "\u0120poly": 6824, "mediate": 6825, "panel": 6826, "UTE": 6827, "NodeId": 6828, "quality": 6829, "Display": 6830, "LINEW": 6831, "054": 6832, "\u0120etc": 6833, "239": 6834, "\u0120Jump": 6835, "ipment": 6836, "backup": 6837, "randint": 6838, "\u0120gradient": 6839, "\u0120until": 6840, "\u0120testing": 6841, "\u0120186": 6842, "085": 6843, "\u0120master": 6844, "rypt": 6845, "gamma": 6846, "bas": 6847, "cessary": 6848, "ighbors": 6849, "NEWLINEW": 6850, "security": 6851, "\u0120QtWidgets": 6852, "\u0120Windows": 6853, "225": 6854, "\u0120traceback": 6855, "\u0120constant": 6856, "\u0120modules": 6857, "\u0120fast": 6858, "separ": 6859, "\u0120axes": 6860, "ced": 6861, "structure": 6862, "efficient": 6863, "\u0120methodNEWLINE": 6864, "worker": 6865, "Next": 6866, "\u0120manager": 6867, "LC": 6868, "Power": 6869, "\u0120Loc": 6870, "ole": 6871, "Show": 6872, "fixture": 6873, "ograph": 6874, "bile": 6875, "Bgp": 6876, "XXXX": 6877, "184": 6878, "border": 6879, "Pat": 6880, "vt": 6881, "cross": 6882, "quential": 6883, "\u0120Output": 6884, "registers": 6885, "\u0120fd": 6886, "lyNEWLINE": 6887, "\u0120Speci": 6888, "\u0120owner": 6889, "------------------------": 6890, "065": 6891, "Feature": 6892, "\u0120double": 6893, "\u0120ON": 6894, "Fh": 6895, "017": 6896, "=',": 6897, "GP": 6898, "asarray": 6899, "\u0120Jc": 6900, "ATED": 6901, "\u0120117": 6902, "998": 6903, "\u0120Http": 6904, "connected": 6905, "dz": 6906, "\u0120XML": 6907, "384": 6908, "phase": 6909, "\u0120167": 6910, "asy": 6911, "AQ": 6912, "anti": 6913, "897": 6914, "yaml": 6915, "III": 6916, "ports": 6917, "presen": 6918, "229": 6919, "ROUP": 6920, "\u0120174": 6921, "\u0120Remove": 6922, "204": 6923, "\u0120modifi": 6924, "LONG": 6925, "TransientPolicyMap": 6926, "dialog": 6927, "NV": 6928, "isfile": 6929, "Import": 6930, "\u0120area": 6931, "\u0120redirect": 6932, "228": 6933, "laces": 6934, "strings": 6935, "rush": 6936, "NEWLINEB": 6937, "pm": 6938, "IPE": 6939, "\u0120Message": 6940, "\u0120append": 6941, "=\\\"": 6942, "\u0120engine": 6943, "GLU": 6944, "079": 6945, "163": 6946, "rgb": 6947, "Cho": 6948, "\u0120included": 6949, "014": 6950, "xxxx": 6951, "RESS": 6952, "LINK": 6953, ",,": 6954, "utc": 6955, "\u0120169": 6956, ".%": 6957, "aged": 6958, "264": 6959, "/\"": 6960, "\u0120assume": 6961, "\u0120ts": 6962, "888": 6963, "2015": 6964, "\u0120ur": 6965, "MPL": 6966, "?\\": 6967, "herit": 6968, "ront": 6969, "\u0120&',": 6970, "CHE": 6971, "seek": 6972, "HB": 6973, "\u0120children": 6974, "Cell": 6975, "rectories": 6976, "NotFound": 6977, "notify": 6978, "produces": 6979, "\u0120uuid": 6980, "\u0120EV": 6981, "cycle": 6982, "ply": 6983, "\u0120LICENSE": 6984, "PySide": 6985, "TEXT": 6986, "\u0120177": 6987, "\u0120regular": 6988, "\u0120mac": 6989, "calls": 6990, "\u0120{})": 6991, "Js": 6992, "\u0120WH": 6993, "timer": 6994, "}{": 6995, "zY": 6996, "\u0120representation": 6997, "\u0120175": 6998, "partition": 6999, "2222": 7000, "ATTR": 7001, "mus": 7002, "ZX": 7003, "121": 7004, "IV": 7005, "186": 7006, "alloc": 7007, "Cap": 7008, "WID": 7009, "DQ": 7010, "(~": 7011, "\u012045": 7012, "dataNEWLINE": 7013, "many": 7014, "Loss": 7015, "override": 7016, "pages": 7017, "\u0120\"+": 7018, "\u0120factory": 7019, "ATCH": 7020, "theta": 7021, "Mid": 7022, "snapshot": 7023, "\u0120179": 7024, "noise": 7025, "\u0120pretty": 7026, "\u0120transaction": 7027, "\u0120RuntimeError": 7028, "){": 7029, "Step": 7030, "'%": 7031, "program": 7032, "\u0120angle": 7033, "Keys": 7034, "\u0120hy": 7035, "\u0120login": 7036, "epochs": 7037, "rive": 7038, "020": 7039, "Ii": 7040, "mgmt": 7041, "075": 7042, "2014": 7043, "253": 7044, "33333333": 7045, "Checker": 7046, "\u0120still": 7047, "munic": 7048, "GH": 7049, "\u0120restri": 7050, "\u0120110": 7051, "constants": 7052, "FINE": 7053, "\u0120arr": 7054, "\u0120Date": 7055, "\u0120constructor": 7056, "Save": 7057, "pet": 7058, "nameNEWLINENEWLINE": 7059, "240": 7060, "\u0120'@": 7061, "Lis": 7062, "Left": 7063, "accuracy": 7064, "\u0120commit": 7065, "sph": 7066, "\u0120tran": 7067, "FS": 7068, "Shape": 7069, "[(": 7070, "reads": 7071, "ality": 7072, "formed": 7073, "eries": 7074, "Parent": 7075, "\u0120writer": 7076, "Stop": 7077, "templates": 7078, "098": 7079, "istration": 7080, "Job": 7081, "\u0120attemp": 7082, "trip": 7083, "dom": 7084, "\u0120LOG": 7085, "\u0120ve": 7086, "Instances": 7087, "anim": 7088, "\u0120resultNEWLINE": 7089, "answer": 7090, "\u0120pi": 7091, "Bl": 7092, "\u0120forms": 7093, "142": 7094, "\u0120gra": 7095, "DataFrame": 7096, "getattr": 7097, "057": 7098, "\u0120play": 7099, "audio": 7100, "\u0120screen": 7101, "[:]": 7102, "']\",": 7103, "\u0120removed": 7104, "Ids": 7105, "\u012056": 7106, "\u0120glyphs": 7107, "UD": 7108, "2019": 7109, "functions": 7110, "Bind": 7111, "reason": 7112, "062": 7113, "edNEWLINE": 7114, "Pa": 7115, "1024": 7116, "\u0120185": 7117, "Selection": 7118, "Sa": 7119, "VICE": 7120, "lug": 7121, "Cor": 7122, "Mh": 7123, "alf": 7124, "allclose": 7125, "294": 7126, "WOR": 7127, "apps": 7128, "\u0120regex": 7129, "fA": 7130, "setText": 7131, ":`.": 7132, "\u0120encoder": 7133, "\u0120saved": 7134, "ANCE": 7135, "mq": 7136, "tu": 7137, "\u0120Man": 7138, "328": 7139, "\u0120rect": 7140, "\u0120178": 7141, "\u012049": 7142, "\u0120tx": 7143, "php": 7144, "\u012051": 7145, "2000": 7146, "\u0120background": 7147, "\u0120fname": 7148, "digest": 7149, "bet": 7150, "sli": 7151, "}\"": 7152, "utdown": 7153, "NNP": 7154, "\u0120own": 7155, "243": 7156, "CLUDING": 7157, "olds": 7158, "\u0120uri": 7159, "Note": 7160, "crop": 7161, "cookie": 7162, "\u0120problem": 7163, "nl": 7164, "\u0120Only": 7165, "TP": 7166, "046": 7167, "HHHHHHHHHHHHHHHHHHHHHHHHHHHHHHHH": 7168, "\u0120cr": 7169, "andby": 7170, "bos": 7171, "bra": 7172, "\u0120109": 7173, "handlers": 7174, "\u012063": 7175, "yncio": 7176, "\u0120Ne": 7177, "\u0120effect": 7178, "upt": 7179, "-+": 7180, "sired": 7181, "Height": 7182, "COUN": 7183, "ideo": 7184, "\u0120Cur": 7185, "FICATION": 7186, "GA": 7187, "195": 7188, "stride": 7189, "omial": 7190, "\u0120125": 7191, "080": 7192, "GV": 7193, "\u0120dot": 7194, "\u0120\u0120\u0120\u0120\u0120\u0120\u0120\u0120\u0120\u0120\u0120\u0120\u0120\u0120\u0120\u0120\u0120\u0120\u0120\u0120\u0120\u0120\u0120\u0120\u0120\u0120\u0120\u0120\u0120\u0120\u0120\u0120\u0120\u0120\u0120\u0120\u0120\u0120\u0120\u0120\u0120\u0120\u0120\u0120\u0120\u0120\u0120\u0120\u0120\u0120\u0120\u0120\u0120\u0120\u0120\u0120\u0120\u0120\u0120\u0120\u0120\u0109": 7195, "\u0120\u0120\u0120\u0120\u0120\u0120\u0120\u0120\u0120\u0120\u0120\u0120\u0120\u0120\u0120\u0120\u0120\u0120\u0120\u0120\u0120\u0120\u0120\u0120\u0120\u0120\u0120\u0120\u0120\u0120\u0120\u0120\u0120\u0120\u0120\u0120\u0120\u0120\u0120\u0120\u0120\u0120\u0120\u0120\u0120\u0120\u0120\u0120\u0120\u0120\u0120\u0120\u0120\u0120\u0120\u0120\u0120\u0120\u0120\u0120\u0120\u0120\u0109": 7196, "\u0120\u0120\u0120\u0120\u0120\u0120\u0120\u0120\u0120\u0120\u0120\u0120\u0120\u0120\u0120\u0120\u0120\u0120\u0120\u0120\u0120\u0120\u0120\u0120\u0120\u0120\u0120\u0120\u0120\u0120\u0120\u0120\u0120\u0120\u0120\u0120\u0120\u0120\u0120\u0120\u0120\u0120\u0120\u0120\u0120\u0120\u0120\u0120\u0120\u0120\u0120\u0120\u0120\u0120\u0120\u0120\u0120\u0120\u0120\u0120\u0120\u0120\u0120\u0109": 7197, "\u0120\u0120\u0120\u0120\u0120\u0120\u0120\u0120\u0120\u0120\u0120\u0120\u0120\u0120\u0120\u0120\u0120\u0120\u0120\u0120\u0120\u0120\u0120\u0120\u0120\u0120\u0120\u0120\u0120\u0120\u0120\u0120\u0120\u0120\u0120\u0120\u0120\u0120\u0120\u0120\u0120\u0120\u0120\u0120\u0120\u0120\u0120\u0120\u0120\u0120\u0120\u0120\u0120\u0120\u0120\u0120\u0120\u0120\u0120\u0120\u0120\u0120\u0120\u0120\u0109": 7198, "inet": 7199, "\u0120#:": 7200, ":\"": 7201, "Sn": 7202, "\u0120Read": 7203, "030": 7204, "\u0120bro": 7205, "fixed": 7206, "enc": 7207, "AGES": 7208, "\u0120those": 7209, "\u012054": 7210, "cogn": 7211, "\u0120pkg": 7212, "\u0120issue": 7213, "\u0120FLAGS": 7214, "\u0120disk": 7215, "076": 7216, "\u0120lookup": 7217, "\u0120know": 7218, "ylist": 7219, "198": 7220, "Linear": 7221, "']]": 7222, "140": 7223, "gether": 7224, "\u0120modifyNEWLINE": 7225, "yes": 7226, "\u0120elem": 7227, "Icon": 7228, "074": 7229, "slot": 7230, "(\"\"\"": 7231, "656": 7232, "\u0120series": 7233, "sizes": 7234, "\u0120Document": 7235, "\u0120USE": 7236, "\u0120176": 7237, "average": 7238, "leafs": 7239, "\u0120124": 7240, "sigma": 7241, "brocade": 7242, "should": 7243, "wall": 7244, "\u0120Any": 7245, "normalize": 7246, "\u0120HO": 7247, "cipe": 7248, "tan": 7249, "\u0120future": 7250, "\u0120mu": 7251, "\u0120floatNEWLINE": 7252, "\u0120define": 7253, "NULL": 7254, "localhost": 7255, "\u0120thatNEWLINE": 7256, "\u0120MoPropertyMeta": 7257, "rnn": 7258, "4967295": 7259, "major": 7260, "Byte": 7261, "dispatch": 7262, "\u0120ignored": 7263, "\u0120destination": 7264, "latest": 7265, "GU": 7266, "NEWLINEfor": 7267, ">.": 7268, "649": 7269, "FY": 7270, "\u0120decode": 7271, "\u0120links": 7272, "093": 7273, "356": 7274, "\u0120vol": 7275, "\u0120189": 7276, "aj": 7277, "awn": 7278, "sapt": 7279, "\u0120might": 7280, "tele": 7281, "cmp": 7282, "\u0120currently": 7283, "\u0120188": 7284, "\u0120channels": 7285, "\u0120steps": 7286, "\u0120102": 7287, "[^": 7288, "\u0120Command": 7289, "\u0120sentence": 7290, "4444": 7291, "\u0120numbers": 7292, "ively": 7293, "TABLE": 7294, "inity": 7295, "Agent": 7296, "\u0120matching": 7297, "047": 7298, "\"][": 7299, "amb": 7300, "Tab": 7301, "theme": 7302, "\u0120well": 7303, "TRY": 7304, "052": 7305, "\u0120(_": 7306, "vid": 7307, "[\\": 7308, "\u0120bottom": 7309, "coord": 7310, "\u0120indic": 7311, "black": 7312, "\u0120WITH": 7313, "met": 7314, "\u0120border": 7315, "\u0120checkpoint": 7316, "\u0120184": 7317, "WH": 7318, "quot": 7319, "\u012088": 7320, "spi": 7321, "\u0120Dict": 7322, "\u01202017": 7323, "289": 7324, "+=": 7325, "acter": 7326, "Named": 7327, "Close": 7328, "refresh": 7329, "wiki": 7330, "SUB": 7331, "SSL": 7332, "\u0120172": 7333, "ism": 7334, "Directory": 7335, "publish": 7336, "war": 7337, "saptone": 7338, "ox": 7339, "\u0120relation": 7340, "334": 7341, "\u0120sets": 7342, "organ": 7343, "187": 7344, "167": 7345, "YY": 7346, "FIE": 7347, "lists": 7348, "Post": 7349, "Abstract": 7350, "013": 7351, "strftime": 7352, "redirect": 7353, "currency": 7354, "095": 7355, "\u0120cross": 7356, "\u0120Sy": 7357, "tv": 7358, "inger": 7359, "subprocess": 7360, "AAAAAAAAAAAAAAAA": 7361, "\u0120withNEWLINE": 7362, "logs": 7363, "cipi": 7364, "gle": 7365, "ysical": 7366, "reet": 7367, "figure": 7368, "\u0120ds": 7369, "\u0120105": 7370, "mgr": 7371, "softmax": 7372, "\u0120loaded": 7373, "monitor": 7374, "248": 7375, "\u0120driver": 7376, "AK": 7377, "JK": 7378, "\u0120Meta": 7379, "Database": 7380, "083": 7381, "priority": 7382, "cancel": 7383, "ARM": 7384, "\u0120tempfile": 7385, "Fail": 7386, "flatten": 7387, "\u0120calculate": 7388, "emit": 7389, "\u0120170": 7390, "Total": 7391, "adv": 7392, "\u0120written": 7393, "records": 7394, "WIDTH": 7395, "Subject": 7396, "aussian": 7397, "]-": 7398, "Non": 7399, "ana": 7400, "339": 7401, "allback": 7402, "reply": 7403, "648": 7404, "fri": 7405, "utility": 7406, "(',": 7407, "\u0120precision": 7408, "UND": 7409, "\u0120combin": 7410, "ever": 7411, "\u0120sym": 7412, "tour": 7413, "devices": 7414, "Fin": 7415, "335": 7416, "\u0120lat": 7417, "\u0120normalize": 7418, "\u0120fixed": 7419, "arison": 7420, "||": 7421, "lec": 7422, "IME": 7423, "\u0120Raises": 7424, "\u0120nested": 7425, "hd": 7426, "')))": 7427, "disable": 7428, "native": 7429, "cao": 7430, "\u0120''):": 7431, "333": 7432, "\u0120avoid": 7433, "pw": 7434, "072": 7435, "atar": 7436, "DEFINE": 7437, "Permission": 7438, "ROOT": 7439, "\u0120^": 7440, "cached": 7441, "\u0120Element": 7442, "\u0120Talk": 7443, "CY": 7444, "\u0120187": 7445, "Lock": 7446, "lies": 7447, "TRA": 7448, "visit": 7449, "chat": 7450, "attrib": 7451, "material": 7452, "ceed": 7453, "Product": 7454, "\u0120setattr": 7455, "dividual": 7456, "042": 7457, "2012": 7458, ")\")": 7459, "TRP": 7460, "Mz": 7461, "COMP": 7462, "\u0120decoder": 7463, "\u0120173": 7464, "PUSH": 7465, "Results": 7466, "Space": 7467, "\u0120directly": 7468, "\u0120calls": 7469, "extensions": 7470, "\u0120installed": 7471, "writeField": 7472, "ically": 7473, "lm": 7474, "\u0120us": 7475, "259": 7476, "REQUEST": 7477, "\u0120world": 7478, "\u0120positive": 7479, "cel": 7480, "locale": 7481, "\u01202016": 7482, "previous": 7483, "\u0120CONTR": 7484, "ips": 7485, "rr": 7486, "ysql": 7487, "\u0120ok": 7488, "uang": 7489, "\u012076": 7490, "\u0120Load": 7491, "calc": 7492, "isinstance": 7493, "744": 7494, "threads": 7495, "\u0120did": 7496, "Api": 7497, "glob": 7498, "\u0120click": 7499, "uses": 7500, "abstract": 7501, "\u0120requested": 7502, "\u0120encoded": 7503, "889": 7504, "fabric": 7505, "\u0120metrics": 7506, "ised": 7507, "\u0120xmlns": 7508, "ationError": 7509, "258": 7510, "\u0120once": 7511, "Writer": 7512, "JJJJJJJJJJJJJJJJ": 7513, "\u0120Const": 7514, "History": 7515, "Sim": 7516, "326": 7517, "FIL": 7518, "\u0120consi": 7519, "{}'.": 7520, "iterator": 7521, "\u0120118": 7522, "Panel": 7523, "\u0120Other": 7524, "sentence": 7525, "!\\": 7526, "need": 7527, "Flag": 7528, "ams": 7529, "Zone": 7530, "\"/>": 7531, "analy": 7532, "\u0120ops": 7533, "expi": 7534, "2857": 7535, "XE": 7536, "Rad": 7537, "172": 7538, "gm": 7539, "325": 7540, "\u0120history": 7541, "framework": 7542, "\u0120122": 7543, "\u0120mem": 7544, "issue": 7545, "plus": 7546, "\u0120statement": 7547, "=\\": 7548, "unnamed": 7549, "\u0120pie": 7550, "666": 7551, "QQ": 7552, "\u0120171": 7553, "\u0120182": 7554, "\u0120dig": 7555, "Mozilla": 7556, "ino": 7557, "\u0120sock": 7558, "\u0120yet": 7559, "maximum": 7560, "cannot": 7561, "\u0120181": 7562, "':'*": 7563, "Root": 7564, "Fl": 7565, "\u0109\u0120\u0120": 7566, "798": 7567, "gregate": 7568, "\u0120sklearn": 7569, "room": 7570, "\u0120implemented": 7571, "\u0120113": 7572, "ymo": 7573, "084": 7574, "\u01201024": 7575, "relative": 7576, "Constraint": 7577, "067": 7578, "\u0120Client": 7579, "tables": 7580, "ssh": 7581, "SNEWLINE": 7582, "stock": 7583, "\u0120resources": 7584, "GIN": 7585, "\u0120%.": 7586, "\u012055": 7587, "\u0120pages": 7588, "249": 7589, "4294967295": 7590, "dense": 7591, "\u0120metavar": 7592, "############################################################################": 7593, "retry": 7594, "MBER": 7595, "cipient": 7596, "NEWLINEp": 7597, "162": 7598, "umeration": 7599, "./": 7600, "\u0120embedding": 7601, "det": 7602, "Report": 7603, "makedirs": 7604, "Area": 7605, "\u0120183": 7606, "PES": 7607, "386": 7608, "\u0120deg": 7609, "CL": 7610, "\u0120upper": 7611, "094": 7612, "velop": 7613, "supported": 7614, "\u0120fi": 7615, "Delta": 7616, "slots": 7617, "Custom": 7618, "Enable": 7619, "alchemy": 7620, "0000000": 7621, "\u0120Max": 7622, "munity": 7623, "las": 7624, "\u0120private": 7625, "typeNEWLINE": 7626, "using": 7627, "\u0120answer": 7628, "fla": 7629, "\u012062": 7630, "variance": 7631, "\u0120negative": 7632, "Landroid": 7633, "131": 7634, "getitem": 7635, "\u0120month": 7636, "EQU": 7637, "Series": 7638, "']]],": 7639, "lg": 7640, "\u0120white": 7641, "\u0120190": 7642, "squ": 7643, "ology": 7644, "\u0120visit": 7645, "Cond": 7646, "197": 7647, "Lcom": 7648, "\u0120).": 7649, "Align": 7650, "\u0120topic": 7651, "196": 7652, "Author": 7653, "Details": 7654, "pickle": 7655, "\u0120Network": 7656, "kon": 7657, "may": 7658, "\u012044": 7659, "\u0120representing": 7660, "pairs": 7661, "\u0120New": 7662, "CV": 7663, "Ret": 7664, "\u0120exact": 7665, "254": 7666, "precision": 7667, "rupt": 7668, "\u0120Invalid": 7669, "btn": 7670, "Im": 7671, "Connect": 7672, "\u0120cla": 7673, "}},": 7674, "Visual": 7675, "231": 7676, "CM": 7677, "995": 7678, "contains": 7679, "\u0120external": 7680, ")=": 7681, "\u0120duration": 7682, "277": 7683, "Seq": 7684, "\u0120prediction": 7685, "\u0120sigma": 7686, "EY": 7687, "\u0120pur": 7688, "\u0120Sleep": 7689, "InfoBg": 7690, "outh": 7691, "Engine": 7692, "UNK": 7693, "Transform": 7694, "\u0120191": 7695, "inc": 7696, "setdefault": 7697, "\u012033": 7698, "phi": 7699, "ern": 7700, "anced": 7701, "adaptor": 7702, "\u0120modified": 7703, "\u0120necessary": 7704, "GGGGGGGGGGGGGGGG": 7705, "Copy": 7706, "086": 7707, "\u0120known": 7708, "prod": 7709, "ONE": 7710, "\u0120star": 7711, "generic": 7712, "Vr": 7713, "Role": 7714, "\u0120theano": 7715, "RD": 7716, "CONF": 7717, "zA": 7718, "cwd": 7719, "CUR": 7720, "695": 7721, "ctypes": 7722, "absolute": 7723, "Standby": 7724, "Wh": 7725, "275": 7726, "LAN": 7727, "curve": 7728, "mpy": 7729, "\u0120Is": 7730, "semb": 7731, "rase": 7732, "\u0120Dist": 7733, "GROUP": 7734, "\u0120provider": 7735, "icles": 7736, "\u0120safe": 7737, "=[\"": 7738, "996": 7739, "environment": 7740, "\u0120cpu": 7741, "286": 7742, "VAR": 7743, "\u0120proto": 7744, "ymous": 7745, "88888888": 7746, "ency": 7747, "kb": 7748, "kan": 7749, "wt": 7750, "stit": 7751, "green": 7752, "\u0120)),": 7753, "ffic": 7754, "members": 7755, "trols": 7756, "tax": 7757, "alert": 7758, "exe": 7759, "idNEWLINENEWLINE": 7760, "\u0120passNEWLINENEWLINENEWLINEclass": 7761, "Nt": 7762, "warnings": 7763, "truth": 7764, "Raw": 7765, "ObjectName": 7766, "acing": 7767, "java": 7768, "226": 7769, "Doc": 7770, "\u0120freq": 7771, "\u0120leg": 7772, "clone": 7773, "rica": 7774, "\u0120deleted": 7775, "por": 7776, "\u0120including": 7777, "PIPE": 7778, "\u0120*=": 7779, "meter": 7780, "\u0120Process": 7781, "\u0120md": 7782, "8618": 7783, "STOP": 7784, "usion": 7785, "cope": 7786, "\u0120exclude": 7787, "ASK": 7788, "194": 7789, "ogram": 7790, "ada": 7791, "partial": 7792, "\u0120THIS": 7793, "bone": 7794, "closed": 7795, "\u0120raised": 7796, "findall": 7797, "\u0120curr": 7798, "\u01202018": 7799, "IST": 7800, "Right": 7801, "ullable": 7802, "urnal": 7803, "\u0120sche": 7804, "STRU": 7805, "ght": 7806, "NONE": 7807, "\u0120git": 7808, "\u0120reduce": 7809, "\u0120Build": 7810, "fied": 7811, "XT": 7812, "internet": 7813, "console": 7814, "\u0120dependencies": 7815, "TAG": 7816, "scheme": 7817, "parsed": 7818, "\u0120Ent": 7819, "\u0120good": 7820, "aws": 7821, "Hy": 7822, "Identifier": 7823, "Inte": 7824, "WV": 7825, "configure": 7826, "Password": 7827, "agraph": 7828, "SF": 7829, "activation": 7830, "PM": 7831, "\u0120Integer": 7832, "prepare": 7833, "392": 7834, "\u0120records": 7835, "\u0120exceptions": 7836, "iling": 7837, "vlan": 7838, "failure": 7839, "live": 7840, ")**": 7841, "\u0120initialize": 7842, "\u0120rc": 7843, "\u0120partial": 7844, "phone": 7845, "TrueNEWLINE": 7846, "hu": 7847, "\u0120material": 7848, "073": 7849, "687": 7850, "Limit": 7851, "latex": 7852, "okies": 7853, "389": 7854, "FORMAT": 7855, "\u0120Simple": 7856, "ris": 7857, "JI": 7858, "mazon": 7859, "pear": 7860, "covery": 7861, "\u0120DataFrame": 7862, "Files": 7863, "151": 7864, "snap": 7865, "063": 7866, "BD": 7867, "protobuf": 7868, "\u0120selfNEWLINENEWLINE": 7869, "\u0120lang": 7870, "777": 7871, "LED": 7872, "ynchronous": 7873, "bp": 7874, "\u012072": 7875, "/\\": 7876, "\u0120LIMIT": 7877, "raft": 7878, "comments": 7879, "\u012067": 7880, "rNEWLINE": 7881, "while": 7882, "irtual": 7883, "\u0120Django": 7884, "\u0120upload": 7885, "5555": 7886, "Long": 7887, "activity": 7888, "sources": 7889, "href": 7890, "\u0120COP": 7891, "pathNEWLINE": 7892, "\u0120alias": 7893, "\u012053": 7894, "syn": 7895, "\u0120Line": 7896, "Volume": 7897, "345": 7898, "\u0120proper": 7899, "Mj": 7900, "multiple": 7901, "\"%": 7902, "aker": 7903, "verts": 7904, "rier": 7905, "\u0120inside": 7906, "wn": 7907, "\u0120automatically": 7908, "\u0120OUT": 7909, "PLYPD": 7910, "Draw": 7911, "hort": 7912, "\u0120Int": 7913, "mentum": 7914, "modifi": 7915, "RT": 7916, "\u0120minimum": 7917, "agger": 7918, "053": 7919, "({\"": 7920, "bm": 7921, "252": 7922, "\u0120indicate": 7923, "aging": 7924, "wid": 7925, "Jj": 7926, "pipeline": 7927, "UTF": 7928, "]':": 7929, "predictions": 7930, "uess": 7931, "\u0120retry": 7932, "partner": 7933, "It": 7934, "adow": 7935, "allen": 7936, "\u0120power": 7937, "follow": 7938, "hide": 7939, "concatenate": 7940, "\u0120cases": 7941, "Hist": 7942, "Member": 7943, "\u0120media": 7944, "097": 7945, "\u0120syntax": 7946, "\u0120StringIO": 7947, "087": 7948, "\u0120calling": 7949, "ina": 7950, "\u0120lists": 7951, "geo": 7952, "___": 7953, "\u0120less": 7954, "assertIsInstance": 7955, "244": 7956, "\u0120pid": 7957, "sgi": 7958, "\u0120zone": 7959, "Scenario": 7960, "645": 7961, "bul": 7962, "WORK": 7963, "GD": 7964, "997": 7965, "parame": 7966, "()).": 7967, "327": 7968, "\u012047": 7969, "783": 7970, "expect": 7971, "\u0120tz": 7972, "FILTER": 7973, "gmail": 7974, "umbna": 7975, "\u0120'*": 7976, "\u0120card": 7977, "170": 7978, "\u0120resultNEWLINENEWLINE": 7979, "\u0120marker": 7980, "Binary": 7981, ">%": 7982, "\u0120''.": 7983, "\u0120worker": 7984, "\u012039": 7985, "coordin": 7986, "\u012082": 7987, "\u0120pa": 7988, "START": 7989, "\u0120explicit": 7990, ",):": 7991, "assertNot": 7992, "adj": 7993, "Red": 7994, "\u0120fid": 7995, "\u0120quant": 7996, "HR": 7997, "POS": 7998, "324": 7999, "cam": 8000, "bum": 8001, "restore": 8002, "reat": 8003, "\u0120------------------------------------------------------------------------": 8004, "}')": 8005, "646": 8006, "\u0120fmt": 8007, "COLOR": 8008, "\"'": 8009, "rx": 8010, "Definition": 8011, "kes": 8012, "fw": 8013, "lict": 8014, "cording": 8015, "5357": 8016, "isdir": 8017, "Owner": 8018, "specific": 8019, "setObjectName": 8020, "800": 8021, "\u0120basic": 8022, "/>.": 8023, "\u0120Cor": 8024, "686": 8025, "\u0120bits": 8026, "\u0120happ": 8027, "cred": 8028, "pie": 8029, "Spe": 8030, "rst": 8031, "\")[": 8032, "utation": 8033, "LOAD": 8034, "337": 8035, "\u0120delay": 8036, "\u0120tile": 8037, "Decimal": 8038, "\u0120valuesNEWLINE": 8039, "245": 8040, "cursive": 8041, "crete": 8042, "chars": 8043, "Loop": 8044, "\u0120functionNEWLINE": 8045, "deleted": 8046, "sphinx": 8047, "\u0120Mat": 8048, "\u012046": 8049, "OB": 8050, "moid": 8051, "775": 8052, "proj": 8053, "pyNEWLINE": 8054, "allowed": 8055, "QB": 8056, "\u0120trigger": 8057, "ceiver": 8058, "kele": 8059, "ky": 8060, "\u0120COPY": 8061, "387": 8062, "ration": 8063, "\u0120SM": 8064, "\u0120\"\")": 8065, "\u0120predict": 8066, "\u0120blocks": 8067, "071": 8068, "refs": 8069, "PRESS": 8070, "\u0120asNEWLINE": 8071, "ENCE": 8072, "ArgumentParser": 8073, "\u0120square": 8074, "Bad": 8075, "moving": 8076, "\u0120scene": 8077, "LIED": 8078, "cov": 8079, "gw": 8080, "Ter": 8081, "walk": 8082, "*\\": 8083, "Transport": 8084, "\u0120()": 8085, "Namespace": 8086, "writ": 8087, "\u0120shift": 8088, "\u0120scalar": 8089, "\u0120works": 8090, "\u0120packages": 8091, "\u0120ord": 8092, "priate": 8093, "allet": 8094, "literals": 8095, "\u0120coordinates": 8096, "gd": 8097, "\u0120Graph": 8098, "company": 8099, "\u0120----------------------------------------------------------------": 8100, "EW": 8101, "ulator": 8102, "338": 8103, "esh": 8104, "alent": 8105, "probs": 8106, "ndim": 8107, "APP": 8108, "fu": 8109, "RU": 8110, "\u0120encode": 8111, "\u0120unknown": 8112, "\u0120Start": 8113, "\u0120cir": 8114, "349": 8115, "\u0120descri": 8116, "Sm": 8117, "\u012070": 8118, "Proto": 8119, "173": 8120, "\u0120scan": 8121, "('{": 8122, "Timeout": 8123, "DW": 8124, "trigger": 8125, "\u0120starting": 8126, "784": 8127, "browser": 8128, "retri": 8129, "668": 8130, "editor": 8131, "misc": 8132, "EB": 8133, "INGS": 8134, "YX": 8135, "\u0120decimal": 8136, "selector": 8137, "\u0120dropout": 8138, "wifi": 8139, "Serializer": 8140, "notification": 8141, "KEN": 8142, "Formatter": 8143, "\u0120linear": 8144, "\u0120modelNEWLINE": 8145, "struc": 8146, "\u0120Oper": 8147, "\u0120126": 8148, "conno": 8149, "aug": 8150, "matches": 8151, "\u0120anNEWLINE": 8152, "kn": 8153, "atter": 8154, "\u0120switch": 8155, "](": 8156, "+\\": 8157, "Kit": 8158, "\u0120rec": 8159, "\u0120builder": 8160, "LETE": 8161, "caoconno": 8162, "\u0120\"(": 8163, "destination": 8164, "listdir": 8165, "vd": 8166, "\u0120timeNEWLINEimport": 8167, "\u0120Ver": 8168, "WRITE": 8169, "040": 8170, "\u0120There": 8171, "\u0109\u0120\u0120\u0120": 8172, "LT": 8173, "\u0120constants": 8174, "lineno": 8175, "\u0120clip": 8176, "\";": 8177, "ASP": 8178, "ria": 8179, "asset": 8180, "(':": 8181, "\u0120loggingNEWLINEimport": 8182, "LYS": 8183, "projects": 8184, "vrf": 8185, "episode": 8186, ";&": 8187, "\u0120turn": 8188, "336": 8189, "\u0120expand": 8190, "mpls": 8191, "\u0120occur": 8192, "watch": 8193, "Li": 8194, "\u0120\u0120\u0120\u0120\u0120\u0120\u0120\u0120\u0120\u0120\u0120\u0120\u0120\u0120\u0120\u0120\u0120\u0120\u0120\u0120\u0120\u0120\u0120\u0120\u0120\u0120\u0120\u0120\u0120\u0120\u0120\u0120\u0120\u0120\u0120\u0120\u0120\u0120\u0120\u0120\u0120\u0120\u0120\u0120\u0120\u0120\u0120\u0120\u0120\u0120\u0120\u0120\u0120\u0120\u0120\u0120\u0120\u0120\u0120\u0120\u0120\u0120\u0120\u0120\u0120\u0109": 8195, "\u0120\u0120\u0120\u0120\u0120\u0120\u0120\u0120\u0120\u0120\u0120\u0120\u0120\u0120\u0120\u0120\u0120\u0120\u0120\u0120\u0120\u0120\u0120\u0120\u0120\u0120\u0120\u0120\u0120\u0120\u0120\u0120\u0120\u0120\u0120\u0120\u0120\u0120\u0120\u0120\u0120\u0120\u0120\u0120\u0120\u0120\u0120\u0120\u0120\u0120\u0120\u0120\u0120\u0120\u0120\u0120\u0120\u0120\u0120\u0120\u0120\u0120\u0120\u0120\u0120\u0120\u0109": 8196, "\u0120\u0120\u0120\u0120\u0120\u0120\u0120\u0120\u0120\u0120\u0120\u0120\u0120\u0120\u0120\u0120\u0120\u0120\u0120\u0120\u0120\u0120\u0120\u0120\u0120\u0120\u0120\u0120\u0120\u0120\u0120\u0120\u0120\u0120\u0120\u0120\u0120\u0120\u0120\u0120\u0120\u0120\u0120\u0120\u0120\u0120\u0120\u0120\u0120\u0120\u0120\u0120\u0120\u0120\u0120\u0120\u0120\u0120\u0120\u0120\u0120\u0120\u0120\u0120\u0120\u0120\u0120\u0109": 8197, "\u0120\u0120\u0120\u0120\u0120\u0120\u0120\u0120\u0120\u0120\u0120\u0120\u0120\u0120\u0120\u0120\u0120\u0120\u0120\u0120\u0120\u0120\u0120\u0120\u0120\u0120\u0120\u0120\u0120\u0120\u0120\u0120\u0120\u0120\u0120\u0120\u0120\u0120\u0120\u0120\u0120\u0120\u0120\u0120\u0120\u0120\u0120\u0120\u0120\u0120\u0120\u0120\u0120\u0120\u0120\u0120\u0120\u0120\u0120\u0120\u0120\u0120\u0120\u0120\u0120\u0120\u0120\u0120\u0109": 8198, "\u0120tasks": 8199, "inds": 8200, "Art": 8201, "\u0120inner": 8202, "\u0120DAM": 8203, "\u0120>',": 8204, "tences": 8205, "\u0120These": 8206, "654": 8207, "osition": 8208, "\u0120dialog": 8209, "tenant": 8210, "patterns": 8211, "shuffle": 8212, "\u0120rules": 8213, "2010": 8214, "887": 8215, "(?:": 8216, "chr": 8217, "\u012057": 8218, "repeat": 8219, "igab": 8220, "Regex": 8221, "ARD": 8222, "OBJ": 8223, "\u012086": 8224, "GGER": 8225, "\u0120crop": 8226, "\u0120publish": 8227, "696": 8228, "994": 8229, "Almost": 8230, "220": 8231, "IA": 8232, "\u0120areNEWLINE": 8233, "country": 8234, "\u0120notNEWLINE": 8235, "attention": 8236, "Email": 8237, "Common": 8238, "\u0120MODI": 8239, "ZZ": 8240, "Word": 8241, "Category": 8242, "\u0120failure": 8243, "8613": 8244, "MV": 8245, "\u0120radius": 8246, "\u0120Table": 8247, "\u0120den": 8248, "\u0120book": 8249, "8615": 8250, "OW": 8251, "bank": 8252, "659": 8253, "strength": 8254, "\u0120xNEWLINE": 8255, "\u0120Init": 8256, "\u0120pairs": 8257, "SB": 8258, "roke": 8259, "hood": 8260, "Memory": 8261, "permissions": 8262, "NEWLINEH": 8263, "perm": 8264, "hosts": 8265, "chors": 8266, "xyz": 8267, "coming": 8268, "AlmostEqual": 8269, "docstring": 8270, "small": 8271, "JSON": 8272, "crypted": 8273, "imal": 8274, "\u0120Enum": 8275, "\u0120inspect": 8276, "050": 8277, "\u0120subclass": 8278, "udit": 8279, "\u0120Server": 8280, ">\")": 8281, "\u0109\u0109\u0109\u0109\u0109\u0109\u0109\u0109": 8282, "210": 8283, "\u0120Exit": 8284, "669": 8285, "\u0120edges": 8286, "mouse": 8287, "\u0120Response": 8288, "\u0120Control": 8289, "\u0120builtin": 8290, "\u0120proc": 8291, "Section": 8292, "actual": 8293, "compress": 8294, "\u01202015": 8295, "\u0120State": 8296, "mobile": 8297, "\u0120UN": 8298, "748": 8299, "Accept": 8300, "'|'": 8301, "Send": 8302, "\u0120ftype": 8303, "ordering": 8304, "\u0120loader": 8305, "nz": 8306, "\u0120snapshot": 8307, "\u0120controller": 8308, "NEWLINEL": 8309, "689": 8310, "compare": 8311, "\u0120applied": 8312, "\u0120compare": 8313, "\u0120pt": 8314, "tau": 8315, "182": 8316, "Expression": 8317, "\u012084": 8318, "\u012098": 8319, "\u0120SH": 8320, "Sets": 8321, "\u0120mult": 8322, "atial": 8323, "curr": 8324, "\u0120please": 8325, "359": 8326, "locity": 8327, "\u0120actually": 8328, "\u0120BUT": 8329, "\u0120large": 8330, "FICATIONS": 8331, "\u0120vm": 8332, "IMAGE": 8333, "\u0120desired": 8334, "NEWLINEsS": 8335, "bon": 8336, "BACK": 8337, "WW": 8338, "\u0120typing": 8339, "suite": 8340, "cryption": 8341, "Detail": 8342, "decimal": 8343, "thrift": 8344, ">-<": 8345, "\u0120CLR": 8346, "398": 8347, "marker": 8348, "GY": 8349, "\u0120simp": 8350, "NGTH": 8351, "qs": 8352, "\u0120POINTER": 8353, "\u0120plan": 8354, "special": 8355, "\u0120ms": 8356, "\u0120dictNEWLINE": 8357, "!\")": 8358, "183": 8359, "\u0120phase": 8360, "bre": 8361, "\u0120contact": 8362, "MF": 8363, "Operator": 8364, "ille": 8365, "dependent": 8366, "\u0120price": 8367, "Properties": 8368, "equipment": 8369, "\u0120ndarray": 8370, "\u012052": 8371, "]}": 8372, "\u0120hook": 8373, "\u0120made": 8374, "week": 8375, "\u0120Service": 8376, "779": 8377, "\u0120solver": 8378, "\u0120takes": 8379, "\u0120sparse": 8380, "reward": 8381, "fsm": 8382, "pan": 8383, "\u0120cc": 8384, "298": 8385, "appro": 8386, "\u0120unpack": 8387, "ocus": 8388, "\u0120cli": 8389, "\u012085": 8390, "logical": 8391, "794": 8392, "article": 8393, "\u0120prior": 8394, "wrapped": 8395, "deploy": 8396, "667": 8397, "Has": 8398, "tip": 8399, "ASN": 8400, "BF": 8401, "hw": 8402, "iness": 8403, "\u0120examples": 8404, "\u0120Multi": 8405, "\u0120iterator": 8406, "\u0120big": 8407, "DH": 8408, "778": 8409, "\u0120512": 8410, "Dest": 8411, "readline": 8412, "micro": 8413, "datasets": 8414, "inux": 8415, "NEWLINENEWLINEprint": 8416, "dens": 8417, "Router": 8418, "\u0120LCID": 8419, "206": 8420, "\u0120103": 8421, "AMPLE": 8422, "797": 8423, "\u0120noise": 8424, "VV": 8425, "paper": 8426, "Example": 8427, "velopment": 8428, "arDown": 8429, "\u0120strip": 8430, "\u0120accuracy": 8431, "DN": 8432, "Programming": 8433, "spy": 8434, "\u0120Act": 8435, "good": 8436, "\u0120predictions": 8437, "Wifi": 8438, "\u0120similar": 8439, "limiter": 8440, "Bound": 8441, "\u012097": 8442, "IPV": 8443, "machine": 8444, "isk": 8445, "237": 8446, "Head": 8447, "mentation": 8448, "\u0120Write": 8449, "pending": 8450, "\u0120execution": 8451, "hl": 8452, "\u0120appropriate": 8453, "IZ": 8454, "avas": 8455, ",*": 8456, "214": 8457, "\u0120ssl": 8458, "Segment": 8459, "ighted": 8460, "\u0120IF": 8461, "RF": 8462, "bes": 8463, "endor": 8464, "SSION": 8465, "ritical": 8466, "Body": 8467, "LP": 8468, "standard": 8469, "\u0120passNEWLINENEWLINENEWLINE": 8470, "\u0120121": 8471, "\u0120Sup": 8472, "Card": 8473, "notes": 8474, "\u0120WHERE": 8475, "versed": 8476, "LENGTH": 8477, "246": 8478, "\u0120reNEWLINEimport": 8479, "bridge": 8480, "Trace": 8481, "plain": 8482, "HF": 8483, "Exit": 8484, "\u0120percent": 8485, "rol": 8486, "\u0120IOError": 8487, "pur": 8488, "\u0120Author": 8489, "\u0120colors": 8490, "ALA": 8491, "\u0120construct": 8492, "bounds": 8493, "])[": 8494, "vertical": 8495, "\u0120END": 8496, "SHA": 8497, "\u012081": 8498, "885": 8499, "uan": 8500, "repository": 8501, "\u0120One": 8502, "KI": 8503, "\u0120\"{}": 8504, "aNEWLINE": 8505, "iff": 8506, "strict": 8507, "race": 8508, "WF": 8509, "\u0120supp": 8510, "745": 8511, "servers": 8512, "NEWLINENEWLINEtry": 8513, "based": 8514, "Cy": 8515, "prediction": 8516, "rie": 8517, "\u0120components": 8518, "bosity": 8519, "\u0120hist": 8520, "analysis": 8521, "\u0120dimensions": 8522, "MODEL": 8523, "rat": 8524, "qq": 8525, "sol": 8526, "variant": 8527, "\u0120helper": 8528, "\u0120Compute": 8529, "383": 8530, "\u0120something": 8531, "angles": 8532, "\u0120Decimal": 8533, "THR": 8534, "2011": 8535, "uro": 8536, "Interval": 8537, "();": 8538, "\u0120DEFAULT": 8539, "UTO": 8540, "_='": 8541, "\u0120Options": 8542, "Could": 8543, "ientation": 8544, "Folder": 8545, "344": 8546, "inline": 8547, "211": 8548, "HJ": 8549, "Cursor": 8550, "776": 8551, "Gen": 8552, "jar": 8553, "SOUR": 8554, "SQ": 8555, "anchor": 8556, "horizontal": 8557, "\u0120repository": 8558, "\u0120':": 8559, "translation": 8560, "Err": 8561, "versions": 8562, "peated": 8563, "\u0120pathNEWLINE": 8564, "Init": 8565, "\u0120Generated": 8566, "\u0120vs": 8567, "\u012073": 8568, "FileName": 8569, "\u0120([": 8570, "\u0120escape": 8571, "\u0120SQL": 8572, "ionError": 8573, "\u0120around": 8574, "BatchNorm": 8575, "644": 8576, "\u0120ratio": 8577, "outer": 8578, "oot": 8579, "\u0120fs": 8580, "ivalent": 8581, "vertex": 8582, "ordered": 8583, "ales": 8584, "Pick": 8585, "\u0120blob": 8586, "\u0120hex": 8587, "\u0120Web": 8588, "\u0120IMPLIED": 8589, "tol": 8590, "literal": 8591, "Region": 8592, "\u0120evaluate": 8593, "fh": 8594, "\u0120updates": 8595, "quick": 8596, "\u0120MODIFICATIONS": 8597, "\u0120rand": 8598, "PV": 8599, "_'": 8600, "which": 8601, "\u0120Work": 8602, "\u0120lst": 8603, "\u0120descriptor": 8604, "Tuple": 8605, "\u0120Block": 8606, "\u0120arrays": 8607, "\u0120strides": 8608, "041": 8609, "\u0120stage": 8610, "pow": 8611, "verter": 8612, "tential": 8613, "\u0120Unicode": 8614, "crimin": 8615, "754": 8616, "measure": 8617, "\u0120LIMITED": 8618, "NEWLINEplt": 8619, "shapes": 8620, "\u0120MA": 8621, "ranges": 8622, "031": 8623, "\u0120choice": 8624, "\"\"\")": 8625, "mkdir": 8626, "385": 8627, "planes": 8628, "fx": 8629, "\"]),": 8630, "ractive": 8631, "workers": 8632, "=\"\",": 8633, "statement": 8634, "\u0120shuffle": 8635, "\u0120iterable": 8636, "Bool": 8637, "activate": 8638, "assertAlmostEqual": 8639, "\u0120cookie": 8640, "rg": 8641, "SERVER": 8642, "izing": 8643, "hop": 8644, "\u0120ind": 8645, "\u0120txt": 8646, "initions": 8647, "\u0120AS": 8648, "749": 8649, "Ob": 8650, "rotate": 8651, "658": 8652, "\u0120arch": 8653, "Remote": 8654, "\u0120against": 8655, "\u0120complex": 8656, "EA": 8657, "\u0120measure": 8658, ".],": 8659, "gate": 8660, "263": 8661, "FSM": 8662, "imation": 8663, "cko": 8664, "GGG": 8665, "\u0120hour": 8666, "digit": 8667, "interfaces": 8668, "istered": 8669, ">:<": 8670, "\u0120ide": 8671, "agicMock": 8672, "\u0120jsonNEWLINEimport": 8673, "884": 8674, "Bot": 8675, "dns": 8676, "large": 8677, "problem": 8678, "Summary": 8679, "claration": 8680, "\")),": 8681, "#<": 8682, "thresh": 8683, "\u012083": 8684, "\u0120interpol": 8685, "\u0120share": 8686, "FIELD": 8687, "\u0120anchor": 8688, ":],": 8689, "759": 8690, "Single": 8691, "lengths": 8692, ";)": 8693, "Db": 8694, "rstrip": 8695, "\u0120push": 8696, "Fields": 8697, "\u0120QtCore": 8698, "city": 8699, "\u0120(('": 8700, "scripts": 8701, "Distri": 8702, "\u0120Reserved": 8703, "Security": 8704, "STRUCT": 8705, "keleton": 8706, "agtail": 8707, "capt": 8708, "kk": 8709, "021": 8710, "minimum": 8711, "CAC": 8712, "Tr": 8713, "Na": 8714, "\u0120ydk": 8715, "\u0120small": 8716, "CQ": 8717, "Video": 8718, "\u0120secret": 8719, "323": 8720, "\u0120deep": 8721, "ipher": 8722, "ells": 8723, "nes": 8724, "\u0120speed": 8725, "287": 8726, "Debug": 8727, "\u0120Tag": 8728, "more": 8729, "Rot": 8730, "\u0120'/'": 8731, "\u0120Fe": 8732, "\u0120Method": 8733, "cus": 8734, "arest": 8735, "RESULT": 8736, "Predicate": 8737, "`:": 8738, "\u0120\u0120\u0120\u0120\u0120\u0120\u0120\u0120\u0120\u0120\u0120\u0120\u0120\u0120\u0120\u0120\u0120\u0120\u0120\u0120\u0120\u0120\u0120\u0120\u0120\u0120\u0120\u0120\u0120\u0120\u0120\u0120\u0120\u0120\u0120\u0120\u0120\u0120\u0120\u0120\u0120\u0120\u0120": 8739, "REF": 8740, "cNEWLINE": 8741, "wave": 8742, "\u0120sleep": 8743, "Basic": 8744, "\u0120Can": 8745, "diffe": 8746, "\u0120theme": 8747, "PROTO": 8748, "284": 8749, "fNEWLINE": 8750, "\u0120Also": 8751, "nost": 8752, "far": 8753, "UID": 8754, "ReLU": 8755, "\u0120gamma": 8756, "RB": 8757, "PG": 8758, "baz": 8759, "\u0120Back": 8760, "\u0120allows": 8761, "\u0120cb": 8762, "Disable": 8763, "886": 8764, "First": 8765, "when": 8766, "cepted": 8767, "how": 8768, "cher": 8769, "losses": 8770, "umbnail": 8771, "\u01202014": 8772, "^{": 8773, "\u0120archive": 8774, "\u0120determine": 8775, "(\"[": 8776, "\u0120Resource": 8777, "092": 8778, "/<": 8779, "060": 8780, "Unless": 8781, "\u0120question": 8782, "161": 8783, "NEWLINEG": 8784, "\u0120raiseNEWLINE": 8785, "positions": 8786, "\u0120ps": 8787, "\u0120according": 8788, "apture": 8789, "\u0120\\\\": 8790, "xpath": 8791, "2008": 8792, "\u0120\u0120\u0120\u0120\u0120\u0120\u0120\u0120\u0120\u0120\u0120\u0120\u0120\u0120\u0120\u0120\u0120\u0120\u0120\u0120\u0120\u0120\u0120\u0120\u0120\u0120\u0120\u0120\u0120\u0120\u0120\u0120\u0120\u0120\u0120\u0120": 8793, "448": 8794, "\u0120machine": 8795, "STATS": 8796, "levels": 8797, "285": 8798, "ulary": 8799, "CAL": 8800, "082": 8801, "embeddings": 8802, "\u0120timedelta": 8803, "TNEWLINE": 8804, "lstm": 8805, "Conf": 8806, "definition": 8807, "Poly": 8808, "\u0120flask": 8809, "annotation": 8810, "\u0120suite": 8811, "\u0120none": 8812, "\u0120DI": 8813, "timedelta": 8814, "PDATE": 8815, "\u0120\u0120\u0120\u0120\u0120\u0120\u0120\u0120\u0120\u0120\u0120\u0120\u0120\u0120\u0120\u0120\u0120\u0120\u0120\u0120\u0120\u0120\u0120\u0120\u0120\u0120\u0120\u0120\u0120\u0120\u0120\u0120\u0120\u0120\u0120\u0120\u0120\u0120\u0120\u0120\u0120\u0120\u0120\u0120\u0120\u0120\u0120\u0120\u0120\u0120\u0120\u0120\u0120\u0120\u0120\u0120\u0120\u0120\u0120\u0120\u0120\u0120\u0120\u0120\u0120\u0120\u0120\u0120\u0120\u0109": 8816, "\u0120\u0120\u0120\u0120\u0120\u0120\u0120\u0120\u0120\u0120\u0120\u0120\u0120\u0120\u0120\u0120\u0120\u0120\u0120\u0120\u0120\u0120\u0120\u0120\u0120\u0120\u0120\u0120\u0120\u0120\u0120\u0120\u0120\u0120\u0120\u0120\u0120\u0120\u0120\u0120\u0120\u0120\u0120\u0120\u0120\u0120\u0120\u0120\u0120\u0120\u0120\u0120\u0120\u0120\u0120\u0120\u0120\u0120\u0120\u0120\u0120\u0120\u0120\u0120\u0120\u0120\u0120\u0120\u0120\u0120\u0109": 8817, "\u0120\u0120\u0120\u0120\u0120\u0120\u0120\u0120\u0120\u0120\u0120\u0120\u0120\u0120\u0120\u0120\u0120\u0120\u0120\u0120\u0120\u0120\u0120\u0120\u0120\u0120\u0120\u0120\u0120\u0120\u0120\u0120\u0120\u0120\u0120\u0120\u0120\u0120\u0120\u0120\u0120\u0120\u0120\u0120\u0120\u0120\u0120\u0120\u0120\u0120\u0120\u0120\u0120\u0120\u0120\u0120\u0120\u0120\u0120\u0120\u0120\u0120\u0120\u0120\u0120\u0120\u0120\u0120\u0120\u0120\u0120\u0109": 8818, "\u0120\u0120\u0120\u0120\u0120\u0120\u0120\u0120\u0120\u0120\u0120\u0120\u0120\u0120\u0120\u0120\u0120\u0120\u0120\u0120\u0120\u0120\u0120\u0120\u0120\u0120\u0120\u0120\u0120\u0120\u0120\u0120\u0120\u0120\u0120\u0120\u0120\u0120\u0120\u0120\u0120\u0120\u0120\u0120\u0120\u0120\u0120\u0120\u0120\u0120\u0120\u0120\u0120\u0120\u0120\u0120\u0120\u0120\u0120\u0120\u0120\u0120\u0120\u0120\u0120\u0120\u0120\u0120\u0120\u0120\u0120\u0120\u0109": 8819, "helpers": 8820, "\u0120versions": 8821, "ining": 8822, "ilation": 8823, "ople": 8824, "795": 8825, "\u0120iteration": 8826, "deli": 8827, "\u0120'(": 8828, "aking": 8829, "ints": 8830, "\u0120native": 8831, "existing": 8832, "\u0120Sign": 8833, "ica": 8834, "RM": 8835, "experiment": 8836, "]?": 8837, "ACCESS": 8838, "\u0120Google": 8839, "\u0120coordinate": 8840, "PREFIX": 8841, "011": 8842, "Optional": 8843, "tcp": 8844, "\u0120[{'": 8845, "ragment": 8846, "balance": 8847, "\u0120Each": 8848, "Cannot": 8849, "rou": 8850, "\u0120reply": 8851, "\u0120multip": 8852, "Jy": 8853, "YW": 8854, "\u0120attach": 8855, "Null": 8856, "\u0120dummy": 8857, "\u0120YANG": 8858, "vin": 8859, "vg": 8860, "\u0120copies": 8861, "\u0120manual": 8862, "xp": 8863, "\u0120si": 8864, "GO": 8865, "\u0120And": 8866, "193": 8867, "\u0120\u0120\u0120\u0120\u0120\u0120\u0120\u0120\u0120\u0120\u0120\u0120\u0120\u0120\u0120\u0120\u0120\u0120\u0120\u0120\u0120\u0120\u0120\u0120\u0120\u0120\u0120\u0120\u0120\u0120\u0120\u0120\u0120\u0120\u0120\u0120\u0120": 8868, "\u0120ri": 8869, "posal": 8870, "786": 8871, "enchmark": 8872, "cluded": 8873, "sect": 8874, "pretty": 8875, "\u0120connected": 8876, "impl": 8877, "\u01202013": 8878, "sdk": 8879, "lide": 8880, "COLU": 8881, "alignment": 8882, "unded": 8883, "################################################": 8884, "\u0120Parse": 8885, "detection": 8886, "annotations": 8887, "Fsm": 8888, "ierarch": 8889, "BI": 8890, "NEWLINET": 8891, "arrow": 8892, "SYM": 8893, "OFF": 8894, "\u0120analysis": 8895, "\u0120curve": 8896, "geometry": 8897, "\u0120nullable": 8898, "746": 8899, "=[]": 8900, "InfoSt": 8901, "ball": 8902, "wg": 8903, "Plan": 8904, "mf": 8905, "\u0120wrong": 8906, "\u0120filenames": 8907, "\u012061": 8908, "masks": 8909, "Func": 8910, "aps": 8911, "bpy": 8912, "NEWLINEd": 8913, "\u01202019": 8914, "\u0120termin": 8915, "initialize": 8916, "\"})": 8917, "Package": 8918, "\u0120expi": 8919, "NEWLINEc": 8920, "\u0120\u0109\u0109": 8921, "digits": 8922, "\u0120produce": 8923, "\u0120Project": 8924, "andidates": 8925, "margin": 8926, "hh": 8927, "190": 8928, "\u0120Assert": 8929, "MSG": 8930, "\u0120Save": 8931, "\u0120solution": 8932, "SETT": 8933, "crease": 8934, "\u0120supports": 8935, "loy": 8936, "395": 8937, "kg": 8938, "\u0120Module": 8939, "shapeNEWLINE": 8940, "rotation": 8941, "formats": 8942, "PK": 8943, "ku": 8944, "\u0120gui": 8945, "217": 8946, "268": 8947, "QA": 8948, "UV": 8949, "categories": 8950, "ipay": 8951, "oked": 8952, "348": 8953, "\u0120dx": 8954, "INST": 8955, "\u0120partition": 8956, "\u0120slot": 8957, "Hpr": 8958, "\u0120itself": 8959, ">(": 8960, "Users": 8961, "{{": 8962, "\u0120OSError": 8963, "DEX": 8964, "YV": 8965, "lte": 8966, "\u0120parsing": 8967, "\u0120Ab": 8968, "ima": 8969, "keywords": 8970, "ara": 8971, "Vec": 8972, "\u0120pygame": 8973, "entropy": 8974, "BN": 8975, "copyright": 8976, "\u0120documents": 8977, "Pi": 8978, "glyph": 8979, "\u0120obs": 8980, "\u0120fromNEWLINE": 8981, "Bi": 8982, "oring": 8983, ")'),": 8984, "rome": 8985, "linalg": 8986, "\u0120closed": 8987, "Env": 8988, "MAC": 8989, "774": 8990, "compatible": 8991, "\u0120Source": 8992, "\u0120locale": 8993, "unters": 8994, "otes": 8995, "Cons": 8996, "\u0120tar": 8997, "\u012089": 8998, "Ca": 8999, "MQ": 9000, "Media": 9001, "ENA": 9002, "WorkItem": 9003, "296": 9004, "\u0120setNEWLINE": 9005, "\u0120Parameters": 9006, "Slot": 9007, "submit": 9008, "comm": 9009, "Idx": 9010, "Move": 9011, "\u012096": 9012, "\u0120processing": 9013, "DL": 9014, "parametri": 9015, "\u0120theta": 9016, "lj": 9017, "-+-+": 9018, "arc": 9019, "sca": 9020, "apsed": 9021, "......": 9022, "irection": 9023, "\u0120audio": 9024, "\u0120ground": 9025, "\u0120CH": 9026, "Feed": 9027, "\u0120home": 9028, "Http": 9029, "hicle": 9030, "Eval": 9031, "MIB": 9032, "\u0120categor": 9033, "99999999": 9034, "OG": 9035, "\u0120Convert": 9036, "Mpls": 9037, "\u0120directories": 9038, "\u0120quote": 9039, "plane": 9040, "Release": 9041, "698": 9042, "DIRECT": 9043, "\u0120Call": 9044, "surface": 9045, "encoded": 9046, "avig": 9047, "define": 9048, "\u0120Task": 9049, "descr": 9050, "\u0120team": 9051, "215": 9052, "MET": 9053, "POINT": 9054, "finished": 9055, "journal": 9056, "\u0120gu": 9057, "ggle": 9058, "Addr": 9059, "clicked": 9060, "\u0120limitation": 9061, "destroy": 9062, "Hello": 9063, "windows": 9064, "\u012095": 9065, "\u0120Series": 9066, "lazy": 9067, "ScenarioFlags": 9068, "bw": 9069, "\u0120due": 9070, "\u0120frequency": 9071, "collect": 9072, "ONLY": 9073, "tur": 9074, "\u0120pipeline": 9075, "locations": 9076, "\u0120creating": 9077, "argmax": 9078, "\u0120reward": 9079, "\u012093": 9080, "396": 9081, "bil": 9082, "entities": 9083, "echo": 9084, "Pattern": 9085, "exer": 9086, "rected": 9087, "!')": 9088, "787": 9089, "SIG": 9090, "8859": 9091, "Tx": 9092, "257": 9093, "090": 9094, "\u0120LIABILITY": 9095, "METH": 9096, "ACTION": 9097, "batches": 9098, "BG": 9099, "Signal": 9100, "bins": 9101, "TYPES": 9102, "zi": 9103, "basis": 9104, "vim": 9105, "\u0120vals": 9106, "Expanded": 9107, "...\")": 9108, "Clean": 9109, "scheduler": 9110, "785": 9111, "Timer": 9112, "La": 9113, "\u0120Item": 9114, "ASH": 9115, "IBUT": 9116, "Effect": 9117, "flip": 9118, "RGB": 9119, "tached": 9120, "ners": 9121, "\u0120attention": 9122, "strap": 9123, "367": 9124, "OPTION": 9125, "142857": 9126, "346": 9127, "Prop": 9128, "\u0120tb": 9129, "icular": 9130, "dynamic": 9131, "avascript": 9132, "sat": 9133, "CLI": 9134, "posed": 9135, "\u0120visual": 9136, "Ctrl": 9137, "ctrl": 9138, "\u0120pin": 9139, "207": 9140, "kv": 9141, "360": 9142, "++++++++": 9143, "inator": 9144, "\u0120typeNEWLINE": 9145, "''',": 9146, "\u0120adj": 9147, "resnet": 9148, "657": 9149, "etc": 9150, "QH": 9151, "lene": 9152, "legend": 9153, "until": 9154, "\u0120Gecko": 9155, "continue": 9156, "uptools": 9157, "Ang": 9158, "\u0120NOTE": 9159, "212": 9160, "\u0120Hel": 9161, "\u0120Template": 9162, "Created": 9163, "lify": 9164, "trunc": 9165, "\u0120processed": 9166, "validator": 9167, "hit": 9168, "redis": 9169, "PASS": 9170, "355": 9171, "\u0120isn": 9172, "\u0120{'@": 9173, "DOWN": 9174, "prog": 9175, ">'),": 9176, "sender": 9177, "\u0120cert": 9178, "MessageType": 9179, "\u0120ali": 9180, "changes": 9181, "lik": 9182, "\u0120backup": 9183, "\u0120security": 9184, "fire": 9185, "\u0120sympy": 9186, "\u0120106": 9187, "Usage": 9188, "Ren": 9189, "Mult": 9190, "tector": 9191, "Orig": 9192, "inp": 9193, "Cluster": 9194, "Direction": 9195, "\u0120built": 9196, "\u0120identity": 9197, "Make": 9198, "workflow": 9199, "205": 9200, "solver": 9201, "354": 9202, "('[": 9203, "\u0120evalu": 9204, "camera": 9205, "setValue": 9206, "\u0120working": 9207, "\u0120EVENT": 9208, "ESS": 9209, "\u0120cached": 9210, "\u0120cos": 9211, "446": 9212, "without": 9213, "resolve": 9214, "ToMany": 9215, "\u0120sources": 9216, "]'": 9217, "clock": 9218, "energy": 9219, "nf": 9220, "gre": 9221, "Mod": 9222, "STER": 9223, "\u0120Find": 9224, "gene": 9225, "ament": 9226, "\u0120Vector": 9227, "san": 9228, "\u0120Sphinx": 9229, "EventArgs": 9230, "232": 9231, "SED": 9232, "\u0120soft": 9233, "middleware": 9234, "('.')": 9235, "wc": 9236, "atype": 9237, "Game": 9238, "755": 9239, "IVE": 9240, "MY": 9241, "URI": 9242, "\u0120Over": 9243, "\u0120diag": 9244, "\u0120logits": 9245, "SCENA": 9246, "ITS": 9247, "Find": 9248, "letter": 9249, "Ame": 9250, "ADDRESS": 9251, "\u0120MakeScenarioFlags": 9252, "Accessor": 9253, "readonly": 9254, "__))": 9255, "\u0120seen": 9256, "\u0120'','": 9257, "\u0120car": 9258, "\u0120Ass": 9259, "456": 9260, "\u0120'[\"": 9261, "but": 9262, "TRAN": 9263, "\u0120How": 9264, "\u0120prepare": 9265, "+)": 9266, "NEWLINEg": 9267, "dictionary": 9268, "rowse": 9269, "fm": 9270, "Ve": 9271, "vest": 9272, "letion": 9273, "\u0120._": 9274, "oauth": 9275, "credentials": 9276, "igen": 9277, "MAIN": 9278, "\u0120behavior": 9279, "=\"%": 9280, "Oc": 9281, "\u0120handling": 9282, "376": 9283, "onal": 9284, "rk": 9285, "ifact": 9286, "\u0120COPYRIGHT": 9287, "].__": 9288, "AH": 9289, "\u0120priority": 9290, "\u0120dy": 9291, "anger": 9292, "hc": 9293, "CN": 9294, "([(": 9295, "unctools": 9296, "218": 9297, "\u0120mail": 9298, "today": 9299, "Setting": 9300, "\u0120credentials": 9301, "373": 9302, "\u0120defaultNEWLINE": 9303, "vl": 9304, "Geometry": 9305, "ium": 9306, "\u0120Pri": 9307, "FIN": 9308, "ddex": 9309, "'{": 9310, "\u0120contrib": 9311, "lave": 9312, "\u0120dataNEWLINENEWLINE": 9313, "\u0120cone": 9314, "updates": 9315, "\u0120nx": 9316, "mix": 9317, "DY": 9318, "EF": 9319, "Dele": 9320, "\u0120ui": 9321, "xtures": 9322, "\u0120scheme": 9323, "756": 9324, "oted": 9325, "\u0120Ext": 9326, "\u0120xy": 9327, "TOKEN": 9328, "FUN": 9329, ">':'": 9330, "\u0120bi": 9331, "\u0120Vi": 9332, "dg": 9333, "DK": 9334, "COUNT": 9335, "Migration": 9336, "\u0120'':": 9337, "Exist": 9338, "otion": 9339, "VEL": 9340, "otype": 9341, "ESC": 9342, "\u0120authentication": 9343, "\u0120frames": 9344, "\u0120keywords": 9345, "ifications": 9346, "ICT": 9347, "tein": 9348, "het": 9349, "\u0120cover": 9350, "linux": 9351, "0101": 9352, "rng": 9353, "$$": 9354, "208": 9355, "{}\".": 9356, "STM": 9357, "stdin": 9358, "\u0120ut": 9359, "\u0120environ": 9360, "/*": 9361, "\u0120rotation": 9362, "\u0120transport": 9363, "\u0120views": 9364, "\u0120Ed": 9365, "Plot": 9366, "\u0120Rights": 9367, "\u0120198": 9368, "\u0120seg": 9369, "coin": 9370, "\u0120Clear": 9371, "Schedule": 9372, "))])": 9373, "\u0120initializer": 9374, "\u0120End": 9375, "694": 9376, "weet": 9377, "^^": 9378, "\u0120avg": 9379, "684": 9380, "\u012041": 9381, "\u0120overwrite": 9382, "Ethernet": 9383, "\u0120[]),": 9384, "\u0120QueueWorkItem": 9385, "jiang": 9386, "sto": 9387, "\u0120tk": 9388, "\u0120deprecated": 9389, "hyper": 9390, "\u0120three": 9391, "EVENT": 9392, "\u0120HttpResponse": 9393, "\u0120revision": 9394, "\u0120analy": 9395, "MG": 9396, "ably": 9397, "\u0120sqlalchemy": 9398, "IW": 9399, "vv": 9400, "catalog": 9401, "\u0120willNEWLINE": 9402, "\u0120threads": 9403, "]/": 9404, "\u0120provides": 9405, "QC": 9406, "\u0120UI": 9407, "NR": 9408, "796": 9409, "Please": 9410, "usted": 9411, "Mapping": 9412, "han": 9413, "hp": 9414, "883": 9415, "297": 9416, "tains": 9417, "\u0120finished": 9418, "665": 9419, "pkl": 9420, "DP": 9421, "utoff": 9422, "\u0120registry": 9423, "Unicode": 9424, "\u012043": 9425, "070": 9426, "\u0120makes": 9427, "tolist": 9428, "MESS": 9429, "legate": 9430, "Face": 9431, "\u0120metaNEWLINE": 9432, "FunctionIndex": 9433, "bert": 9434, "bases": 9435, "\u0120pprint": 9436, "arp": 9437, "Scena": 9438, "ONT": 9439, "<=": 9440, "\u0120addresses": 9441, "NEWLINEelse": 9442, "ulated": 9443, "wk": 9444, "\u012087": 9445, "Internal": 9446, "!=": 9447, "\u0120hard": 9448, "cells": 9449, "MAN": 9450, "Children": 9451, "edu": 9452, "\u0120checks": 9453, "\u0120Content": 9454, "argsNEWLINE": 9455, "Positive": 9456, "\u0120TEST": 9457, "'ll": 9458, "ynomial": 9459, "\u0120red": 9460, "\u0120converted": 9461, "algorithm": 9462, "Events": 9463, "\u0120derived": 9464, "aux": 9465, "readlines": 9466, "HIE": 9467, "ctype": 9468, "\u0120bn": 9469, "Points": 9470, "DELETE": 9471, "textNEWLINE": 9472, "stra": 9473, "atory": 9474, "_<": 9475, "tet": 9476, "\u0120defaultdict": 9477, "hard": 9478, "={\"": 9479, "acl": 9480, "\u0120NULL": 9481, "cil": 9482, "manual": 9483, "\u0120Status": 9484, "\u0120arrayNEWLINE": 9485, "clusive": 9486, "793": 9487, "olved": 9488, "lecule": 9489, "ARMCPU": 9490, "Gets": 9491, "AW": 9492, "::::": 9493, "bur": 9494, "\u0120surface": 9495, "evaluate": 9496, "ctl": 9497, "\u01202000": 9498, "cmds": 9499, "\u0120individual": 9500, ",%": 9501, "serializer": 9502, "urllib": 9503, "adr": 9504, "nat": 9505, "\u0120integr": 9506, "Ap": 9507, "Fc": 9508, "\u0120Pack": 9509, "resolution": 9510, "\u0120figure": 9511, "strategy": 9512, "alo": 9513, "SOURCE": 9514, "RR": 9515, "267": 9516, "WARNING": 9517, "\u0120'\\\\": 9518, "Counter": 9519, "299": 9520, ",(": 9521, "wa": 9522, "deepcopy": 9523, "\u0120\u0120\u0120\u0120\u0120\u0120\u0120\u0120\u0120\u0120\u0120\u0120\u0120\u0120\u0120\u0120\u0120\u0120\u0120\u0120\u0120\u0120\u0120\u0120\u0120\u0120\u0120\u0120\u0120\u0120\u0120\u0120\u0120\u0120\u0120\u0120\u0120\u0120\u0120\u0120\u0120\u0120\u0120\u0120\u0120\u0120\u0120\u0120\u0120\u0120\u0120\u0120\u0120\u0120\u0120\u0120\u0120\u0120\u0120\u0120\u0120\u0120\u0120\u0120\u0120\u0120\u0120\u0120\u0120\u0120\u0120\u0120\u0120\u0109": 9524, "\u0120\u0120\u0120\u0120\u0120\u0120\u0120\u0120\u0120\u0120\u0120\u0120\u0120\u0120\u0120\u0120\u0120\u0120\u0120\u0120\u0120\u0120\u0120\u0120\u0120\u0120\u0120\u0120\u0120\u0120\u0120\u0120\u0120\u0120\u0120\u0120\u0120\u0120\u0120\u0120\u0120\u0120\u0120\u0120\u0120\u0120\u0120\u0120\u0120\u0120\u0120\u0120\u0120\u0120\u0120\u0120\u0120\u0120\u0120\u0120\u0120\u0120\u0120\u0120\u0120\u0120\u0120\u0120\u0120\u0120\u0120\u0120\u0120\u0120\u0109": 9525, "\u0120\u0120\u0120\u0120\u0120\u0120\u0120\u0120\u0120\u0120\u0120\u0120\u0120\u0120\u0120\u0120\u0120\u0120\u0120\u0120\u0120\u0120\u0120\u0120\u0120\u0120\u0120\u0120\u0120\u0120\u0120\u0120\u0120\u0120\u0120\u0120\u0120\u0120\u0120\u0120\u0120\u0120\u0120\u0120\u0120\u0120\u0120\u0120\u0120\u0120\u0120\u0120\u0120\u0120\u0120\u0120\u0120\u0120\u0120\u0120\u0120\u0120\u0120\u0120\u0120\u0120\u0120\u0120\u0120\u0120\u0120\u0120\u0120\u0120\u0120\u0109": 9526, "\u0120\u0120\u0120\u0120\u0120\u0120\u0120\u0120\u0120\u0120\u0120\u0120\u0120\u0120\u0120\u0120\u0120\u0120\u0120\u0120\u0120\u0120\u0120\u0120\u0120\u0120\u0120\u0120\u0120\u0120\u0120\u0120\u0120\u0120\u0120\u0120\u0120\u0120\u0120\u0120\u0120\u0120\u0120\u0120\u0120\u0120\u0120\u0120\u0120\u0120\u0120\u0120\u0120\u0120\u0120\u0120\u0120\u0120\u0120\u0120\u0120\u0120\u0120\u0120\u0120\u0120\u0120\u0120\u0120\u0120\u0120\u0120\u0120\u0120\u0120\u0120\u0109": 9527, "Standard": 9528, "\u0120ct": 9529, "transfer": 9530, "Required": 9531, "\u0120margin": 9532, "Export": 9533, "\u0120Part": 9534, "\u01202012": 9535, "ENTI": 9536, "\u0120hig": 9537, "\u0120Configuration": 9538, "Bro": 9539, "SCS": 9540, "RENT": 9541, "voc": 9542, "\u0120reuse": 9543, "\u0120tables": 9544, "ensure": 9545, "Encoder": 9546, "ders": 9547, "mv": 9548, "/')": 9549, "shop": 9550, "WIN": 9551, "\u0120never": 9552, "XF": 9553, "\u0120templates": 9554, "Wait": 9555, "stand": 9556, "gar": 9557, "ExpandedName": 9558, "Encoding": 9559, "mapper": 9560, "358": 9561, "2009": 9562, "frequency": 9563, "Virtual": 9564, "ayment": 9565, "jected": 9566, "\u0120separate": 9567, "indexes": 9568, "594": 9569, "runtime": 9570, "Collision": 9571, "HEADER": 9572, "________________": 9573, "\u0120sync": 9574, "AttributeSet": 9575, "363": 9576, "+',": 9577, "\u0120nothing": 9578, "jI": 9579, "\u0120particular": 9580, "StringIO": 9581, "efault": 9582, "])))": 9583, "\u0120pixels": 9584, "vertices": 9585, "prompt": 9586, "\u0120Def": 9587, "ToManyField": 9588, "aken": 9589, "JE": 9590, "\u0120Some": 9591, "runner": 9592, "\u0120alt": 9593, "\u0120''),": 9594, "authentic": 9595, "zhou": 9596, "\u0120raises": 9597, "NEWLINENEWLINENEWLINENEWLINENEWLINENEWLINE": 9598, "esser": 9599, "Fi": 9600, "Peer": 9601, "\u012094": 9602, "Missing": 9603, "TRAIN": 9604, "dw": 9605, "Static": 9606, "listNEWLINE": 9607, "cx": 9608, "\u0120['-": 9609, "\u0120Stop": 9610, "\u0120yaml": 9611, "listen": 9612, "ante": 9613, "\u0120feat": 9614, "osite": 9615, "MDME": 9616, "\u0120certificate": 9617, "\u0120cols": 9618, "iteral": 9619, "\u0120Page": 9620, "icip": 9621, "Mouse": 9622, "fort": 9623, "lying": 9624, "bt": 9625, "\\.": 9626, "FFFFFF": 9627, "Impl": 9628, "\u0120retrieve": 9629, "\u0120npNEWLINEfrom": 9630, "priv": 9631, "wsgi": 9632, "Lte": 9633, "Convert": 9634, "(_(\"": 9635, "459": 9636, "+[": 9637, "242": 9638, "\u012002": 9639, "licies": 9640, "ivation": 9641, "nested": 9642, "coeff": 9643, "JH": 9644, "\u0120Result": 9645, "\u0120Please": 9646, "Help": 9647, "astic": 9648, ")]],": 9649, "#------------------------------------------------------------------------": 9650, "347": 9651, "\u0120better": 9652, "\u0120Whether": 9653, "transition": 9654, ">)": 9655, "classifier": 9656, "\u0120dynamic": 9657, "Ji": 9658, ">[": 9659, "getvalue": 9660, "yo": 9661, "\u0120Otherwise": 9662, "Tri": 9663, "ADMIN": 9664, "\u0120vertex": 9665, "Comment": 9666, "erge": 9667, "\u0120192": 9668, "\u0120cycle": 9669, "\u0120Redistribution": 9670, "KET": 9671, "terms": 9672, "ables": 9673, "\u0120asyncio": 9674, "COM": 9675, "\u0120counts": 9676, "pyplot": 9677, "Language": 9678, "owns": 9679, "rename": 9680, "After": 9681, "stone": 9682, "COLUMN": 9683, "|[": 9684, "ENTRY": 9685, "276": 9686, "BL": 9687, "238": 9688, "production": 9689, "397": 9690, "OBJECT": 9691, "ITH": 9692, "\u0120general": 9693, "deri": 9694, "ScenaIndex": 9695, "got": 9696, "ftype": 9697, "\u0120very": 9698, "////////////////////////////////": 9699, "\u0120twisted": 9700, "pf": 9701, "GER": 9702, "VN": 9703, "\u0120Numeric": 9704, "allenge": 9705, "EK": 9706, "Enter": 9707, "\u0120parametersNEWLINE": 9708, "\"%(": 9709, "0002": 9710, "ashboard": 9711, "\u0120vars": 9712, "swig": 9713, "dirty": 9714, "\u0120tearDown": 9715, "088": 9716, "\u0120Jo": 9717, "181": 9718, "achine": 9719, "\u0120've": 9720, "099": 9721, "Free": 9722, "\u0120BY": 9723, "configs": 9724, "keras": 9725, "saved": 9726, "phab": 9727, "lerance": 9728, "Sequential": 9729, "\u0120Reference": 9730, "\u0120hit": 9731, "Neighbor": 9732, "bid": 9733, "NEWLINENEWLINEThis": 9734, "BS": 9735, "758": 9736, "WC": 9737, "\u0120AUTH": 9738, "\u0120cs": 9739, "parametrize": 9740, "${": 9741, "lus": 9742, "Switch": 9743, "\u0120camera": 9744, "floor": 9745, "npy": 9746, "\u0120XXX": 9747, "\u0120monitor": 9748, "illi": 9749, "\u0120Des": 9750, "prep": 9751, "\u0120sep": 9752, "\u0120Array": 9753, "Middleware": 9754, "\u0120First": 9755, "disabled": 9756, "Short": 9757, "\u0120Query": 9758, "\u0120Now": 9759, "Day": 9760, "\u0120/=": 9761, "\u0120clone": 9762, "vb": 9763, "criminator": 9764, "\u0120yang": 9765, "nor": 9766, "\u0120Map": 9767, "693": 9768, "\u0120fh": 9769, "fact": 9770, "NOR": 9771, "\u0120Conv": 9772, "\u0120sur": 9773, "767": 9774, "\u0120Bit": 9775, "Extra": 9776, "LEFT": 9777, "DEL": 9778, "061": 9779, "attle": 9780, "executable": 9781, "ManyToManyField": 9782, "\u0120hyper": 9783, "Player": 9784, "heel": 9785, "\u0120keyNEWLINE": 9786, "{\\": 9787, "']):": 9788, "\u0120Lesser": 9789, "Errors": 9790, "geom": 9791, "\u0120deal": 9792, "\u0120strict": 9793, "081": 9794, "stmt": 9795, "265": 9796, "@\\": 9797, "erred": 9798, "BQ": 9799, "209": 9800, "numbers": 9801, "AAA": 9802, "\u0120hostname": 9803, "QUE": 9804, "\u0120Guang": 9805, "review": 9806, "Ma": 9807, "394": 9808, "BAND": 9809, "643": 9810, "\u0120Train": 9811, "\u0120bug": 9812, "\u0120lineNEWLINE": 9813, "\u0120Sk": 9814, "dtuple": 9815, "ganji": 9816, "__(*": 9817, "rbridge": 9818, "\u0120=================================================================": 9819, "pher": 9820, "216": 9821, "\u0120La": 9822, "_[": 9823, "\u0120Color": 9824, "\u0120shown": 9825, "each": 9826, "\u0120Label": 9827, "\u0120enter": 9828, "launch": 9829, "nh": 9830, "\u0120router": 9831, "\u0120Float": 9832, "Mesh": 9833, "\u0120sender": 9834, "\u0120dc": 9835, "iles": 9836, "697": 9837, "fidence": 9838, "ben": 9839, "enumeration": 9840, "seudo": 9841, "NEWLINEk": 9842, "\u0120registered": 9843, "urations": 9844, "\u0120cp": 9845, "\u0120timeNEWLINE": 9846, "JU": 9847, "\u0120vec": 9848, "\u0120ExitThread": 9849, "\u0120da": 9850, "oll": 9851, "))]": 9852, "generated": 9853, "mbo": 9854, "mited": 9855, "\u0120interpre": 9856, "station": 9857, "gif": 9858, "combo": 9859, "\u0120maps": 9860, "\u0120restriction": 9861, "TK": 9862, "\u0120Custom": 9863, "tas": 9864, "496": 9865, "ARK": 9866, "finish": 9867, "\u0120rendered": 9868, "\u0120Sp": 9869, "\u0120experiment": 9870, "have": 9871, "283": 9872, "tid": 9873, "QR": 9874, "scroll": 9875, "Edge": 9876, "\u0120reading": 9877, "ned": 9878, "SETTINGS": 9879, "GS": 9880, "Split": 9881, "\u0120=>": 9882, "\u0120ua": 9883, "\u0120authentic": 9884, "raries": 9885, "\u0120mime": 9886, "230": 9887, "sam": 9888, "sal": 9889, "into": 9890, "sian": 9891, "pP": 9892, "\u0120remaining": 9893, "\u0120iNEWLINE": 9894, "rem": 9895, "regularizer": 9896, "kar": 9897, "}\",": 9898, "357": 9899, "NEWLINEP": 9900, "DIM": 9901, "\u0120VersionMeta": 9902, "685": 9903, "\u0120detail": 9904, "ivar": 9905, "accounts": 9906, "IMP": 9907, "Expected": 9908, "bri": 9909, "ARCH": 9910, "\u0120represents": 9911, "moves": 9912, "poll": 9913, "roi": 9914, "imize": 9915, "\u0120sequences": 9916, "gettext": 9917, "marks": 9918, "449": 9919, "symbols": 9920, "\u0120Mark": 9921, "Rep": 9922, "Xml": 9923, "Graphics": 9924, "320": 9925, "\u0120wagtail": 9926, "221": 9927, "lare": 9928, "nm": 9929, "\u0120Connection": 9930, "Sap": 9931, "America": 9932, "\u0120virtual": 9933, "\u0120itertools": 9934, "setUp": 9935, "\u0120Red": 9936, "ulse": 9937, "mysql": 9938, "fan": 9939, "\u0120days": 9940, "\u0120Ph": 9941, "neighbors": 9942, "\u0120wave": 9943, "wp": 9944, "information": 9945, "udf": 9946, "Failure": 9947, "certificate": 9948, "\u0120recent": 9949, "TX": 9950, "Success": 9951, "FloatField": 9952, "numeric": 9953, "051": 9954, "prior": 9955, "Groups": 9956, "kJ": 9957, "::-": 9958, "received": 9959, "\u0120Defaults": 9960, "RUN": 9961, "NEWLINENEWLINEThe": 9962, "POINTER": 9963, "\u0120disabled": 9964, "273": 9965, "manifest": 9966, "Grad": 9967, "bfe": 9968, "fft": 9969, "Condition": 9970, "\u0120FIX": 9971, "iguous": 9972, "exact": 9973, "rmt": 9974, "\u0120peer": 9975, "=('": 9976, "nv": 9977, "VR": 9978, "Axis": 9979, "fold": 9980, "NEWLINENEWLINENEWLINENEWLINENEWLINE": 9981, "bundle": 9982, "\u0120PY": 9983, "171": 9984, "GLN": 9985, "\u0120mag": 9986, "ATT": 9987, "753": 9988, "\u0120ear": 9989, "iterations": 9990, "\u0120ordered": 9991, "buff": 9992, "VC": 9993, "Contact": 9994, "236": 9995, "\u0120coneq": 9996, "ple": 9997, "Foo": 9998, "('/')": 9999, "ftp": 10000, "subnet": 10001, "JECT": 10002, "\u0120DATA": 10003, "\u0120evaluation": 10004, "\u0120Arguments": 10005, "Curve": 10006, "NEG": 10007, "\u0120decorator": 10008, "\u0120Sto": 10009, "\u0120boundary": 10010, "];": 10011, "house": 10012, "stub": 10013, "***": 10014, "AttributeValue": 10015, "ially": 10016, "\u0120\\\"": 10017, "\u0120Sets": 10018, "\u0120SY": 10019, "]\"": 10020, "focus": 10021, "alive": 10022, "dll": 10023, "_=": 10024, "\u0120epsilon": 10025, "thia": 10026, "\u0120cent": 10027, "\u0120Token": 10028, "BOO": 10029, "Cloud": 10030, "asm": 10031, "653": 10032, "student": 10033, "ANT": 10034, "\u0120light": 10035, "Price": 10036, "455": 10037, "gateway": 10038, "logo": 10039, "DNEWLINE": 10040, "\u0120hashlib": 10041, "udi": 10042, "texture": 10043, "sections": 10044, "that": 10045, "MR": 10046, "...,": 10047, "alty": 10048, "_:": 10049, "dB": 10050, "kr": 10051, "qdm": 10052, "ATOR": 10053, "\u012071": 10054, "LOB": 10055, "\u0120DAMAGES": 10056, "mass": 10057, "Generic": 10058, "assemb": 10059, "\u0120give": 10060, "\u0120IndexError": 10061, "\u0120Initialize": 10062, "747": 10063, "zo": 10064, "lender": 10065, "^\\": 10066, "ZG": 10067, "scriber": 10068, "(\"\")": 10069, "\u0120Try": 10070, "Allow": 10071, "ternative": 10072, "\u0120tuples": 10073, "\u0120ask": 10074, "NX": 10075, "OC": 10076, "\u0120Change": 10077, "tlb": 10078, "\u0120filepath": 10079, "quiet": 10080, "213": 10081, "hg": 10082, "riteria": 10083, "iang": 10084, "\u0120stuff": 10085, "=\"\"": 10086, "993": 10087, "invoice": 10088, "['_": 10089, "\u0120Sim": 10090, "\u0120onNEWLINE": 10091, "Ht": 10092, "MAIL": 10093, "288": 10094, "\u0120resolve": 10095, "lopen": 10096, "dependencies": 10097, "aring": 10098, "\u0120collect": 10099, "iming": 10100, "iprot": 10101, "decor": 10102, "293": 10103, "233": 10104, "Sta": 10105, "\u0120mapped": 10106, "ungen": 10107, "UES": 10108, "LICY": 10109, "coverage": 10110, "bNEWLINE": 10111, "\u0120indata": 10112, "Cs": 10113, "\u0120ifNEWLINE": 10114, "'ve": 10115, "\"',": 10116, "\u0120returnNEWLINENEWLINEdef": 10117, "Transaction": 10118, "\u0120cut": 10119, "StringField": 10120, "\u0120FalseNEWLINENEWLINENEWLINENEWLINE": 10121, "TEMPL": 10122, "898": 10123, "connections": 10124, "corpus": 10125, "\u0120latest": 10126, "\u0120filtered": 10127, "remain": 10128, "sensitive": 10129, "\u0120INCLUDING": 10130, "\u0120ExamplesNEWLINE": 10131, "RX": 10132, "ZT": 10133, "lk": 10134, "DIS": 10135, "Chain": 10136, "loading": 10137, "leave": 10138, "\u0120annotation": 10139, "DATE": 10140, "mutation": 10141, "sigmoid": 10142, "\u0120outputNEWLINE": 10143, ">|": 10144, "494": 10145, "Drop": 10146, "VIDED": 10147, "mr": 10148, "343": 10149, "\u0120browser": 10150, "\u0120urlparse": 10151, "plots": 10152, "\u0120attempt": 10153, "\u0120er": 10154, "Unable": 10155, "Scope": 10156, "gres": 10157, "management": 10158, "Full": 10159, "lihood": 10160, "\u0120creation": 10161, "inja": 10162, "\u0120lineno": 10163, "Suite": 10164, "ilent": 10165, "RPC": 10166, "Ui": 10167, "fileNEWLINE": 10168, "gY": 10169, "argtypes": 10170, "trade": 10171, "\u0120NT": 10172, "integr": 10173, "Maximum": 10174, "formatter": 10175, "half": 10176, "FQ": 10177, "LAB": 10178, "\u0120comments": 10179, "backends": 10180, "Json": 10181, "\u0120sizeNEWLINE": 10182, "\u0120Generate": 10183, "seen": 10184, "rical": 10185, "visual": 10186, "vered": 10187, "\u0120ones": 10188, "SPE": 10189, "ori": 10190, "393": 10191, "hest": 10192, "odes": 10193, "\u0120notification": 10194, "Scene": 10195, "Cmd": 10196, "Annot": 10197, "fficient": 10198, "ATIN": 10199, "mant": 10200, "bine": 10201, "gray": 10202, "\u0120coefficient": 10203, "\u0120Device": 10204, "wers": 10205, "phabet": 10206, "rend": 10207, "nNEWLINE": 10208, "Pair": 10209, "robot": 10210, "[[": 10211, "\u0120Description": 10212, "\u0120various": 10213, "NB": 10214, "\u0120serialize": 10215, "\u0120slim": 10216, "demo": 10217, "tok": 10218, "LES": 10219, "MAL": 10220, "489": 10221, "imer": 10222, "alipay": 10223, "\u0120fc": 10224, "randn": 10225, "ERT": 10226, "ffero": 10227, "uy": 10228, "\u0120compile": 10229, "backward": 10230, "LEVEL": 10231, ">>>>>>>>": 10232, "\u0120\"\"\"<": 10233, "\u0120NAME": 10234, "rices": 10235, "traceback": 10236, "757": 10237, "bel": 10238, "\u0120coord": 10239, "INPUT": 10240, "NODE": 10241, "tech": 10242, "temperature": 10243, "\u0120Affero": 10244, "WB": 10245, "Sync": 10246, "NoneNEWLINE": 10247, "MX": 10248, "\u0120gtk": 10249, "\u0120cnt": 10250, "=[('": 10251, "orNEWLINE": 10252, "|',": 10253, "timezone": 10254, "ISING": 10255, "458": 10256, "ora": 10257, "\u0120SHALL": 10258, "atal": 10259, "STRE": 10260, "oser": 10261, "\u0120translation": 10262, "\u0120alignment": 10263, "chase": 10264, "BLYPD": 10265, "Vertex": 10266, "pal": 10267, "WISE": 10268, "acle": 10269, "iNEWLINE": 10270, "\u0120resolution": 10271, "caps": 10272, "Click": 10273, "\u0120nu": 10274, "NEWLINENEWLINENEWLINEfrom": 10275, "\u0120Should": 10276, "Indent": 10277, "NEWLINENEWLINENEWLINENEWLINEclass": 10278, "admir": 10279, "ganization": 10280, "]\",": 10281, "\u0120filesNEWLINE": 10282, "HD": 10283, "\u0120charset": 10284, "\u0120WHE": 10285, "payment": 10286, "\u0120console": 10287, "NEWLINEtry": 10288, "confirm": 10289, "valueNEWLINENEWLINE": 10290, "\u0120receive": 10291, "finite": 10292, "\u0120whose": 10293, "123456": 10294, "\u0120bal": 10295, "Double": 10296, "aaa": 10297, "\u0120IPv": 10298, "EQ": 10299, "NAL": 10300, "Constant": 10301, "UPDATE": 10302, "ILED": 10303, "erNEWLINE": 10304, "joy": 10305, "Assign": 10306, "chart": 10307, "\u0120PROVIDED": 10308, "xl": 10309, "water": 10310, "associ": 10311, "444": 10312, "\u0120Address": 10313, "Forward": 10314, "\u0120neighbor": 10315, "union": 10316, "sky": 10317, "\u0120Lay": 10318, "\u0120started": 10319, "rab": 10320, "\u0120boot": 10321, "\u0120outer": 10322, "\u0120deploy": 10323, "IK": 10324, "\u0120detect": 10325, "Fixed": 10326, "cleanup": 10327, "imgs": 10328, "\u0120imageNEWLINE": 10329, "\u0120oneNEWLINE": 10330, "...)": 10331, "racked": 10332, "\u0120logs": 10333, "Aw": 10334, "attack": 10335, "Distance": 10336, "555": 10337, "Choice": 10338, "\u0120spi": 10339, "frac": 10340, "\"]','": 10341, "celer": 10342, "\u0120cause": 10343, "eth": 10344, "NOWN": 10345, "nsure": 10346, "\u01202010": 10347, "\u0120bounds": 10348, "Render": 10349, "FK": 10350, "Zh": 10351, "\u0120gets": 10352, "vectors": 10353, "High": 10354, "Skip": 10355, "\u0120Search": 10356, "intain": 10357, "preview": 10358, "\u0120candidate": 10359, "('')": 10360, "\u0120patterns": 10361, "\u0120probability": 10362, "execution": 10363, "\u0120episode": 10364, "eled": 10365, "oney": 10366, "\u0120\u0120\u0120\u0120\u0120\u0120\u0120\u0120\u0120\u0120\u0120\u0120\u0120\u0120\u0120\u0120\u0120\u0120\u0120\u0120\u0120\u0120\u0120\u0120\u0120\u0120\u0120\u0120\u0120\u0120\u0120\u0120\u0120\u0120\u0120\u0120\u0120\u0120": 10367, "\u0120configured": 10368, "stan": 10369, "\u0120listener": 10370, "Symbol": 10371, "DJ": 10372, "RP": 10373, "GENER": 10374, "blems": 10375, "cum": 10376, "uom": 10377, "lime": 10378, "flu": 10379, "\u0120Ret": 10380, "xY": 10381, "\u0120Permission": 10382, "\u0120joint": 10383, "\u0120correctly": 10384, "Processor": 10385, "dicator": 10386, "\u0120tools": 10387, "Does": 10388, "663": 10389, "\u0120Tests": 10390, "]?[": 10391, "\u0120Post": 10392, "\u0120Batch": 10393, "\u0120ll": 10394, "CREATE": 10395, "\u0120Min": 10396, "321": 10397, "Elements": 10398, "kill": 10399, "\u0120whole": 10400, ">\",\"<": 10401, "sale": 10402, "\u0120Instance": 10403, "RESP": 10404, "Setup": 10405, "\u0120queryset": 10406, "\u0120cast": 10407, "AMPLES": 10408, "tell": 10409, "mNEWLINE": 10410, "\u0120appear": 10411, "\u0120HOLD": 10412, "general": 10413, "?',": 10414, "\u01202011": 10415, "\u0120LIABLE": 10416, "together": 10417, "beam": 10418, "\u0120Sw": 10419, "\u0120calc": 10420, "__',": 10421, "\u0120entities": 10422, "\u0120adv": 10423, "uer": 10424, "ico": 10425, "Structure": 10426, "\u0120[{": 10427, "pNEWLINE": 10428, "\u0120mouse": 10429, "clause": 10430, "lia": 10431, "Classifier": 10432, "\u0120SIG": 10433, "ERY": 10434, "Tsi": 10435, "\u0120pers": 10436, "}:": 10437, "')])),": 10438, "swap": 10439, "inplace": 10440, "\u0120band": 10441, "\u0120gr": 10442, "Vo": 10443, "Redirect": 10444, "mime": 10445, "chen": 10446, "\u0120respect": 10447, "\u0120ARISING": 10448, "separator": 10449, "\u0120span": 10450, "\u0120Delete": 10451, "\u0120MIT": 10452, "MUL": 10453, "ONSE": 10454, "subclass": 10455, "\u0120attack": 10456, "\u0120bb": 10457, "\u0120\"$": 10458, "lope": 10459, "sequences": 10460, "wf": 10461, "placement": 10462, "aign": 10463, "\u0120transforms": 10464, "BANDWIDTH": 10465, "\u0120restore": 10466, "\u0120;": 10467, "Environment": 10468, "\u0120Pass": 10469, "...')": 10470, "Eth": 10471, "\u0120normalized": 10472, "Tick": 10473, "Timestamp": 10474, "POLICY": 10475, "ofs": 10476, "\u0120generic": 10477, "FH": 10478, "\u0120argv": 10479, "\u0120WHETHER": 10480, "\u0120Sequence": 10481, "reload": 10482, "TUR": 10483, "\u0120formatted": 10484, "Driver": 10485, "QSize": 10486, "wm": 10487, "1818": 10488, "quantity": 10489, "Play": 10490, "litext": 10491, "')):": 10492, "IPv": 10493, "party": 10494, "\u0120CONTRACT": 10495, "MESSAGE": 10496, "enario": 10497, "VG": 10498, "Filename": 10499, "Util": 10500, "Editor": 10501, "\u0120gc": 10502, "\u0120SMALL": 10503, ":\")": 10504, "Popen": 10505, "NetDevice": 10506, "goal": 10507, "\u0120pag": 10508, "filtered": 10509, "/.": 10510, "}(": 10511, "TD": 10512, "\u0120Session": 10513, "\u0120visible": 10514, "CAT": 10515, "tunnel": 10516, "lica": 10517, "ceeded": 10518, "\u0120View": 10519, "uda": 10520, "([('": 10521, "\u0120Keyword": 10522, "jd": 10523, "Any": 10524, "\u0120supplied": 10525, "lugin": 10526, "274": 10527, "}),": 10528, "\u0120nargs": 10529, "rypto": 10530, "six": 10531, ":(": 10532, "\u0120ev": 10533, "TypeNEWLINE": 10534, "latform": 10535, "ellow": 10536, "dft": 10537, "CCESS": 10538, "wind": 10539, "\u0120EXPRESS": 10540, "PARAM": 10541, "Backend": 10542, "Guide": 10543, "ffffffff": 10544, "ragma": 10545, "\u0120et": 10546, "\u0120adjust": 10547, "FalseNEWLINE": 10548, "\u0120\u0120\u0120\u0120\u0120\u0120\u0120\u0120\u0120\u0120\u0120\u0120\u0120\u0120\u0120\u0120\u0120\u0120\u0120\u0120\u0120\u0120\u0120\u0120\u0120\u0120\u0120\u0120\u0120\u0120\u0120\u0120\u0120\u0120\u0120\u0120\u0120\u0120\u0120\u0120\u0120\u0120\u0120\u0120\u0120\u0120\u0120\u0120\u0120\u0120\u0120\u0120\u0120\u0120\u0120\u0120\u0120\u0120\u0120\u0120\u0120\u0120\u0120\u0120\u0120\u0120\u0120\u0120\u0120\u0120\u0120\u0120\u0120\u0120\u0120\u0120\u0120\u0109": 10549, "\u0120\u0120\u0120\u0120\u0120\u0120\u0120\u0120\u0120\u0120\u0120\u0120\u0120\u0120\u0120\u0120\u0120\u0120\u0120\u0120\u0120\u0120\u0120\u0120\u0120\u0120\u0120\u0120\u0120\u0120\u0120\u0120\u0120\u0120\u0120\u0120\u0120\u0120\u0120\u0120\u0120\u0120\u0120\u0120\u0120\u0120\u0120\u0120\u0120\u0120\u0120\u0120\u0120\u0120\u0120\u0120\u0120\u0120\u0120\u0120\u0120\u0120\u0120\u0120\u0120\u0120\u0120\u0120\u0120\u0120\u0120\u0120\u0120\u0120\u0120\u0120\u0120\u0120\u0109": 10550, "\u0120panel": 10551, "\u0120\u0120\u0120\u0120\u0120\u0120\u0120\u0120\u0120\u0120\u0120\u0120\u0120\u0120\u0120\u0120\u0120\u0120\u0120\u0120\u0120\u0120\u0120\u0120\u0120\u0120\u0120\u0120\u0120\u0120\u0120\u0120\u0120\u0120\u0120\u0120\u0120\u0120\u0120\u0120\u0120\u0120\u0120\u0120\u0120\u0120\u0120\u0120\u0120\u0120\u0120\u0120\u0120\u0120\u0120\u0120\u0120\u0120\u0120\u0120\u0120\u0120\u0120\u0120\u0120\u0120\u0120\u0120\u0120\u0120\u0120\u0120\u0120\u0120\u0120\u0120\u0120\u0120\u0120\u0109": 10552, "\u0120\u0120\u0120\u0120\u0120\u0120\u0120\u0120\u0120\u0120\u0120\u0120\u0120\u0120\u0120\u0120\u0120\u0120\u0120\u0120\u0120\u0120\u0120\u0120\u0120\u0120\u0120\u0120\u0120\u0120\u0120\u0120\u0120\u0120\u0120\u0120\u0120\u0120\u0120\u0120\u0120\u0120\u0120\u0120\u0120\u0120\u0120\u0120\u0120\u0120\u0120\u0120\u0120\u0120\u0120\u0120\u0120\u0120\u0120\u0120\u0120\u0120\u0120\u0120\u0120\u0120\u0120\u0120\u0120\u0120\u0120\u0120\u0120\u0120\u0120\u0120\u0120\u0120\u0120\u0120\u0109": 10553, "\u0120board": 10554, "solution": 10555, "calculate": 10556, "SUP": 10557, "Family": 10558, "biz": 10559, "\u0120timer": 10560, "Bc": 10561, "ornado": 10562, "HQ": 10563, "XFF": 10564, "Mg": 10565, "km": 10566, "receive": 10567, "QtWidgets": 10568, "OV": 10569, "Topic": 10570, "Aut": 10571, "pure": 10572, "Utils": 10573, "\u0120197": 10574, "spaces": 10575, "TV": 10576, "SNMP": 10577, "epsilon": 10578, "XV": 10579, "\u0120connections": 10580, "\u0120editor": 10581, "zoom": 10582, "SPACE": 10583, "MU": 10584, "\u0120terminal": 10585, "('#": 10586, "faces": 10587, "\u0120204": 10588, "widgets": 10589, "zed": 10590, "prime": 10591, "Clo": 10592, "'',": 10593, "compiler": 10594, "FACE": 10595, "nick": 10596, "aaaaaaaaaaaaaaaaaaaaaaaaaaaaaaaa": 10597, "specs": 10598, "gri": 10599, "operations": 10600, "consumer": 10601, "retch": 10602, "\u0120replacement": 10603, "\u0120Random": 10604, "El": 10605, "MK": 10606, "ailab": 10607, "\u0120Action": 10608, "shutdown": 10609, "\u0120Frame": 10610, "091": 10611, "\u0120MAX": 10612, "\u0120tgt": 10613, "NEWLINEmodel": 10614, "\u0120matched": 10615, "candidate": 10616, "CAP": 10617, "\u0120Met": 10618, "\u0120attrib": 10619, "ags": 10620, "\u0120sel": 10621, "fk": 10622, "\u0120pieces": 10623, "tinuous": 10624, "gel": 10625, "\u0120equivalent": 10626, "levant": 10627, "Progress": 10628, "\u0120\u0120\u0120\u0120\u0120\u0120\u0120\u0120\u0120\u0120\u0120\u0120\u0120\u0120\u0120\u0120\u0120\u0120\u0120\u0120\u0120\u0120\u0120\u0120\u0120\u0120\u0120\u0120\u0120\u0120\u0120\u0120\u0120\u0120\u0120\u0120\u0120\u0120\u0120\u0120\u0120\u0120\u0120\u0120\u0120\u0120\u0120\u0120\u0120\u0120\u0120\u0120\u0120\u0120\u0120\u0120\u0120\u0120\u0120\u0120\u0120\u0120\u0120\u0120": 10629, "773": 10630, "DG": 10631, "\u0120199": 10632, "subplot": 10633, "\u0120|=": 10634, "\u0120enough": 10635, "ACTI": 10636, "construct": 10637, "((\"": 10638, "additional": 10639, "\u0120rng": 10640, "\u0120sysNEWLINE": 10641, "\u0120Te": 10642, "Ok": 10643, "\u0120Current": 10644, "\u0120hparams": 10645, "\u0120Ut": 10646, "]\\|[": 10647, "!\"": 10648, "485": 10649, "ey": 10650, "riend": 10651, "\u0120classNEWLINE": 10652, "\u0120bg": 10653, "Vrfs": 10654, "\u0120boto": 10655, "velope": 10656, "Compute": 10657, "269": 10658, ">\u00e2\u0122": 10659, "chunks": 10660, "\u0120docs": 10661, "\u0120Gets": 10662, "infra": 10663, "who": 10664, "YS": 10665, "secure": 10666, "?)": 10667, "]')": 10668, "iteration": 10669, "\\\"\\": 10670, "uggest": 10671, "nonzero": 10672, "\u0120div": 10673, "listener": 10674, "igrate": 10675, "rics": 10676, "\u0120loading": 10677, "\u0120\u0120\u0120\u0120\u0120\u0120\u0120\u0120\u0120\u0120\u0120\u0120\u0120\u0120\u0120\u0120\u0120\u0120\u0120\u0120\u0120\u0120\u0120\u0120\u0120\u0120\u0120\u0120\u0120\u0120\u0120\u0120\u0120\u0120\u0120\u0120\u0120\u0120\u0120\u0120\u0120\u0120\u0120\u0120\u0120\u0120\u0120": 10678, "STOR": 10679, "\u0120gene": 10680, "AMETER": 10681, "urther": 10682, "Nz": 10683, "$\\": 10684, "uck": 10685, "RG": 10686, "\u0120ener": 10687, "\u0120computed": 10688, "svg": 10689, "\u0120They": 10690, "\u0120sin": 10691, "\u0120CODE": 10692, "\u012092": 10693, "Done": 10694, "\u0120really": 10695, "NECTION": 10696,
[...]
