#version: 0.2 - Trained by `huggingface/tokenizers
N E
Ġ Ġ
L I
ĠĠ ĠĠ
NE W
ĠĠ Ġ
LI NE
NEW LINE
s e
o n
i n
r e
t e
o r
Ġ =
ĠĠĠĠ ĠĠĠĠ
d e
s t
a t
l e
NEWLINE NEWLINE
m e
l f
se lf
Ġ t
a l
a n
e r
Ġ '
a s
a r
Ġ "
Ġ i
i on
e n
' ,
h e
ĠĠĠĠ ĠĠĠ
Ġ c
Ġ self
r o
- -
Ġ f
c t
i t
Ġ p
c e
g e
u r
Ġ re
Ġ n
) :
m p
l o
# #
u t
Ġ s
u e
ĠĠĠĠĠĠĠĠ ĠĠĠ
0 0
a me
Ġ 1
in g
Ġ in
p e
Ġ o
n t
" ,
l i
Ġ (
' :
a te
de f
c i
r i
a d
Ġ 0
Ġ d
c o
Ġt he
f i
Ġ b
e l
i s
Ġ a
Ġ m
Ġ #
) ,
r a
u n
n on
i d
ci i
as cii
Ġ [
( )
se r
c h
te r
Ġ w
Ġi f
-- --
Ġ e
" "
c k
o t
or t
u l
s s
_ _
on e
Ġ def
ur n
an d
t urn
l a
o de
y pe
n ame
p t
v al
ge t
ĉ ĉ
i l
Ġ -
( '
t h
m a
Ġf or
] ,
at ion
d i
## ##
e t
N one
at a
Ġ T
Ġre turn
o l
c on
= =
Ġt o
= '
u m
" :
Ġi s
v e
mp ort
se t
' )
as s
u p
Ġ 2
ct ion
v er
in t
o d
) )
ro m
e d
e s
st r
a b
ĠĠĠĠĠĠĠĠ ĠĠĠĠĠĠĠ
i z
Ġ" ""
x t
Ġo f
ul t
a p
Ġ +
i g
k e
q u
en t
Ġ {
Ġ u
at h
ĠĠĠĠ Ġ
ar g
val ue
de r
i c
a m
. _
me nt
Ġ None
' ]
r ue
t ype
c l
h t
Ġc on
te st
o p
ĠĠĠĠĠĠĠĠ ĠĠĠĠĠĠĠĠ
[ '
0 1
Ġ S
ser t
a ge
i me
( "
ad d
e ct
s p
Ġ C
i le
Ġ F
* *
as sert
or m
---- ----
v i
b j
Ġ A
Ġt h
Ġ r
p ar
R e
Ġn ot
al l
Ġ and
p ro
el d
p ut
t o
I n
Ġi mport
it h
Ġ :
Ġ g
f rom
t r
p o
ode l
pt ion
ĠĠĠĠ ĠĠ
Ġe x
u s
NEWLINENEWLINE NEWLINE
en d
Ġ h
t a
Ġ= =
u b
le n
r or
" )
f f
li st
iz e
te d
Ġ _
Ġ lo
Ġ st
re s
ĠĠĠĠĠĠĠĠ Ġ
p er
Ġ se
a se
o w
Ġ %
e x
fi le
ab le
l in
Ġ P
al se
d ata
Ġ de
NEWLINE a
an ce
o m
1 1
p ath
s NEWLINE
b u
ke y
Ġ <
#### ####
arg s
Ġ me
o ut
s ion
== ==
te m
a ck
cl ass
te xt
e w
a c
1 2
0 2
fi g
Ġ 3
bj ect
ĠĠĠĠĠĠĠĠ ĠĠ
i st
Ġ or
s c
f o
f orm
q ue
s h
H H
Ġ value
] )
ar t
ap p
Ġb e
Ġ I
an g
T rue
el se
Ġn ame
Ġ L
Ġ *
Ġ as
3 2
E R
x f
1 0
re d
i eld
Ġ test
x b
NEWLINEa I
Ġ D
r int
m o
mp le
st ance
de x
Ġw ith
Ġ else
Ġ( '
or d
x e
Ġ M
a ult
i mport
u le
i m
x c
. .
at ch
Ġ O
/ /
Ġp ro
th od
o s
Ġ x
Ġ v
Ġd ata
an ge
E r
o ur
a re
l y
u nt
t ri
m b
u re
Ġ y
la b
a y
6 4
Ġf ile
} ,
Er ror
d ate
x d
t ime
Ġ E
p re
li c
a g
Ġ __
b o
m odel
0 4
in d
r y
i se
3 3
I I
i p
o c
te n
qu al
p y
in it
Ġre s
Ġ str
1 4
" ]
i ve
x a
00 00
co de
Ġc o
h o
it y
par am
1 5
O N
9 9
NEWLINE from
d b
an s
que st
n e
te p
: :
la y
i f
s ize
= "
0 3
lin e
8 8
Ġ 4
1 6
y s
Ġ G
Ġp ar
S T
2 5
I N
a ce
Ġ N
t p
' ),
7 7
0 5
ct or
co m
R E
Ġ B
Ġd i
"" "
[ "
Ġ an
ĠĠĠĠĠĠĠĠ ĠĠĠĠĠĠ
ma ge
1 3
Ġ get
C on
A T
6 6
t y
Ġ )
re ate
ce ss
ĠF alse
2 2
-------- --------
app end
ur l
e st
ss age
Ġ{ '
our ce
ĠT rue
1 8
od ule
ig n
co l
__ (
lo g
0 7
Ġc l
he ck
p h
L E
Ġp rint
un d
) .
s tep
i r
' '
Ġ set
re ad
1 9
lo w
Ġ at
Ġ on
Ġth is
Ġ >
lab el
con fig
Ġn p
Ġ un
ĠĠĠĠĠĠĠĠ ĠĠĠĠĠ
in stance
Ġf rom
ht tp
j o
Ġ l
Ġ assert
Ġ[ '
Ġo ut
1 7
a pe
f e
0 8
n et
Ġ 5
E qual
Ġd b
a der
a x
6 5
ro up
T ype
at or
0 9
di r
Ġ k
u ment
ar y
ĠĠĠĠĠĠĠĠ ĠĠĠĠĠĠĠĠĠĠĠ
se d
Ġ `
Ġ len
ra y
Ġ he
as k
Ġ W
or k
3 4
un ction
n s
F ield
O R
v ent
3 5
b er
Ġc h
F alse
Ġ' <
a ve
Ġth at
ra in
g er
fi eld
2 4
Ġ U
0 6
o re
m in
Ġ en
Ġ @
==== ====
te nt
vi ce
it ion
Ġ ra
ĠT he
m l
di ct
assert Equal
p p
7 4
d f
A R
S t
ri te
######## ########
ce pt
Ġ V
' ],
form at
il d
er ror
n um
i al
Ġi t
Ġt ype
7 5
re ss
en er
ar d
Ġw h
Ġb y
ver sion
ma x
m s
: //
( [
on se
Ġlo g
. __
o k
E N
ig ht
G G
2 8
re n
bu te
ar i
( ):
p ort
Ġ al
l l
in fo
c a
an t
Ġ list
o u
ĉĉ ĉ
l ate
u ser
o bject
e xt
a ction
> ",
> ',
en se
f t
o g
3 8
2 9
g th
in dex
Ġres ult
le r
Ġ R
ar ray
S S
Ġme thod
lo ad
a mple
7 8
g s
Ġo s
Ġ Re
s on
P ro
de d
c ted
6 8
Ġ+ =
Ġ ro
co unt
HH HH
il l
model s
tri bute
val id
st at
D E
Ġ" <
2 0
5 5
ing s
c ur
Ġra ise
NEWLINENEWLINENEWLINE def
ut h
Ġm odel
o ck
3 9
i v
A A
S E
N ame
NEWLINE import
sc ri
6 9
ce s
lo ck
Ġ ],
4 4
lo c
Ġn um
j ang
li f
n d
u st
A N
F F
u te
jang o
Ġt ime
up date
re nt
Ġ key
lo at
Ġw e
7 9
I T
b y
Ġp re
ow n
Ġ H
in e
Ġs h
li ent
te mp
Ġ[ ]
re e
D e
an n
ce ption
ar get
I D
ter s
ut il
li b
d a
er s
b ack
C h
Ġdef ault
Ġa re
w ord
A L
i tem
sp onse
3 6
M E
i es
m odule
d d
] .
po s
Ġe lif
jo in
ma p
a k
al ue
st art
NEWLINENEWLINENEWLINE class
Ġc ol
p en
w e
field s
b ase
w args
ri g
s or
n o
ta in
p l
w ork
le ment
Ġ \
u g
p i
ĠNone NEWLINE
f or
d u
str ing
Ġn ew
Ġ2 4
Ġin t
w rite
Ġ{ }
i fi
m and
ss ion
Ġ **
Ġex cept
i b
def ault
8 6
ption s
4 5
ma in
3 7
Ġt ry
or y
ul l
in put
at tr
4 9
Ġu se
de nt
c he
r ans
p r
Ġ[ ],
se nt
r ame
Ġ j
m at
k en
E x
er y
Ġm ode
m it
on g
me thod
st ate
ĠĠĠĠĠĠĠĠ ĠĠĠĠ
2 7
R O
h is
co mp
ate d
', '
Ġ /
ĉĉ ĉĉ
Ġ 6
Ġ 8
4 8
s i
Ġo bject
qu i
th er
Ġ In
f a
Ġp ass
T I
Ġp o
sh ape
ation s
u me
2 6
ic ense
n ode
() )
Ġcl ass
ac he
( (
J J
s ub
re turn
Ġp y
v el
' ):
> >
th on
II II
re g
M e
** **
res ult
Ġ all
5 9
Ġs o
Ġ le
pe ci
ul d
' }
S e
Ġ" #
te s
U T
Ġout put
Ġ la
g roup
se s
Ġd o
ar ch
3 0
Ġ add
in ter
Ġh as
t s
po int
T est
fi x
type s
t rain
out put
A C
len gth
Ġc om
Ġlo ss
vi ew
I d
i mage
are nt
8 9
Ġs up
rig ht
co re
Ġt f
arg ument
Ġp ath
x ff
ar n
g ra
P o
Ġf unction
5 6
Ġc ur
per ty
e c
Ġw ill
o und
2 3
> ':
b e
Ġn o
y n
ĠL icense
Ġ }
d jango
mo ve
C o
C P
la ce
Ġn ode
( ),
{ '
Ġu ser
Ġr ange
op y
u mp
sp ace
K e
Ġin put
e p
ro w
c s
Ġco mp
5 8
i x
Ġcon fig
D ata
str u
Ġre quest
f ace
'] )
qu ery
param s
c reate
] [
NEWLINENEWLINE def
w ith
u se
7 6
5 3
Ġ !
ind ow
Ġ 9
Ġs ub
d s
ari able
lo b
Ġ line
Ġ args
s ing
Ġm a
NEWLINE u
c al
00 0
s o
S et
a v
ĠT his
a a
p rint
A G
un c
ht ml
7 2
lo t
Ġ |
F I
ser ver
and om
l it
st ri
l p
re quest
n p
w w
Ġc an
S tr
E D
u d
de n
Ġse c
ctor y
it le
m is
u al
ĠI f
id th
Ġin dex
an k
k wargs
le d
Ġ label
ar k
Ġm ax
5 4
Ġ ĉ
Ġf ield
op en
Ġb as
lo se
lay er
c heck
T Y
A B
o bj
< /
Ke y
L ist
it s
() .
j ect
A D
x n
Ġpar am
re f
NEWLINENEWLINE from
a ct
i te
ĠNone NEWLINEa
Ġ! =
Ġ z
Ġs ys
A P
n ew
l s
' .
Ġ ..
Ġ Q
Ġp er
m on
or g
R es
a st
Ġi tem
2 1
Ġb o
7 3
[ :
Ġa pp
Ġ .
r c
= -
a f
Ġ Ġĉ
p s
r un
' \
sp lit
4 6
p lace
d is
Ġ ĠĠĉ
---------------- ----------------
Ġ ĠĠĠĉ
c all
bo x
ĠĠĠĠĠĠĠĠĠĠĠĠĠĠĠĠ ĠĠ
it ation
M P
me ssage
c ri
Ġ1 0
P ar
I C
d o
at um
lin k
Ġbas is
t ro
Ġi mage
ter n
m d
v o
2 01
NEWLINE step
mb da
Ġn e
Ġ ĠĠĠĠĉ
Ġ ĠĠĠĠĠĉ
F ile
Ġ ĠĠĠĠĠĠĉ
Ġ ĠĠĠĠĠĠĠĉ
3 1
V alue
util s
Ġc heck
Ġ text
Ġb u
c itation
lic y
d ing
Re action
5 0
C O
Ġr xn
D atum
8 4
re ct
Ġnum ber
at ure
ann el
Ġdb se
S I
Reaction Datum
r on
fi l
Ġ li
Ġdb instance
v ar
et a
Ġ ĠĠĠĠĠĠĠĠĉ
Ġ ĠĠĠĠĠĠĠĠĠĉ
C H
Ġ ĠĠĠĠĠĠĠĠĠĠĉ
Ġ ĠĠĠĠĠĠĠĠĠĠĠĉ
6 7
E X
iz er
i ch
======== ========
` `
Ġs peci
t ings
pe cted
' },
b s
' s
Ġstr ing
Ġi d
Ġis instance
ho uld
c ord
Ġ' ''
tr ans
bu g
ap i
w are
a ch
stat us
' <
f loat
Ġ ,
A r
8 0
D i
Ġ version
8 5
s g
Ġre sponse
le ct
Ġ url
Ġc reate
Ġst art
and ler
le ction
d oc
4 2
Ġme ssage
at ive
Ġm o
um n
Ġ ĠĠĠĠĠĠĠĠĠĠĠĠĉ
Ġ ĠĠĠĠĠĠĠĠĠĠĠĠĠĉ
Ġ ĠĠĠĠĠĠĠĠĠĠĠĠĠĠĉ
Ġ ĠĠĠĠĠĠĠĠĠĠĠĠĠĠĠĉ
Ġa c
r ad
t able
t ra
ĠĠĠĠĠĠĠĠ ĠĠĠĠĠĠĠĠĠĠĠĠĠĠĠ
scri ption
L O
r an
p ri
g ing
a uth
Ġd ist
\ \
h as
Ġ end
id get
G et
ĠĠĠĠĠĠĠĠĠĠĠĠĠĠĠĠ Ġ
E S
= [
h er
. """
" ),
n ot
I tem
i ck
par se
ne ction
5 7
T o
Ġ error
Ġs hould
c lient
pro cess
ri d
ĠC on
Ġn s
u de
con tent
ame ter
m an
re am
ri al
Ġb ase
b atch
ut ion
) ),
t on
j son
ump y
p ack
Ġd is
b in
" .
T ime
t in
T T
Ġdi ct
b l
Ġ ĠĠĠĠĠĠĠĠĠĠĠĠĠĠĠĠĉ
Ġ ĠĠĠĠĠĠĠĠĠĠĠĠĠĠĠĠĠĉ
Ġ ĠĠĠĠĠĠĠĠĠĠĠĠĠĠĠĠĠĠĉ
Ġ ĠĠĠĠĠĠĠĠĠĠĠĠĠĠĠĠĠĠĠĉ
Ġst ate
9 8
A dd
le an
me n
Ġo ther
4 7
ra w
ĠTrue NEWLINE
Ġ 7
qu en
tro l
6 3
i o
U R
u c
ver t
me r
4 0
ol d
Ġ` `
con text
v is
A t
O bject
Ġ( "
a le
Ġst at
Ġ },
le te
mis sion
ĠFalse NEWLINE
Ġ X
Ġat tribute
in al
u res
p lay
H E
' t
s um
1 00
5 2
Ġp l
Ġcl s
IN G
ĠS e
s ys
l ass
temp late
e mp
Ġd ate
he ader
ut o
C T
r ate
od y
Ġy ou
qui red
9 6
r ange
################ ################
c y
') )
Ġt rans
Ġu sed
SS I
Ġcon tain
lob al
ĠRe turn
ho st
I P
U n
4 3
Ġh ave
up le
fe ren
u i
A S
c ate
" <
all y
s co
HHHH HHHH
o st
Ġc all
S er
Ġ J
o f
n er
ma il
Ġthe NEWLINE
ot al
s pe
Ġ> >>
U L
b ar
res h
'} ),
name s
Ġs ize
B o
N ode
Ġr un
n g
6 2
t arget
to ken
Ġ ĠĠĠĠĠĠĠĠĠĠĠĠĠĠĠĠĠĠĠĠĉ
Ġ ĠĠĠĠĠĠĠĠĠĠĠĠĠĠĠĠĠĠĠĠĠĉ
Ġ ĠĠĠĠĠĠĠĠĠĠĠĠĠĠĠĠĠĠĠĠĠĠĉ
Ġ ĠĠĠĠĠĠĠĠĠĠĠĠĠĠĠĠĠĠĠĠĠĠĠĉ
orm al
a in
Ġc ode
D I
9 7
c re
Ġo pen
or der
ĠD e
ĠE x
Ġ ]
Ġd oc
Ġm odule
s ign
ser vice
or s
Ġre g
8 3
m y
a i
ra p
Ġ' s
ut f
{ }
value s
Ġsup er
Ġt arget
)) )
Ġ Y
Ġhe lp
Ġ one
[ -
A ME
l d
r t
Ġ' \
T H
lin es
a mp
9 5
Ġe vent
Ġcur rent
Ġa x
8 2
te ger
8 7
re sponse
ag er
ame ters
': {'
GG GG
P O
6 1
n el
Ġ1 00
ten sion
: `
T R
Ġ ##
Me ssage
s ource
s k
> _
4 1
Ġf a
Ġ --
and le
Ġcon text
ten sor
, '
n ect
T ext
Ġcon st
Ġt rain
T E
id s
e vent
Ġm in
Ġspeci fi
en v
6 0
ic al
on t
ri x
L e
Ġwh ich
> ":
U p
m ary
C ol
ĠT est
Ġvalue s
iz ed
c ation
ro ot
Ġan y
ff er
un i
Ġ- >
* -
i ter
ur ation
Ġ ĠĠĠĠĠĠĠĠĠĠĠĠĠĠĠĠĠĠĠĠĠĠĠĠĉ
Ġ ĠĠĠĠĠĠĠĠĠĠĠĠĠĠĠĠĠĠĠĠĠĠĠĠĠĉ
Ġ ĠĠĠĠĠĠĠĠĠĠĠĠĠĠĠĠĠĠĠĠĠĠĠĠĠĠĉ
Ġ ĠĠĠĠĠĠĠĠĠĠĠĠĠĠĠĠĠĠĠĠĠĠĠĠĠĠĠĉ
S C
Ġc opy
Str ing
f rame
ms g
id x
is ter
Ġp os
Ġ http
U N
ig h
m ode
mb er
NEWLINENEWLINE import
i e
b lock
P E
add ress
Ġun der
Ġpar ser
ut ton
t op
B ase
g en
n n
7 0
9 4
re ctory
t he
file name
o pt
( _
9 0
NEWLINENEWLINE class
ol der
ib le
or ch
p arent
lab le
ment s
ta g
9 2
Ġin stance
scri pt
NEWLINE sent
ic net
or ted
Ġf e
NEWLINEsent icnet
w ard
C C
Ġo bj
Ġ ent
ra ph
Ġ K
h f
Ġin it
Ch ar
t f
Ġ &
8 1
ir st
if y
c lose
ft ware
o ff
fil ter
EN T
Ġ valid
Ġp art
Ġre ad
Ġa ct
) ]
Ġo ption
g o
C ON
d ot
pro perty
a it
ĠP y
s ample
item s
E n
2 00
le vel
Ġ- *-
t ing
Ġs ource
o ptions
la gs
ub lic
Ġwh en
Ġf loat
I O
s y
feren ce
Ġparam s
w idth
ol s
Ġs y
C lass
f unction
i ce
**** ****
c or
ug in
Ġro w
Ġa ction
f unc
c c
ad ata
ĠV alue
In fo
Ġ2 01
5 1
cl ude
m g
z er
Ġ up
\ :
7 1
Ġg ener
Ġin ter
Ġ update
he re
>_ <
er r
ĠĠĠĠĠĠĠĠĠĠĠĠĠĠĠĠ ĠĠĠĠĠĠĠĠĠĠĠĠĠĠĠĠ
m ask
ise s
Ġhe ader
Ġon ly
f low
as ses
M odel
t itle
Ġs c
tr y
U S
ta il
un k
s ave
f ind
de bug
ch ar
he d
df hf
p ass
key s
Ġex pected
arn ing
x y
cri pt
Ġ ver
con d
ch ild
Ġ ĠĠĠĠĠĠĠĠĠĠĠĠĠĠĠĠĠĠĠĠĠĠĠĠĠĠĠĠĉ
Ġ ĠĠĠĠĠĠĠĠĠĠĠĠĠĠĠĠĠĠĠĠĠĠĠĠĠĠĠĠĠĉ
Ġ ĠĠĠĠĠĠĠĠĠĠĠĠĠĠĠĠĠĠĠĠĠĠĠĠĠĠĠĠĠĠĉ
Ġ ĠĠĠĠĠĠĠĠĠĠĠĠĠĠĠĠĠĠĠĠĠĠĠĠĠĠĠĠĠĠĠĉ
ĠFalse NEWLINENEWLINE
Ġm at
Ġc al
ra ct
In dex
(' \
i de
iv en
gra m
Ġ q
T ER
o us
lo ss
di m
D O
Ġfor mat
Ġn umpy
'' '
} )
C E
co py
cur rent
Ġ[ "
b le
ock et
I ON
re l
we ight
St at
0000 0000
il ter
con st
NEWLINE def
on ent
NEWLINE K
Ġo ptions
col or
a u
m t
Ġm sg
9 3
num ber
Ġch ar
lic ation
Ġg roup
par t
Ġ arg
st ore
c ache
g n
ĠA N
Ġm ay
F A
E lement
com mand
N AME
Ġcom mand
Ġs p
quen ce
Ġ" \
u id
Ġ ad
Ġlog ging
Ġm ust
. ,
P ath
O P
Ġb atch
Ġ' t
ĠU n
n ing
P RO
la st
** \:
Ġto ken
Ġj son
Po licy
u int
re ak
co ding
// //
Ġ' d
Con fig
Ġt ag
y le
f ault
ang u
e qual
par ser
o ver
= (
Ġla mbda
con v
Ġ array
p lot
M L
Ġcon tent
vi de
ex p
op er
angu age
to col
at ures
G E
l at
Ġ{ "
Ġf irst
W indow
P R
ist s
9 1
Ġmodel s
ĠNone NEWLINENEWLINE
ĠValue Error
JJ JJ
vo id
o b
D es
m ark
Ġdist ri
ĠG ener
st d
s u
Di ct
pre fix
Ġo pt
N U
se ssion
c f
m atch
o te
ro p
la g
r andom
iz ation
q l
me ta
E vent
Ġ argument
s a
ex ec
Ġb ut
" ],
loc al
s NEWLINENEWLINE
F a
Ġco unt
ca le
g ener
pe d
fo o
ve d
yn c
p age
u ct
\ -
ch ange
im g
ic s
IIII IIII
M an
er sion
fi r
A d
Ġ ĠĠĠĠĠĠĠĠĠĠĠĠĠĠĠĠĠĠĠĠĠĠĠĠĠĠĠĠĠĠĠĠĉ
Ġ ĠĠĠĠĠĠĠĠĠĠĠĠĠĠĠĠĠĠĠĠĠĠĠĠĠĠĠĠĠĠĠĠĠĉ
Ġ ĠĠĠĠĠĠĠĠĠĠĠĠĠĠĠĠĠĠĠĠĠĠĠĠĠĠĠĠĠĠĠĠĠĠĉ
Ġ ĠĠĠĠĠĠĠĠĠĠĠĠĠĠĠĠĠĠĠĠĠĠĠĠĠĠĠĠĠĠĠĠĠĠĠĉ
net work
Ġt ra
U ser
sNEWLINE import
Ex ception
S h
a ir
o me
Ġe ach
ww w
C om
form ation
N O
Ġe xt
le ase
AA AA
o ption
Ġm atch
tin ue
N ot
ro und
T rans
ch annel
object s
E E
se n
us h
file s
i ent
S ub
as h
.. .
Ġw ork
H O
Ġo ver
du ct
Ġc or
Ġ ),
NEWLINE S
t adata
~ ~
Ġp ack
f s
n own
po st
vi ron
ifi er
D D
Ġg iven
er nel
re place
mb ed
Ġ val
p op
'] ['
M ap
x ml
Ġfile s
Ġn et
FF FF
Ġ query
Ġwh ile
Ġc lient
T he
cl s
se arch
de vice
ĠA r
Ġt orch
co der
v p
r it
t ask
c p
", "
ĠI N
Re quest
ĠĠĠĠĠĠĠĠĠĠĠĠĠĠĠĠ ĠĠĠĠĠĠĠĠĠĠĠ
Ġp arent
at ing
f y
Ġdate time
ER R
F orm
Ġk wargs
M A
Ġb ack
ition s
p atch
ĠO R
Char Field
AT E
Ġre quired
ri es
H e
A c
con nect
" >
Ġd type
fo re
late d
i as
po ch
que ue
S ize
Ġsh ape
Ġun i
able d
ult i
stri p
a ke
ate s
un it
'] .
w o
] :
Ġe lement
L o
] ],
W idget
P y
is is
Ġfile name
ma ke
ĠS et
stru ct
Ġo per
L Y
c le
set tings
B u
I G
me mber
Ġpo int
Ġla st
i k
C ase
ile d
Ġ server
property NEWLINE
Ġ2 00
L og
Ġlog ger
L U
de lete
Ġma ke
bl ank
de red
Ġlo ad
> \
Ġa g
[: ,
de l
L A
ĠP ro
w er
At tribute
ust om
ri de
per t
R a
lic ense
Ġt able
d own
NEWLINENEWLINE NEWLINENEWLINE
se nd
Ġdo es
ĠSe e
il ity
Ġ' .
Q U
ro id
z h
sh ow
M O
ne xt
') .
ff e
ĠS t
g r
sNEWLINE from
ch o
ls db
jo b
Ġcon tinue
Ġs u
St ate
z e
Ġa uth
ĠTrue NEWLINENEWLINE
Ġex p
I s
ĠC h
In stance
lay ers
method NEWLINE
el l
date time
Ġm ock
Ġin to
] ]
P re
ĠO P
I S
11 11
er t
bu ild
ĠReturn s
p v
g ment
Ġ' /
pro ject
v ariable
pro t
In ter
Ġm ore
Ġp age
Ġp ri
ĠĠĠĠĠĠĠĠĠĠĠĠĠĠĠĠ ĠĠĠĠ
( *
g t
b ody
c li
Ġu sing
B y
Ġor der
Ġ ar
( -
re q
Ġ ĠĠĠĠĠĠĠĠĠĠĠĠĠĠĠĠĠĠĠĠĠĠĠĠĠĠĠĠĠĠĠĠĠĠĠĠĉ
Ġ ĠĠĠĠĠĠĠĠĠĠĠĠĠĠĠĠĠĠĠĠĠĠĠĠĠĠĠĠĠĠĠĠĠĠĠĠĠĉ
Ġ ĠĠĠĠĠĠĠĠĠĠĠĠĠĠĠĠĠĠĠĠĠĠĠĠĠĠĠĠĠĠĠĠĠĠĠĠĠĠĉ
Ġ ĠĠĠĠĠĠĠĠĠĠĠĠĠĠĠĠĠĠĠĠĠĠĠĠĠĠĠĠĠĠĠĠĠĠĠĠĠĠĠĉ
bu ted
Ġof f
A M
Ġb lock
ĠP ar
Ġr andom
n ow
vis ion
off set
re move
ut ure
p k
c en
o lean
ul ar
K E
stat ic
p at
Ġre t
TI ON
ĠEx ception
Ġ ass
uc cess
p c
ult ip
> "]
che d
G roup
che s
la mbda
al k
Ġm an
] ))
N N
E nt
m al
A g
p onse
open config
Ġ' %
im um
t xt
py thon
L ay
S P
Ġw ord
Ġi mp
me an
Ġch ange
Ġde l
bu f
sco pe
ot her
f er
c ent
Ġs ample
V i
, -
bo se
Q t
pert ies
g p
le t
" ))
Ġstat us
ĠC o
) ):
opy right
Ġv ariable
Ġax is
I L
m ory
y ang
tri b
or age
Ġpro cess
Ġv ar
Ġs ign
Ġbo ol
at tribute
ith er
ys tem
ol low
N um
Ġp ort
Ġfield s
name space
v ol
Ġ"# <
Ġlen gth
T h
ate g
Ġt uple
Ġro ot
ction s
T O
w h
g in
res ource
it or
ing NEWLINE
f n
M eta
Ġd jango
ann ot
f ul
TT P
Ġdoc ument
gra ph
by tes
df it
st ack
in k
s up
Ġb reak
A l
cl asses
Ġinit ial
ai lable
it ies
Ġde scription
TY PE
Ġf ound
e lement
og le
pre sent
de scription
B C
w ay
Add ress
li ed
Ġ1 2
st amp
di fi
ph a
data set
Ġpass NEWLINENEWLINE
R AN
pt h
us ter
sc ale
Ġs ave
Ġun it
ter min
b it
Ġ' ',
ĠĠĠĠĠĠĠĠĠĠĠĠĠĠĠĠ ĠĠĠĠĠ
Ġe d
o se
t x
label s
as ter
Co mp
ve ctor
ĠO F
en code
assert True
Re turn
). __
ver se
A pp
Ġle vel
Ġfor m
id den
O ut
c md
Ġne ed
con f
aa aa
w ait
b a
p ol
Ġpy thon
pe ct
c at
n ull
Ġm ap
di ces
N et
by te
r f
Ġf ind
FI LE
] ),
ad z
le s
re t
init ial
st ream
t ree
Ġw as
m i
Ġin fo
od ing
he ight
n a
s w
D is
Ġ' '
V ER
Ġc ase
d ay
b ot
xe c
Ġy ield
ce ive
v en
le ft
Ġn ext
Ġat tr
e b
ri c
i mple
point s
') },
P D
log ger
Ġdistri buted
Ġcol or
read y
Ġ> =
op s
Ġo p
ĠG et
P os
f ter
se q
mo ck
le cted
Ġdi rectory
Ġs ame
Ġ tensor
in ed
Vi ew
L oc
Test Case
N o
s with
um ns
m od
Ġ.. .
Ġresult s
Ġh ost
a red
low er
e k
Ġ' -
and roid
Ġt ask
mo te
s m
Ġ' m
AT ION
f l
Ġspecifi ed
Ġso me
i ces
Ġma in
D ate
e ar
h andler
t rue
Ġc oding
Ġ< =
Ġ temp
Ġ[ -
F rame
Ġo b
r s
ĠC opyright
de v
I LE
V E
Res ponse
Ġres ource
ax is
Ġi ter
tern al
x x
mp ty
Ġth en
ction ary
Ġpass NEWLINE
ĉĉ ĉĉĉ
Ġf ull
Ġi mg
O T
ĠGener al
Ġse ssion
loc ation
e val
C heck
ĠPy thon
fir st
d k
le ss
s l
ay load
in st
xf e
Pro perty
he l
http s
o o
Ġw rite
Ġ ĠĠĠĠĠĠĠĠĠĠĠĠĠĠĠĠĠĠĠĠĠĠĠĠĠĠĠĠĠĠĠĠĠĠĠĠĠĠĠĠĉ
Ġ ĠĠĠĠĠĠĠĠĠĠĠĠĠĠĠĠĠĠĠĠĠĠĠĠĠĠĠĠĠĠĠĠĠĠĠĠĠĠĠĠĠĉ
Ġ ĠĠĠĠĠĠĠĠĠĠĠĠĠĠĠĠĠĠĠĠĠĠĠĠĠĠĠĠĠĠĠĠĠĠĠĠĠĠĠĠĠĠĉ
Ġ ĠĠĠĠĠĠĠĠĠĠĠĠĠĠĠĠĠĠĠĠĠĠĠĠĠĠĠĠĠĠĠĠĠĠĠĠĠĠĠĠĠĠĠĉ
ĠA dd
pe x
ĠP ublic
bo ol
Ġwe ight
A n
Q u
Ġ lib
h a
e f
d type
di a
Ġand NEWLINE
" ):
Ġe ither
ex ception
po ol
1 01
Ġor ig
on ly
ten d
li s
Ġ utf
c ul
re cord
M B
Ġs tep
P I
mb ol
Ġa v
Ġl ong
ĠAN Y
Bo x
Ġm ask
s core
EX PR
Ġf ilter
n ormal
spe c
Ġa b
Ġli mit
Ġ1 4
Ġn n
Ġf rame
ur i
Ġde st
Ġy our
Ġre f
pex pr
Ġse e
emp ty
C A
tail s
D B
Ġ qu
F E
s n
Ġ24 0
en e
col umn
LI C
t mp
i re
de code
sc he
G L
t otal
================ ================
ion s
Ġ2 53
ate r
li g
ab el
. ")
> <
25 5
Ġ3 7
Ġg lobal
Ġg o
L ine
Ġin st
Ġlo cal
s rc
Up date
Ġb ot
add r
AB LE
F or
Ġto p
un ter
Ġal low
header s
% %
re lated
.. ..
M o
inter face
Ġ right
'] [
ĠG NU
ex ample
Ra ises
Co unt
ĠW AR
i a
ing le
ĠC ON
et ch
ĠS o
zer os
di v
) [
F T
Ġpar se
Ġs k
Ġre move
C K
add ing
Ġbu ild
Ġ1 6
or ig
ver y
me tri
al s
do main
sys tem
ĠQ t
In teger
Ġhe re
en sor
reg ister
" \
Ġt itle
Re g
s v
Ġre l
+ +
ad min
Ġex ec
l ing
act ive
ab s
12 8
ex ists
Ġch ild
c u
ent ry
-- -
mat rix
pre ssion
f uture
C reate
Ġ layer
Ġpar ameter
Ġ2 0
Ġn on
k nown
I mage
Ġ24 2
Ġ24 3
Ġex tension
Ġf ollow
se rial
ifi cation
O r
` .
Ġ24 1
assert Raises
pass word
_ (
Ġwith out
O O
Ġs um
un CP
men ted
P er
Ġex ist
c as
M S
us r
c an
se lect
Ġ view
b r
H T
has h
result s
p orted
Ġso ftware
ĠY ou
ĠW IT
U P
e mail
con nection
OR T
Ġth read
ĠT ype
it ch
Ġde vice
co mple
Ġt otal
ke ep
Ġd f
l ong
Ġ link
c b
Ġ[' <
lay out
Par ser
g rad
] +
ĠT O
c ra
Ġ template
F L
q z
Ġdata set
B B
st op
ĠF or
c lo
st yle
UL T
pro to
Ġcon nection
ĠA n
input s
S A
ck et
per mission
ĠWAR RAN
Ġre cord
pos ition
Ġme ta
Ġex ample
U B
X X
AG E
ĠD ata
Ġw here
66 66
le ep
i str
ran ch
Ġ' __
Ġpro ject
u x
Ġ --------
L D
77 01
Ġ" @
Ġex ception
i an
ri ter
C ode
ĠO r
25 6
(' /
T able
Ġbo x
tain er
1 02
si de
per i
ant s
Ġname s
s te
ig r
du mp
. ')
h andle
Ġ" %
fe atures
t d
call back
w d
B e
T L
i mp
re p
Ġw idth
word s
Ġen ume
me tadata
stru ctor
H andler
w indow
di st
ST R
Ġ Z
ac count
j e
c v
re sp
E nd
li ce
ub le
a uto
a w
i dent
0000 00
Ġpl t
"] ["
it ive
g or
ist ory
'] :
F unction
Ġt rue
l an
V al
ver age
Ġcontain ing
Ġ: :
ĠN ot
ĠI D
(' --
ge s
r ary
Ġse rial
I nt
Ġoff set
pack age
Ġa fter
Ser vice
Ġst d
f d
sign ed
Ġadd ress
Ġsh ow
>": "<
) ],
ĠI S
Ġ' ,
he ad
l t
c d
Ġin formation
ca st
ce ll
V ersion
Ġc ache
T ag
w ise
= {
Ġ' #
F O
R L
ang le
Ġo ld
Ġset tings
: ]
vi der
user name
c ry
ĠĠĠĠĠĠĠĠĠĠĠĠĠĠĠĠ ĠĠĠĠĠĠĠĠĠ
di rect
ip v
n orm
Ġi dent
__ ()
exec ute
EN D
Ġs co
ok en
] ['
Ġth an
V AL
te x
bo ok
ig s
Ġ1 5
Ġstr uct
Ġent ry
com mon
Ġ[ ('
Ġcol umn
g ress
w rap
HHHHHHHH HHHHHHHH
igh b
Ġch annel
al og
f c
Ġ ter
auth or
g lobal
pl ugin
b b
ri ver
fa il
G ui
In put
stat s
Po int
di stri
Ġ' _
Ġ service
( {
mer z
Ġpro gram
M M
ge x
con trol
'] ],
Ġb in
xf d
Ġ err
Ġcall back
Ġb ody
g g
ex it
Ġhas attr
e poch
Ġenume rate
g round
r ule
D o
AG S
p red
ra int
bo ard
De fault
li p
Man ager
resh old
li mit
Ġthe re
m m
. \
Ġpar ameters
B U
I M
ĠA t
as on
Con tent
xf c
b ution
" ])
Ġe val
f g
comp ile
Ġc md
f in
c r
stru ction
oc ab
. "
u ff
if t
Ġ Key
O n
Ġpo st
qui re
pl it
A ct
ĠT HE
con ds
man ager
re ction
p b
Ġb et
par ameters
B A
pe c
xc c
Stat us
H I
e mbed
time out
Ġreturn NEWLINE
bu ffer
Ġal ready
g rid
po licy
ro t
ff ect
Ġm y
Num ber
ultip le
in sert
Con text
Ġoption al
de s
vide o
b ind
Ġcontinue NEWLINE
C all
Ġof NEWLINE
il y
******** ********
th read
( ?
Ġa bs
q a
en g
Le af
': '
F rom
ceive d
Ġ lines
T his
ex pected
B E
Ġreturn s
A ction
f lags
ĠSo ftware
ition al
f ull
ĠC reate
k w
__ __
Ġ ĠĠĠĠĠĠĠĠĠĠĠĠĠĠĠĠĠĠĠĠĠĠĠĠĠĠĠĠĠĠĠĠĠĠĠĠĠĠĠĠĠĠĠĠĉ
Ġ ĠĠĠĠĠĠĠĠĠĠĠĠĠĠĠĠĠĠĠĠĠĠĠĠĠĠĠĠĠĠĠĠĠĠĠĠĠĠĠĠĠĠĠĠĠĉ
Ġ ĠĠĠĠĠĠĠĠĠĠĠĠĠĠĠĠĠĠĠĠĠĠĠĠĠĠĠĠĠĠĠĠĠĠĠĠĠĠĠĠĠĠĠĠĠĠĉ
Ġ ĠĠĠĠĠĠĠĠĠĠĠĠĠĠĠĠĠĠĠĠĠĠĠĠĠĠĠĠĠĠĠĠĠĠĠĠĠĠĠĠĠĠĠĠĠĠĠĉ
to m
image s
Ġp h
AT A
ex tension
c m
r u
ĠS tr
GE T
ĠĠĠĠĠĠĠĠĠĠĠĠĠĠĠĠ ĠĠĠĠĠĠ
T emp
C lient
) ;
ĠM e
S p
node s
Ġheader s
s q
Ġ3 2
Ġlabel s
c ap
xf b
a pt
d t
Ġb l
c ase
Ġi mple
re st
ol ution
Ar g
i os
script or
Inter face
ĠAr gs
del ta
x ed
Ġ" "
Ġit s
re en
Ġnet work
( \
ent ic
ser ved
33 33
en viron
S ER
L abel
Ġc ho
I pv
B lock
B utton
GGGG GGGG
ĠW e
x s
Col or
de sc
an y
Res ult
vi rt
ac y
Ġf in
Ġn ormal
r and
ator s
//// ////
t k
pro p
Ġre n
il der
N S
-------------------------------- --------------------------------
Ġh andle
tr an
im izer
c er
G ener
AL L
UR L
Ġ1 3
Ġv is
cs v
Ġobject s
Ġse arch
Ġpack age
O f
E d
b utton
# !
che ma
fe ature
bo und
Y Leaf
igs list
ge st
ĠĠĠĠĠĠĠĠĠĠĠĠĠĠĠĠ ĠĠĠĠĠĠĠĠĠĠĠĠĠĠĠ
de st
S O
I LI
C ur
ro ss
T ra
99 99
cra igslist
Ġ( (
Ġspecifi c
o ci
W A
di fy
Ġpre fix
Ġreturn NEWLINENEWLINE
ore ign
der r
Ġt mp
di c
r l
Ġp at
Z E
start swith
we b
M ax
Ġcol lection
L en
) *
ol ute
ERR OR
Ġin clude
Ġper mission
an e
Ġdi ctionary
Ġre sp
he ll
Ġargument s
re pr
Ġget attr
i er
ĠR es
Ġsup port
Con trol
Ġid x
N D
we en
and ard
Ġk ernel
P C
Ġen v
Ġuni code
HO UT
= %
sp ort
> </
ac cess
Ġver bose
vi ous
A ll
xf a
ci mal
en ter
te red
z ip
xe f
ge d
Ġre present
Ġg raph
G R
Ġ te
Ġl anguage
xe b
Ġm ark
',' ','
weight s
u ter
Ġx ml
Ġd own
Ġbe fore
Ser ver
pre ss
S H
Ġs ingle
g l
Ġco mple
Ġcon d
A uto
y p
Com mand
( __
Ġal so
f older
ĠWIT HOUT
ex cept
( ['
cri ption
A uth
Ġ1 1
F e
P AT
Ġst ream
ILI TY
dered Dict
Ġext ra
Ġt wo
Ġa p
s ort
ic le
" }
xd f
Ġ' ,'
Ġen coding
at form
ĠF OR
Ġs rc
vi ded
pro duct
si te
li ke
x ad
A s
ĠC heck
Ġto NEWLINE
ok up
Ġde tails
Ġf unc
Ġ $
h en
sk ip
Ġav ailable
ne ss
xb f
S D
% (
group s
arg v
KE Y
Ġsc pexpr
xc f
ĠE T
a z
xa e
Ġ' --
ord in
Ġse nd
Ġt ree
se ction
ser v
ation NEWLINE
act iv
xd b
dis play
xc d
_ ,
C ore
FA ULT
Ġinter face
li m
Ġra w
xa a
Ġby tes
ĠL ist
li sh
sample s
ta gs
I B
n umpy
Ġs cale
: ",
O per
0000 0
Ġ ):
in s
M ENT
ex tend
ro po
5 12
trans form
s ig
Ġcon trol
w idget
F C
er o
license s
Ġli ke
M ode
re al
p ng
Ġa pi
resh ape
S M
Y Type
Ġw rit
lo op
R IP
pro file
Ar ray
EX T
Ġimp lied
~~ ~~
Ġbreak NEWLINE
3 00
r b
ĠPar ameter
Lay out
ĠN ame
Ġcreate d
um my
child ren
ĠV ersion
le g
Ġst ride
sh ot
Ġmat rix
R o
Ġz ip
88 88
ĠA PI
Ġ RE
Ġhe ight
to ols
5 01
Ġpro perty
oreign Key
ci es
a ded
x ce
Ġ" /
Ġdi ffe
ime n
xc b
#! /
Ġsys tem
g ame
e e
Ġp ub
name NEWLINE
P ack
ex pr
cf g
u uid
f ra
TE ST
Ġs ocket
: %
ropo ut
in te
Ġi m
std out
in ation
Ġbe en
he ther
i us
EN SE
Ġ 64
Form at
M odule
xb d
pat tern
in dices
Ġn ow
ta ch
one s
at z
Ġno qa
Ġ' re
W ith
xb e
OR D
x de
P RE
= ['
ol ver
Ġtime out
xe e
']) ),
at io
xe a
as ic
ta ct
ĠP o
Pro cess
a e
IN T
Ġc v
ĠU ser
Integer Field
th ing
Ġm ath
T oken
') ),
Ġitem s
De vice
Ġse quence
AP I
xa f
pro perties
Ġe mpty
ug h
U E
xb b
Ġconfig uration
mo st
app lication
Ġw indow
Ġreturn ed
hel per
pen den
xd d
en s
Ġdis play
de c
Ġfollow ing
Ġpos ition
ct x
s peci
le m
me d
is co
Ġ" ,
init ion
CH AN
Ġpass word
Ġle ft
v ate
ĠOr deredDict
ta ck
LIC ENSE
DI R
Ġfa il
ith ub
sp an
channel s
Ch ange
static methodNEWLINE
AB ILITY
> '
Ġ[ [
di ff
m id
ĠS ystem
x ac
ro ute
Ġdi r
xb a
xd a
xb c
ro ll
Out put
imen sion
f it
00 01
AN D
test s
k ernel
Ġ job
ĠU RL
t n
uni que
set up
I mple
Ġh andler
Ġs orted
I f
Par am
re port
st ract
ed it
Ġ" .
error s
sh ip
ĠO n
################################ ################################
th is
\ $
P age
x ab
pro b
Ġ-------- --
g b
go ogle
l r
cur ity
Ġr ule
n u
f fix
re quired
ĠD E
re r
w in
Ġname space
Ġ1 28
an el
xd c
) ',
Ġfe ature
he lp
Ġ% (
Ġm is
Ġo sNEWLINEimport
V I
Ġpro vided
or ld
4 00
rel u
ext ra
Ġp d
Res ource
\ "
cript or
Ġ LI
Ġw x
ĠL O
Ġst yle
PRO P
di o
St art
Se ssion
JJJJ JJJJ
xa mple
Ġkey s
G B
X R
ĠS er
un signed
] \
F OR
Ġs cript
Ġ( -
s im
F oreignKey
Ġor NEWLINE
in ce
Ġcal led
uni code
Ġ< /
c ard
Ġbet ween
P ort
xc a
end ing
k t
m ath
) /
unt ime
ca use
lo ader
o id
Ġhas h
t uple
h idden
M in
ĠC ol
b n
Ġhttp s
Ġunit test
B g
ST AT
Ġac cess
N e
IN D
Ġde bug
H TTP
Ġstr NEWLINE
[" <
Ġn ull
M D
R un
g it
De f
ume r
se c
Ġreg ister
B J
ĠTO DO
Des criptor
Ġin teger
Re ad
. ',
j i
de scriptor
') ])
p g
Ġp lot
virt ual
p ub
con trib
_ .
log in
") .
t l
ĠN O
00 1
ĠI t
__ ,
G I
> `
Q L
Ġs plit
difi ed
ve c
as sed
M T
lig ht
ci sion
F R
al ign
is h
AC K
p lo
__ ':
var s
sche ma
s ocket
Ġj ust
Ġp adding
() [
message s
Ġdo main
unit test
p ad
tra ck
oc ument
cate g
Ġact iv
f ont
ĠCo mp
Ġpre di
A LI
a ut
Ġc tx
r type
H el
un nel
Ġh o
al t
Ġc re
i pe
Ġs a
Ġtrain ing
qz vp
ma c
doc ument
He ader
Ġf ree
p air
u sed
IN TER
z one
Ġme tadata
set s
gor ith
ĠM o
ue ue
con n
method s
Ġchar ac
1 33
Ġ6 0
T OR
ĠC om
di rectory
= _
O S
action s
ix ed
ro ugh
ow er
A Y
Ġf il
ĠStr ing
Ġst op
Ġ( ),
Con nection
col umns
m u
ol ume
PAT H
Ġsp ace
Re f
T e
ar m
Ġse cond
al le
ĠN ote
Ġlo cation
Ġinput s
le ctor
Ġ vi
path s
Ġb ound
categ ory
S ource
comp onent
st orage
ver s
Ġdata base
__ )
+ '
f fi
S Y
ĠDe fault
Sub Element
fa ctor
Ġ[ (
IO S
M atch
Ġre q
t z
ĠParameter sNEWLINE
id NEWLINE
Ġa NEWLINE
pre di
qui res
Ġ utils
N T
sum mary
n i
Ġb py
ĠA ll
TI ES
pri mary
Ġf lag
ĠH TTP
ra g
pro du
row s
TL V
Ġd on
d r
p a
x E
k er
on s
12 3
o uld
g y
Ġvalue NEWLINE
me mory
se quence
---- ---
T ensor
f lag
z en
Ġen um
P L
v as
dir name
box es
ss ible
Ġ" '
con s
Th read
n an
h y
ateg ory
ne g
TI C
Ent ry
Ġme an
ĠC lose
ĠĠĠĠĠĠĠĠĠĠĠĠĠĠĠĠ ĠĠĠĠĠĠĠĠ
le ar
'} )
ag ent
Ġtype s
/ ',
. *
u ce
Str uct
V is
SE T
Ġ keep
d at
il tin
se ed
et s
Bo olean
u a
pp ing
Ġsco pe
w arn
N G
ab ility
t ab
02 4
p n
P l
Ġs w
load s
- %
Ġcor rect
Ġw ant
al pha
ab c
Ġset up
FL AGS
log ging
ĠB ase
ces sed
Ġf inal
set attr
Ġ3 0
L L
ve lo
com mit
ĠD i
men u
d le
pro tocol
Ġs im
Item s
( {'
rap per
ĠAt tribute
Ġde lete
ol ve
d c
ĠC O
u red
Ġcontain s
NEWLINENEWLINE if
en coding
S ON
ol y
cle ar
Ġp ick
Ad ded
F ilter
l ar
ĠS h
ter NEWLINE
C I
5 00
ra ises
b ro
v a
NEWLINE class
al y
Ġs uccess
al low
B O
ex c
app ing
ate rial
Ġcon f
/ %
Message Window
re set
C isco
ĠF ound
Ġc ustom
D ATA
Ġgener ate
1111 1111
Ġ vector
ĠF ile
v m
r T
Ġ ge
step s
de pth
` ,
vp n
Ġorig inal
ten ce
Imple mented
S u
Ġpl ugin
viron ment
Ġnode s
Ġg rad
Ġthe m
fi ll
zer o
at t
SI ON
(' -
ra m
V ariable
F lags
p u
Pro tocol
Ġtest s
ighb or
inter val
Ġac count
SI ZE
se gment
O ption
yn am
class methodNEWLINE
ad s
Ġe ven
Ġattribute s
Ġf ont
Ġ[ [-
g ithub
Ġa ut
rid ge
col lection
Ġt r
b i
dent ial
aaaa aaaa
Ġi p
h older
D own
ci sco
valid ate
Qu ery
train ing
Ġi prot
NEWLINE buf
gn ore
ĠA l
sy m
comp ute
Ġerror s
le x
Ġm on
con tainer
en abled
ĠĠĠĠĠĠĠĠĠĠĠĠĠĠĠĠ ĠĠĠĠĠĠĠĠĠĠĠĠĠ
z z
Ġcon vert
s uccess
c la
c lean
Ġmo dify
f b
P A
: \
ĠT o
Ġse n
ect or
cli ck
IC Ag
Ġre ference
3 74
v s
d raw
() ),
or ity
v ari
In valid
ĠWARRAN TIES
Ġd im
": "
m k
Ġby te
ok ie
Ġcomp onent
ste ad
AAAA AAAA
Ġob tain
ĠType Error
Ġ ~
Ġdef ined
cen ter
e q
me di
Policy Map
RE AD
) "
Ġdiffe rent
Me thod
(" \
b ranch
iz es
com ment
con structor
NEWLINE I
Ġf ac
C TION
e ded
il s
Ġg en
s age
Ġter ms
ren der
Ġo prot
to ol
ĠĠĠĠĠĠĠĠĠĠĠĠĠĠĠĠ ĠĠĠĠĠĠĠĠĠĠ
, "
ĠL o
s ql
Ġtrans form
A F
Ġ2 55
Ġcon v
module s
< <
t c
x C
NEWLINE print
Ġm od
Ar gs
m ulti
__ .
Ġoper ation
IT ION
ly ph
ap shot
g h
Ġcon s
Ġ ĠĠĠĠĠĠĠĠĠĠĠĠĠĠĠĠĠĠĠĠĠĠĠĠĠĠĠĠĠĠĠĠĠĠĠĠĠĠĠĠĠĠĠĠĠĠĠĠĉ
Ġ ĠĠĠĠĠĠĠĠĠĠĠĠĠĠĠĠĠĠĠĠĠĠĠĠĠĠĠĠĠĠĠĠĠĠĠĠĠĠĠĠĠĠĠĠĠĠĠĠĠĉ
Ġ ĠĠĠĠĠĠĠĠĠĠĠĠĠĠĠĠĠĠĠĠĠĠĠĠĠĠĠĠĠĠĠĠĠĠĠĠĠĠĠĠĠĠĠĠĠĠĠĠĠĠĉ
Ġ ĠĠĠĠĠĠĠĠĠĠĠĠĠĠĠĠĠĠĠĠĠĠĠĠĠĠĠĠĠĠĠĠĠĠĠĠĠĠĠĠĠĠĠĠĠĠĠĠĠĠĠĉ
pro xy
Ġre ceived
Lay er
Ġ1 9
pos it
ac c
ed ge
in x
Ġbe cause
ĠI mport
at ic
l u
output s
assert Is
Temp late
ĠClose MessageWindow
x F
() ))
Le vel
di stance
j a
/ >
) \
ul ation
12 7
Ġthe y
12 5
Ac cess
LY PD
ĉĉĉĉ ĉĉ
Ġrequest s
f etch
attr s
qu are
99 9
Ġre place
f r
y ear
DE FAULT
re lease
C S
Ġst ack
Ġme tri
un g
Ġren der
IT E
Fa ctory
Con st
it ial
L ink
w s
Ġ util
P ri
istr y
LE U
con vert
create d
D ir
G raph
Ġ ])
S ystem
am l
cp u
R ou
D F
c ar
Ġp assed
SC RIP
NE SS
Ġin cl
] *
MA X
f ac
ĠF ILE
lis hed
in clude
am ily
time stamp
Ġch unk
nt ax
un its
he x
p ing
bin ary
. '
Ġd imension
Ġimage s
n b
ĠP AR
ff ff
m un
CON ST
E num
0 33
s leep
Ġo w
Ġc ell
Ġ html
ve s
Log ger
ar r
resp on
w arning
## #
attribute s
r ank
" },
T ree
metri c
eng ine
Stat s
Ġre port
mo unt
gorith m
Val id
ĠAN D
Ġlo op
d rop
tra ce
dir s
end s
Ġpoint s
ot h
Ġs core
ch unk
he s
Ġl ater
Ġis NEWLINE
Ġf l
Ġse q
la ck
ĠF ree
ĠA pp
Ġfe atures
( **
x r
vol ume
Ġsk ip
Ġal pha
Date Time
d p
s r
D R
T ask
Ġdata NEWLINE
i li
Ġ5 0
lic it
fa ctory
1 000
E ST
cur sor
cl uster
ĠA p
In struction
al led
ent ity
l anguage
ĠCon fig
ari es
am ma
Ġp ayload
> ,
ĠI mage
fil ters
ĠP RO
C F
T A
g an
fe ed
ĠN o
Ġse ction
k a
ot o
ĠO ption
Ġset ting
sh ort
b ias
Ġse lect
Ġre p
) ])
ĠĠĠĠĠĠĠĠĠĠĠĠĠĠĠĠ ĠĠĠĠĠĠĠĠĠĠĠĠĠĠ
Ġ //
â Ģ
V er
IIIIIIII IIIIIIII
L S
W N
Ġc a
sc hed
NEWLINENEWLINENEWLINE if
Ġpy test
F loat
Ġcomp ute
way s
df mp
TH ER
ex port
Ġe mail
Ġthe se
co mb
Call back
M IN
cul ate
ho me
st derr
p x
no te
f lat
d NEWLINE
Ġe poch
Ġauth or
Ġ1 8
Ġabs olute
W e
u ation
Ġst ore
token s
ĠE X
Ġp ad
E C
B ack
ar s
L icense
sy mbol
at s
Ent ity
po se
ble m
ak es
(" %
so ft
Ġweight s
IG HT
Ġa uto
v ocab
Col umn
m ul
: **
] ):
cur acy
Ġimple ment
P HE
am o
ne cted
Ġ queue
Ġp air
St ream
or iz
Ġex c
f p
m aster
Object s
he et
Ġc fg
rT alk
ĠCh rTalk
v ing
Ġw hether
Ġuni que
)) .
P h
en ce
R C
Ġ1 7
me s
. ",
l ang
Ġtra ck
Ġe mbed
Ġs ure
li ance
} }
S cen
Con v
= {'
is hed
Loc ation
] ])
ance l
Ġ4 0
ial og
t i
1 32
O pen
, ),
ord s
Po ol
Ġpo ol
Ġw idget
pl an
o red
O K
M ock
Ġin te
ome try
ched ule
re ed
O ff
Ġ' {
Ġs ort
ass ign
app ly
spe ct
Len gth
en u
cry pt
ĠNot Implemented
for ce
UL AR
P ORT
h s
ĠĠĠĠĠĠĠĠĠĠĠĠĠĠĠĠ ĠĠĠĠĠĠĠĠĠĠĠĠĠĠĠĠĠĠĠ
Ġbe st
D S
Ġin stead
M at
A nd
Type s
sc al
in es
U I
re vision
Ġuse ful
Ġd raw
12 9
red uce
Ġa wait
A b
RO M
ix el
Ġre al
TI ME
Ġwe b
ast ype
doc s
N ew
cal led
ĠI P
SI S
ĠP er
I ter
O F
as ure
00 2
Ġcon n
in valid
Ġab out
M et
) ",
user s
cu da
en sed
f inal
W ork
11 8
av a
i con
tent ion
5 35
change d
it ude
Ġ" __
P B
Ġ" --
P S
P tr
Ġbu ffer
reg ion
Window s
ĠE n
Ġlo c
(' %
que s
al ys
si mple
) '
Ġfa iled
te ction
), '
ra ble
Ġname NEWLINE
cre t
AN G
s ur
di ms
PO ST
PO SE
Ġsh ort
c ustom
O ptions
so le
UL L
and id
ten ded
Ġass ign
Ġbase d
assertEqual s
py test
11 2
p ayload
Ġ ans
Ġpermission s
Ġtra ce
le af
D A
t ty
la p
P AR
' d
ub e
Ġm ultiple
le ted
non e
Ġme r
11 5
ume ric
Ġad ded
Ġp e
Value Error
en um
alys is
ro le
H A
AP T
re quen
Ġs ql
posit ory
w here
Ġdoes n
igr ations
ut able
ĠFound ation
ro zen
Ġdi rect
IN FO
t orch
ign ore
Ġpro b
P UT
y e
E T
' re
Ġmethod s
U M
Ġcol umns
t ick
Ġapp lic
- \
P art
11 7
Ġact ual
row ser
MP LE
Ġv ari
") ;
at om
Ġ el
b est
Ġ layout
(' <
t t
.. /
BU G
Ex p
bo ve
Ġtrans itions
up per
inst all
r al
co s
Set tings
gener ate
O UT
own er
ĠO pen
ib ility
k s
ch ain
Ġvariable s
j ust
ver bose
m c
Ġ" -
Ġi gnore
se l
Ġc lose
S o
11 0
ra ise
ĠF IT
Par ameter
um b
pi ck
Ġse lected
u f
' ",
S y
ĠE xample
Ġpre vious
Ġfor ce
Ġe very
ĠP UR
ic ro
Ġal ong
ER CHAN
val s
an o
Ġ} )
re ference
p are
co st
clo ud
x A
6 00
ERCHAN T
di cate
d river
10 5
h istory
data base
Ġfe ed
In f
O bj
CO DE
W R
G e
is s
ĠM ake
p id
AC E
Ġc lean
Ġd one
Ġw arn
me sh
g a
Ġass oci
exp and
Ġin NEWLINE
ĠPUR POSE
b eta
Ġdist ance
es ted
F ound
dump s
S ign
C G
ath er
Ġsup ported
me m
! !
du ce
line ar
14 9
p ublic
Name s
Ġsub process
Net work
ynam ic
in f
Update Instruction
ho ok
10 8
S ty
id ual
Bu ffer
ix in
co ur
Ġs imple
I X
Ġfile NEWLINE
04 8
NE T
sq rt
co unter
ERCHANT ABILITY
ĠPAR TIC
ert ifi
re mote
Ġ1 000
u k
ĠS O
Ġ_ ,
Ġwrit ing
Ġb it
Ġf lags
Ġp red
ĠPARTIC ULAR
ĠB A
LO CK
fa ke
N C
Ġs ig
Ġs n
log y
feren ces
R ange
pre c
j s
li ck
UT H
FILE NAME
Ġt ri
ĠFIT NESS
19 2
ĠK IND
f alse
Ġexist ing
E V
D ialog
Ġinst all
Ġth rough
variable s
pt r
ĠP O
Ġa bove
sco res
Ġtag s
Trans ition
Ch ild
8 35
Ġcom mon
Ġstat ic
ĠT ime
par ts
Ġc lo
Ġpo ssible
Ġ ))
ĠF unction
Ġpro duct
do uble
11 6
Ġh ow
D C
ci ent
Ser ial
th reshold
entic ation
ĠB o
13 7
x FE
T S
Ġi ss
oper ator
N BC
P ER
Ġse nt
Ġm ulti
Ġmo ve
Ġw ait
se ns
S APT
b c
Boolean Field
u ally
ĠU p
st im
g reg
Ġex pression
state s
return s
M y
Ġf ig
Ch r
te ri
---- -
gener ator
sing le
ame ra
Ġ{ },
R A
Ġdocument ation
Return s
Ġurl lib
Ġbot h
pri ce
ase s
Ġed ge
se lected
orig inal
code d
ĠĠĠĠĠĠĠĠĠĠĠĠĠĠĠĠ ĠĠĠĠĠĠĠĠĠĠĠĠ
Ġ2 5
d m
ĠAp ache
w x
o ols
/ '
11 4
ĠL ic
sp ath
W S
DE SCRIP
Ġgener ated
', ),
l ation
. )
re c
Ġfunction s
D eta
Ġbin ary
le arn
App lication
Ġre verse
Ġcl uster
name d
13 0
Ġlo ok
: '
Ġrel ative
un ch
par ameter
CO L
ertifi cate
i od
opt s
or ter
ĠIn c
Arg ument
Ġc types
Ġg rid
f name
se ries
re po
"> <
Ġo ur
Ġrun ning
ĠNotImplemented Error
st or
Ġex it
ĠN um
FFFF FFFF
_ )
ch or
sign al
Ġr ate
]\ |
m ar
) +
ĠUn known
> "
Ġmis sing
G lobal
u ded
plot lib
Ġoutput s
WA RE
A v
check point
Ġdis able
Ġfor ward
t tp
c ut
st age
assert False
NE R
Ġex ists
M IT
ĠN OT
sched ule
MO DE
xt ure
ĠH e
Ġ 65
pro ps
C l
Ġp lace
N s
av g
se g
Ġme mory
af ter
Auto Field
block s
len d
Ġattr s
Ġp k
peri ment
Ġcl asses
V M
f req
a ff
z y
up lic
ap ter
la in
t w
T arget
ut or
d n
Ġapp lication
( %
FOR M
10 4
Ġbu f
ĠM ERCHANTABILITY
' m
Ġpro tocol
Ġcor respon
Ġh and
sh ared
"] .
P Y
US ER
are a
C U
Ġin valid
---------------------------------------------------------------- --------
Re cord
Ġ mp
W ORD
} '.
a il
se cond
Ġ- =
Ġs m
Ġpat tern
1 99
cur s
Ġserial ized
serial ize
ran sport
12 6
Ġcur sor
down load
ma g
D ist
ĠU se
Ġd ay
Ġ] ))
00 4
S N
Ġarg parse
Ġcom ment
sa fe
arg in
29 5
Ġx range
ress ion
b ad
Ġas ync
per s
Ġcon nect
T unnel
Ġf n
ĠQt Gui
Ġde sc
B ar
N K
F B
y dk
d l
ifi ed
cl us
Ġz ero
Ġsign al
12 4
Ġ{} ),
u ted
>> >>
Ġse ss
Ġat NEWLINE
event s
Ġre mote
I dent
Be gin
pl atform
ĠA uth
LE CT
quest ion
Ġv oid
x B
uff le
ĠB R
D T
O ne
Ġb ar
01 2
ap ache
ten er
se conds
RE S
option al
Ġelement s
13 5
arch ive
Ġ1 80
ch i
Ġ[ ])
ĠLic ensed
Test s
bu cket
pi x
16 8
Ġvalid ate
ĠTest Item
D ITION
Ġe qual
Widget s
k o
r p
ĠWARRAN TY
######## ####
Des cription
') ],
} ".
igr ation
Ġset Up
ari o
ter m
ĠT h
Ġuser name
Ġapplic able
fa st
ĠH T
sp ose
url s
10 9
[: -
ĠL E
m as
Ġent ity
M I
z a
Ġint NEWLINE
a ctor
g u
T op
and s
Ġthe ir
S cale
c n
ĠL og
A U
Ġs chema
Ġmessage s
O pt
00 6
R ule
ype s
C ache
14 4
s ure
M ac
NEWLINE b
sc ene
li ter
Ġtensor flow
14 5
ĠImport Error
Ġact ive
u ate
initial izer
Ġp op
Ġd t
Ġde pth
process ing
M enu
Ġg over
2 19
distri bute
ur ing
te ct
U t
il la
cor rect
Ġf older
Ġcontain er
| \
Re ference
Ġb utton
T F
Ġ{} ".
FI G
ĠReturn sNEWLINE
I F
Ġ" _
en o
? ?
Ġro t
* (
ĠA s
Man y
b f
: ',
l st
es c
AR G
14 6
; ;
Ġpro vide
0 32
Ġ1 0000
sc reen
u ch
ur al
set terNEWLINE
'' ':
Ġf p
__ ":
Pack et
ad ing
Ġst ri
inter n
Ġag ain
Ġf alse
dential s
Ġpath s
201 7
const ant
Ġstr ings
ĠD o
Pro file
L R
Ġpro perties
Ġde c
requen cy
_ %
Ġh idden
([ ])
rig ger
ĠKey Error
Ġr ad
in teger
11 1
and as
pi pe
Ġsy sNEWLINEimport
Ġtoken s
e m
cre en
Ch annel
r m
tra ct
Ġin dices
Ġs ix
ation al
Ġbe ing
ou se
Ġspeci fy
Ġex press
Ġ' ')
our se
2 02
argument s
Ġw ar
ĠHT ML
Ġrow s
/ {
E P
ort h
view s
Ġ -------
p layer
Ġapp ly
ĠV al
res sed
il ar
Ġpub lished
col ors
ĠM O
fir m
ma pping
C R
as se
e lif
lo ts
NEWLINE if
Or der
fi c
ĠPo int
r atio
x FF
amo unt
ap er
Ġvalue NEWLINENEWLINE
Ġcomp liance
([ [
Ġfin ally
00 8
t le
ar ange
Ġcontinue NEWLINENEWLINE
ren cy
Ġno te
ro py
D el
Ġt w
Ġf ill
b asic
x i
Ġco ordin
e ve
Ġw ay
Ġwh at
Ġdi ff
ĠB y
Ġse par
Ġ1 44
S k
Inf op
ICAg ICAg
pre dict
00 5
V ector
] =
Ġassoci ated
T C
Ġby NEWLINE
4 04
DD DD
tem s
gp u
Ġpro file
back end
Ġpack et
H ost
Ġp atch
qu ent
time s
00 3
Ġs ince
Ġne g
Ġcho ices
ch ine
re ader
() .__
sup port
pol y
mb ers
Ġreg ion
ĠN ode
Ġ> >
s lice
Ġn orm
me dia
Ġw ho
size NEWLINE
b al
} \
U U
Ġ1 36
h igh
ĠM odel
Ġs pe
A E
r as
2 03
exception s
j or
cho ices
p ted
Ġpre sent
el y
ren ce
cate n
Ġf oo
Ġ2 3
Ġother wise
C RE
=' ',
pro c
plo y
A V
Ġap pro
en coder
DateTime Field
Ġsu ch
Ġdistri bution
E xt
ist ics
X ML
M ixin
peri od
sh ift
h i
ci p
S w
DITION S
con tain
Loc al
e a
ĠV ariable
il ities
Ġla w
11 9
oriz ont
Ġ lin
02 5
B it
av ailable
comple te
set ting
Py thon
Ġgover ning
sh a
S V
n x
is ode
Type Error
I R
LO G
g i
Ġal ign
) (
penden cies
00 9
@ @
M on
comp at
D U
Un i
w b
Ġ1 35
1 77
ik i
cour se
Ġstd out
Ġfa ctor
Ġf ace
2 35
test ing
ci py
de lay
Ġfor NEWLINE
Ġ join
Ġ" ",
ad o
U se
om atic
Ġ license
en able
S ide
Ġtime stamp
Ġ ĠĠĠĠĠĠĠĠĠĠĠĠĠĠĠĠĠĠĠĠĠĠĠĠĠĠĠĠĠĠĠĠĠĠĠĠĠĠĠĠĠĠĠĠĠĠĠĠĠĠĠĠĉ
Ġ ĠĠĠĠĠĠĠĠĠĠĠĠĠĠĠĠĠĠĠĠĠĠĠĠĠĠĠĠĠĠĠĠĠĠĠĠĠĠĠĠĠĠĠĠĠĠĠĠĠĠĠĠĠĉ
Ġ ĠĠĠĠĠĠĠĠĠĠĠĠĠĠĠĠĠĠĠĠĠĠĠĠĠĠĠĠĠĠĠĠĠĠĠĠĠĠĠĠĠĠĠĠĠĠĠĠĠĠĠĠĠĠĉ
Ġ ĠĠĠĠĠĠĠĠĠĠĠĠĠĠĠĠĠĠĠĠĠĠĠĠĠĠĠĠĠĠĠĠĠĠĠĠĠĠĠĠĠĠĠĠĠĠĠĠĠĠĠĠĠĠĠĉ
B atch
ca de
ĠCON DITIONS
st ar
Ġbe NEWLINE
I E
re gex
Ġstring NEWLINE
d ings
Ġc annot
' ^
Ġh igh
Ġ1 32
r d
te cted
Par ameters
in v
Ġint NEWLINENEWLINE
li te
get Logger
V ar
f ree
ĠBA SIS
& &
se p
Ġstat s
ute s
trans late
b d
e g
Ġpick le
, )
12 34
Ed it
') ]
DESCRIP TOR
so me
4 29
ĠUn i
ON G
ĠD is
P U
J o
V rf
ut ing
Ġcollection s
un der
form s
po wer
() ]
u dio
ĠNum ber
NEWLINE C
Ġwith in
`` .
se cret
col s
ĠO ut
b at
b g
Ġ1 38
ĠD O
ab spath
} .
Ġco uld
link s
12 0
Ġpar sed
88 34
c nt
d one
ĠB u
=[ ],
Ġ1 34
Ġag reed
Ac count
Ġe q
ĠT rans
h and
03 9
Ġs ide
ul ate
10 6
def ined
W idth
RE QU
und le
W E
Ġv olume
S to
D ocument
++ ++
jo int
bo olean
g ui
Un it
un ct
---- --
metri cs
d ropout
Ġdown load
CON T
yn ch
sup er
Act ive
Sty le
ue s
qu ote
Ġlib rary
'] ),
Ġ1 33
FT WARE
TY R
le v
Ġallow ed
per form
ther net
re es
dle ware
pe at
//////// ////////
Ġc y
I H
Ġw ould
s in
content s
ĠS ub
STR ING
bu iltin
(" /
N ormal
Ġt yp
1 88
Ġ8 0
m ut
Ġ1 39
B R
ĠB E
orizont al
or n
13 9
Ġ< <
Ġi pv
po inter
O p
t te
Ġg ame
Ġdel ta
W eb
for ward
Ġ1 29
scri be
a h
Ġm apping
ĠT ext
b ed
ha vi
Ġword s
A X
____ ____
() ):
m ol
Ġ: ,
l int
target s
78 9
EE EE
ler t
G T
Ġsy mbol
ĠOption al
lo okup
pre v
iv ity
resource s
18 0
ĠUn less
(' .
Ġbl ank
Ġ{} '.
distri bution
Ġ2 8
Ġ 75
S U
Ġc ategory
x D
Ġident ifier
Ġen vironment
li er
D ING
+ "
13 4
pl t
B P
Ġde termin
15 3
end swith
mer ge
A li
NEWLINE except
pro vider
V IC
t ion
rel ation
ST ATE
ques ted
Ġre distribute
Attribute s
Ġm igrations
Ġre tri
w riter
13 6
b box
c ss
C D
ter ns
s ch
\ '
04 3
Ġo c
ar se
Ġp ixel
vo ke
__ .__
201 8
ĠA c
ĠF ield
Cur rent
ser ve
n r
age ment
10 3
V O
) -
Ġ1 45
Ġse conds
intern al
b reak
ER S
Ġs age
res ses
d st
Ġpro p
NEWLINE s
cli p
en der
Ġ video
)) ))
Ġ## #
r ing
Ġout file
s ync
E CT
Ġ2 2
Se arch
N j
Ġs pec
02 9
un pack
5 09
C ATION
Qt Core
S up
Ġne eded
15 7
11 3
es cription
O ver
W arning
e qu
on d
C B
k ind
p us
as ync
Ġ4 2
Ġho pe
Ġpo licy
ĠO S
mon th
LA SS
Q ueue
lo aded
a de
VER SION
Ġf it
y NEWLINE
k i
ext ract
jo bs
pro cessed
Pro xy
12 2
Ġc ap
Ġw in
ĠW hen
"} ),
se ss
M sg
ran ty
o v
Ġkey word
Ġoper ator
cho ice
ra ys
h at
Pl ugin
G N
de tail
Ġ" :
Ġmax imum
Ġ14 07
64 7
ĠR a
Ġk w
Ġpython NEWLINE
'] ))
Ġto ol
fl ush
Off set
Ġactiv ation
M AP
Con tainer
E mpty
G F
ĠA R
Ġuse s
LO W
de g
( ('
S imple
Ġoptional NEWLINE
Ġpl atform
opt im
I p
Change d
je ction
> '},
E L
l b
Ġcon ver
Ġ art
Ġwar ranty
Ġ1 08
P T
: ,
Ġre set
ĠF ROM
(" --
reg is
M C
Ġ 77
NO T
Ġre pr
g on
Ġbe gin
ĠIn put
_ {
S L
Ġsoftware NEWLINE
Ġs cal
Ġ1 50
Property Meta
Ġobject NEWLINE
C LU
s d
p ush
Ġsample s
be fore
Ġopt imizer
r ong
DE BUG
10 7
ĠSO FTWARE
Type Id
control ler
Ġ1 37
au ss
Ġhe l
Ġme nu
"" ",
Ġi o
Ġb ias
Ġver ify
mp t
d ummy
CP U
y m
Ġpre v
ĠJ SON
i i
embed ding
> :
Ġst andard
t ic
p df
Ġex port
fer red
Ġopt im
per son
To ol
sc pexpr
Ġ' )
Ġ layers
Ġcond itions
e ffect
place holder
P e
re verse
Ġ 78
in dent
15 0
alle l
ĠS T
Pos ition
00000000 00000000
LI ST
Ġsu bject
Ġme mber
R ow
15 9
const raint
Ġk ind
Ġre ason
Reg ister
r pc
Ġper form
e v
ynch ron
t ile
m ult
Ġi con
be gin
vo ice
an ded
Ġ2 56
ro y
element s
al ias
wh ite
14 1
Ġc enter
is tent
H o
Ġpro xy
ax es
Ġper son
Ġde v
{ "
ĠQ u
pro gress
N A
| '
] {
Ġp ol
Comp onent
ac ity
fo und
f mt
Ġwarn ings
se lection
Ġhe ad
A f
le arning
R I
l c
ist ic
Ġse ed
di men
ann er
04 5
3 75
Fa iled
s ock
ra ck
er as
Ġat om
Ġ 79
Ġli s
Ġ1 46
Ġ( %
bo ot
k l
ĠW indow
At tr
OR S
il t
Param s
base name
ateg y
ĠAr g
04 9
Ġgo ogle
W rite
E p
e mb
v n
AR T
* .
ct ure
er ature
Ġuser s
Ġmat plotlib
ĠAttribute Error
Ġs q
Ġ1 49
que e
b its
CON FIG
Ġnp NEWLINEimport
cl ar
Ġch ain
Ġ3 1
ate way
pri vate
f rozen
ile r
Ġre lated
Q P
' +
374 8834
dimen sion
ident ifier
g f
cre ment
Ġal ways
Ġp r
h n
su ffix
Ġ1 30
P ass
NEWLINE parser
15 5
Ġ1 48
prec ated
sc an
Ġexec ute
Ġg t
ver ify
Se quence
Ġ1 40
ĠG e
M N
j u
STAT US
g no
Ġgener ator
; -
de tails
t b
$ ',
Trans ient
g c
15 2
Ġmetri c
N ING
ĠT Type
Ġevent s
ĠCol umn
ss l
09 6
I mp
Ġ_ ("
14 7
Node s
sc ape
U SE
') [
ward s
4 19
== =
mis sing
Ġe ps
il on
18 9
F low
b ig
Ġadd r
H andle
ng ine
ĠRe quest
ĠE vent
ĠIn dex
ER E
Ġin dent
Ġ1407 3748834
d x
O D
], [
te am
g E
esc ape
S um
RE D
Ġr v
w Y
mb ols
Ġs hell
Ġg lyph
Ad min
AR Y
a o
O L
Ġlo wer
De lete
Ġext ract
00 7
an on
ĠT H
Ġ Error
ra ction
Ġself NEWLINE
14 8
m ing
~~~~ ~~~~
al i
ag ic
Ġde p
e ff
t ar
Ġ5 9
Ġupdate d
Ġre st
: -
valid ation
'] "}),
Ġ1 01
B in
task s
>> >
Ġlo ck
6666 6666
LA Y
ĠUp date
opt imizer
PB ED
G C
ĠSet Chr
Ġan not
re v
Ġag ent
day s
s id
orig in
Ġopt s
gra de
Ġcomp at
h ar
Ġ 74
Ġst orage
03 5
v r
) ')
ĠS E
ce i
Ġpart s
dec ay
Ġ 00
Ġ1 31
d uration
is ted
Ġstruct ure
Ġ1 16
Ġ 68
Ġc pp
ĠN et
ifi c
Ġcomple te
default s
Ġvi a
log its
02 2
C re
Ġp ipe
R el
per cent
1 64
Ġan other
Ġ2 9
: ])
13 8
y a
Ġ 66
06 9
Ġcharac ter
un e
Ġc op
ud o
den ce
Ġed it
F ont
Ġcopy right
s z
Ġu nt
al g
assert In
77 77
A x
tran spose
b lob
S QL
c ing
03 7
(' _
an de
count s
us age
u v
18 5
Ġi ds
end point
u ous
.... ....
R andom
ar is
ĠLicense NEWLINE
ust o
, \
Ġl ate
Ġback end
Ġb ranch
re ctor
03 8
pack et
S ocket
command s
Ġent ries
Text Field
Ġchange d
h ist
N ative
TT ER
sor ted
01 8
amp ling
qu ant
pk g
CE SS
ĠD B
W I
Ġbox es
ri ft
Bu ild
Par se
E M
**************** ****************
gn u
Ġnot ice
ces ses
ep s
"] :
C ID
untime Error
Ġsign ature
ed ges
mit ted
r v
Ġfil ters
W AR
Ġ_ ('
Ġ1 15
sh are
Y ou
lo or
Ġcorrespon ding
Ġmer ge
ar ge
mo s
Ġf low
ĠT emp
unk nown
Ġcontent s
termin al
ĠM ock
frame s
Ġ1 47
Ġc ms
su bject
Ġad min
Ġvalid ation
1 0000
\$ \$
h our
di rection
Ġ" {
z illa
Ġex pect
0 64
Ġc sv
serv ation
Ġadd itional
Ġ[ ['
up load
ĠA d
config uration
Ġto o
plugin s
ALI D
Ġn d
Ġmo st
Pre fix
: .
Ġ1 59
ch a
ĠF L
ph inx
ĠT ensor
E xec
N orm
Ġb box
Pro gram
Ġ# <
ud ing
quee ze
ue st
Ġsh util
IT Y
fe at
Lo ad
Ġlist NEWLINE
de p
Ġ1 60
ad cast
Ġgroup s
p ay
') (
- >
ur face
ci o
02 8
c ert
ĠB e
bind ing
> '],
b us
el ts
v or
ou gh
train ed
Ġle t
SE LECT
"" )
Ġd st
01 6
DE D
, ))
Ġ( ['
Ġh ref
co me
Ġ1 20
Ġde ri
]) .
Ġs ite
andid ate
C an
Field Descriptor
re quire
F D
R ect
Ġse gment
ĠP ath
02 3
O w
14 3
Ġu int
ĠVal id
Ġro und
nd array
penden cy
Ġ1 58
Ġdi vision
Ġ1 23
ident ity
05 9
Ġv ocab
Ġ3 6
Ġ1 41
ac cept
In formation
o bs
Tra ck
Ġth reshold
B z
u dent
in i
ĠP re
" +
_ ):
ci d
vol ution
Ġc lear
ex ist
24 7
Pro ject
16 9
22 2
p adding
run ning
22 7
H ash
Ġre ader
h r
s ame
scal ar
top ic
O M
Ġt ab
Ġd at
25 0
map s
t od
S pec
Ġen g
re a
res ize
ĠM y
S chema
Se lect
ĠLE TTER
Ġmat ches
Ġ1 42
Ġchange s
Ġ vert
Ġ1 63
Ġtime s
Ġa mount
Ġpy xb
ho u
05 8
Ġpri mary
n y
R ate
f time
Ġdi rection
P N
Ġ" [
Ġ* (
a res
Ġman y
ci al
ch an
Ġro le
Ġsu ffix
U rl
B Y
Ġw rap
Mat rix
16 6
Ġdefault s
Bu ilder
f un
Re move
Ġac c
ĠI O
> ')
Ġ1 55
Ġsum mary
comple x
Ġin v
o om
C al
C LASS
tri g
quen ces
bl ue
bot tom
sp arse
ĠO bject
4 01
F N
l and
Config uration
w i
con cat
lo ud
co ver
Ġ 69
ĠG roup
Ġover ride
service s
H BC
Col lection
ex pression
me th
05 5
ĠL e
Ġro ute
Rou te
Ġme ans
Ġend point
k it
ĠV Base
Ġpy lint
= {}
Ġco re
i ed
Ġfa ke
Ġt ake
de rer
i ted
Ġc at
02 6
15 8
M ulti
16 0
s b
Ġp ut
Ġ --------------------------------
g z
Ġt m
s ses
15 6
che my
Ġ1 14
Ġin sert
if est
A UTH
Ġsh ared
host name
Ġ1 12
) }
Ġp ublic
ĠO THER
Ġ2 6
neg ative
(" -
CH AR
sw itch
ance stor
f ang
de coder
tran sport
Ġit NEWLINE
), (
Ġinter val
R IGHT
bu ilder
Ġse lection
Ġbe low
ĠArg ument
m ir
at tach
Ġre lease
Ġa st
it al
add Widget
av ing
Lo ader
17 9
is o
En abled
15 4
di g
Ġneed s
Ġs cipy
ne ighbor
S ample
um an
file path
iz ers
','',' ','','
F G
Ġre quire
AD D
' "
l v
Ġre quires
L ib
08 9
) ?
Ġ1 19
A ss
AC T
Ġr ank
Ġun its
& #
Ġ3 00
S W
Ġ: ]
g ments
e le
Ġname d
A I
con tact
G o
HE AD
ad apt
te l
( ["
sp f
f ab
Ġ2 1
ĠQ ueue
in ner
P H
Ġy ear
02 7
code s
l on
ive s
m x
03 4
Ex tension
16 5
en ch
S R
Ġ3 5
Ġen able
component s
at us
on ce
Ġe qu
Ġimplement ation
Ġ 99
(" <
b gp
NU M
oper ation
update d
ĠIn ter
ef fi
ab ilities
ong o
Ġ ####
Ġg ot
p d
32 9
ic ast
Ġ1 61
2 34
cond ition
Do main
L ast
w orld
ateg or
T rain
ĠC ode
Ġcommand s
xs d
lib rary
Ġinstance s
py xb
Value s
Ġg l
================================ ================================
:` ~
ri tems
M ark
b and
Ġp andas
Ġb ad
Ġ1 43
Ġoper ations
n c
Ġcal cul
ĠĠĠĠĠĠĠĠĠĠĠĠĠĠĠĠ ĠĠĠĠĠĠĠĠĠĠĠĠĠĠĠĠĠĠ
fa iled
Ġter m
BA SE
17 8
`` ,
uni form
Ġ5 8
Co mple
ten s
Ġ' +
cate gor
ĠF IL
M ask
out file
Ġbo olean
pos itive
Ġper iod
Ġb ind
ak elts
04 4
di ag
hel lo
Ġm id
grad ient
Ġw rapper
Ġbu cket
Pro vider
Ġchar s
Ġl r
Ġf lat
ro uter
Ġco unter
Ġstr NEWLINENEWLINE
ite ritems
tr l
Ġbreak NEWLINENEWLINE
201 6
h ot
Ġ1 66
Ġdef inition
Ġlimit ations
17 5
s heet
01 0
Ġspeci al
Ġ[' _
Ġ3 4
ir d
t wo
== '
- <
M ain
Ġin ternal
Ġ4 00
In st
Hel per
rad ius
3 77
Ġu sage
Ġ{' <
trans action
S G
Ġ1 56
V ALID
d y
} '
Ġac cept
65 5
dis k
Ġd rop
d de
ĠR un
Oper ation
spe ed
Ġ ?
Ġthread ing
re cv
P P
ent ries
ci rc
Ġtarget s
/ (
Ġ1 62
d h
Ġre served
L im
On ly
package s
ul a
usto mer
se e
Ġbool NEWLINE
Ġex pr
Ġ1 64
aaaaaaaa aaaaaaaa
17 4
ale tte
RE G
- (
07 8
ĠĠĠĠĠĠĠĠĠĠĠĠĠĠĠĠ ĠĠĠĠĠĠĠĠĠĠĠĠĠĠĠĠĠ
Ġme sh
W rapper
ight s
Ġ1 54
Ġ ĠĠĠĠĠĠĠĠĠĠĠĠĠĠĠĠĠĠĠĠĠĠĠĠĠĠĠĠĠĠĠĠĠĠĠĠĠĠĠĠĠĠĠĠĠĠĠĠĠĠĠĠĠĠĠĠĉ
Ġ ĠĠĠĠĠĠĠĠĠĠĠĠĠĠĠĠĠĠĠĠĠĠĠĠĠĠĠĠĠĠĠĠĠĠĠĠĠĠĠĠĠĠĠĠĠĠĠĠĠĠĠĠĠĠĠĠĠĉ
Ġ ĠĠĠĠĠĠĠĠĠĠĠĠĠĠĠĠĠĠĠĠĠĠĠĠĠĠĠĠĠĠĠĠĠĠĠĠĠĠĠĠĠĠĠĠĠĠĠĠĠĠĠĠĠĠĠĠĠĠĉ
Ġ ĠĠĠĠĠĠĠĠĠĠĠĠĠĠĠĠĠĠĠĠĠĠĠĠĠĠĠĠĠĠĠĠĠĠĠĠĠĠĠĠĠĠĠĠĠĠĠĠĠĠĠĠĠĠĠĠĠĠĠĉ
201 3
ĠI MP
Ġwe re
Un known
Ġw arning
con t
pe er
0 66
ĠFIL TER
t m
sl ug
pen dent
Ġsco res
Ġthis NEWLINE
Ġe stim
for mer
01 5
> =
Ġ5 00
U RE
ĠG L
pl s
Ġ1 52
Ġle arning
22 4
M is
Data set
}, '
Gener ator
Ġ1 65
p in
Ġco st
OR Y
can vas
cor ator
A SE
back ground
Ġ3 8
05 6
ĠIn itial
Ġen sure
Ġ1 51
mo oth
f amily
Ġconst raint
Ġ' [
Ġd ump
est im
In itial
Ġstate s
Ġf ix
RE CT
: {
ĠG o
17 6
ock er
j pg
ren gth
gno red
MB J
wrap per
value NEWLINE
Z W
al th
al most
uplic ate
ful ly
s hell
Ġm x
mo dified
li sion
Ġcond ition
06 8
t or
P BE
Ġcal lable
Ġ2 7
caten ate
HH H
str ument
Ġ1 53
01 9
ir t
Ġ9 0
Ġp layer
X Y
Ġextension s
] ["
ĉĉĉĉ ĉĉĉ
22 3
lo ur
Ġ1 57
Control ler
Ġdec ay
FI X
Ġ-- *
By tes
Ġf etch
s queeze
Ġn b
ifi ers
ex ternal
Ġb eta
Ġt ick
m n
Ġlo w
S tack
Ġ1 07
S c
HO ST
sign ature
m ot
P r
Ġcharac ters
03 6
example s
li d
G rid
co ords
Des c
rule s
ma z
Ġst ored
Ġaction s
>', '
} /
Ġen abled
Sto re
e ch
Ġright s
di an
; \
M i
q t
Met adata
pt s
Ġaut omatic
Ġd uring
St orage
Ġ1 04
r um
m or
Ġal gorithm
pix el
HT ML
S cript
Ġc m
Qt Gui
P rint
ad ded
ĠC al
US H
CC CC
s quare
h ing
de ep
ĉ Ġ
Ġpro gress
vent ory
ro s
Ġre po
Ġ4 8
Ġorig in
re quires
Ġre main
l n
reg ular
x NEWLINE
ĠRe g
ĠC lass
0 77
Ġs chedule
Ġg lob
as te
ĠL anguage
or ary
S K
it ter
Ġ1 68
instance s
11111111 11111111
%% %%
P SP
Ġst derr
y y
Ġ1 27
Ġk eras
Ġ' {}
Re ader
key word
s f
du ction
Ġ1 11
r n
Iter ator
un gs
Ġa verage
vi e
Ġu id
S peci
] ',
Ġl on
} ',
m ultip
lend ar
vis ible
ĠF orm
Ġ" )
e lem
process or
VAL UE
Ġse ns
reg istry
Ġc ourse
Ġe p
ex clude
havi or
request s
reate r
te rable
u z
======== ====
v c
49 67
CO MM
Ġle ast
Ġs lice
Ġ' "
T itle
i j
ĠĠĠĠĠĠĠĠĠĠĠĠĠĠĠĠ ĠĠĠĠĠĠĠĠĠĠĠĠĠĠĠĠĠĠĠĠĠĠĠ
Ġp oly
medi ate
p anel
UT E
Node Id
qual ity
Dis play
LI NEW
05 4
Ġe tc
2 39
ĠJ ump
ip ment
back up
rand int
Ġgrad ient
Ġunt il
Ġtest ing
Ġ1 86
08 5
Ġm aster
ry pt
g amma
b as
cess ary
ighb ors
NEW LINEW
se curity
ĠQt Widgets
ĠWindow s
2 25
Ġtrace back
Ġconst ant
Ġmodule s
Ġf ast
se par
Ġax es
ce d
struct ure
effi cient
Ġmethod NEWLINE
work er
N ext
Ġman ager
L C
P ower
ĠL oc
o le
Sh ow
fi xture
og raph
b ile
B gp
XX XX
18 4
b order
P at
v t
c ross
quent ial
ĠOut put
regis ters
Ġf d
ly NEWLINE
ĠS peci
Ġow ner
---------------- --------
0 65
Fe ature
Ġdo uble
ĠO N
F h
01 7
= ',
G P
as array
ĠJ c
AT ED
Ġ1 17
99 8
ĠH ttp
con nected
d z
ĠX ML
38 4
ph ase
Ġ1 67
as y
A Q
ant i
89 7
y aml
II I
port s
pre sen
22 9
RO UP
Ġ1 74
ĠRe move
2 04
Ġmo difi
L ONG
Transient PolicyMap
di alog
N V
is file
I mport
Ġare a
Ġre direct
22 8
la ces
str ings
r ush
NEWLINE B
p m
IP E
ĠMe ssage
Ġapp end
= \"
Ġeng ine
G LU
07 9
16 3
r gb
C ho
Ġincl uded
01 4
xx xx
RE SS
LI NK
, ,
ut c
Ġ1 69
. %
age d
2 64
/ "
Ġass ume
Ġt s
88 8
201 5
Ġ ur
MP L
? \
her it
ron t
Ġ& ',
CH E
se ek
H B
Ġchild ren
C ell
rector ies
Not Found
not ify
produ ces
Ġu uid
ĠE V
cy cle
p ly
Ġ LICENSE
Py Side
T EXT
Ġ1 77
Ġreg ular
Ġm ac
call s
Ġ{} )
J s
ĠW H
time r
} {
z Y
Ġrepresent ation
Ġ1 75
part ition
22 22
AT TR
m us
Z X
12 1
I V
18 6
al loc
C ap
W ID
D Q
( ~
Ġ4 5
data NEWLINE
man y
Lo ss
over ride
page s
Ġ" +
Ġfa ctory
AT CH
the ta
M id
sn apshot
Ġ1 79
no ise
Ġpre tty
Ġtrans action
ĠR untimeError
) {
S tep
' %
pro gram
Ġ angle
Ke ys
Ġh y
Ġlog in
epoch s
ri ve
02 0
I i
mg mt
07 5
201 4
25 3
3333 3333
Check er
Ġst ill
mun ic
G H
Ġre stri
Ġ1 10
const ants
FI NE
Ġar r
ĠD ate
Ġcon structor
S ave
pe t
name NEWLINENEWLINE
24 0
Ġ' @
L is
Le ft
ac curacy
Ġcom mit
sp h
Ġt ran
F S
Sh ape
[ (
read s
al ity
for med
er ies
P arent
Ġw riter
St op
template s
09 8
istr ation
J ob
Ġat temp
tri p
d om
ĠLO G
Ġ ve
Instance s
an im
Ġresult NEWLINE
ans wer
Ġp i
B l
Ġfor ms
14 2
Ġg ra
Data Frame
get attr
05 7
Ġp lay
au dio
Ġs creen
[: ]
'] ",
Ġremove d
Id s
Ġ5 6
Ġglyph s
U D
201 9
function s
B ind
re ason
06 2
ed NEWLINE
P a
102 4
Ġ1 85
Se lection
S a
VIC E
l ug
C or
M h
a lf
all close
29 4
W OR
app s
Ġre gex
f A
set Text
:` .
Ġen coder
Ġsave d
AN CE
m q
t u
ĠM an
32 8
Ġre ct
Ġ1 78
Ġ4 9
Ġt x
ph p
Ġ5 1
2 000
Ġback ground
Ġf name
di gest
b et
s li
} "
ut down
NN P
Ġow n
24 3
CLU DING
ol ds
Ġ uri
N ote
c rop
co okie
Ġpro blem
n l
ĠOn ly
T P
04 6
HHHHHHHHHHHHHHHH HHHHHHHHHHHHHHHH
Ġc r
and by
b os
b ra
Ġ1 09
handler s
Ġ6 3
yn cio
ĠN e
Ġe ffect
u pt
- +
si red
He ight
CO UN
ide o
ĠC ur
FI CATION
G A
19 5
stri de
om ial
Ġ1 25
08 0
G V
Ġd ot
Ġ ĠĠĠĠĠĠĠĠĠĠĠĠĠĠĠĠĠĠĠĠĠĠĠĠĠĠĠĠĠĠĠĠĠĠĠĠĠĠĠĠĠĠĠĠĠĠĠĠĠĠĠĠĠĠĠĠĠĠĠĠĉ
Ġ ĠĠĠĠĠĠĠĠĠĠĠĠĠĠĠĠĠĠĠĠĠĠĠĠĠĠĠĠĠĠĠĠĠĠĠĠĠĠĠĠĠĠĠĠĠĠĠĠĠĠĠĠĠĠĠĠĠĠĠĠĠĉ
Ġ ĠĠĠĠĠĠĠĠĠĠĠĠĠĠĠĠĠĠĠĠĠĠĠĠĠĠĠĠĠĠĠĠĠĠĠĠĠĠĠĠĠĠĠĠĠĠĠĠĠĠĠĠĠĠĠĠĠĠĠĠĠĠĉ
Ġ ĠĠĠĠĠĠĠĠĠĠĠĠĠĠĠĠĠĠĠĠĠĠĠĠĠĠĠĠĠĠĠĠĠĠĠĠĠĠĠĠĠĠĠĠĠĠĠĠĠĠĠĠĠĠĠĠĠĠĠĠĠĠĠĉ
in et
Ġ# :
: "
S n
ĠRe ad
03 0
Ġb ro
fix ed
en c
AG ES
Ġth ose
Ġ5 4
co gn
Ġpk g
Ġiss ue
ĠFL AGS
Ġdis k
07 6
Ġlo okup
Ġk now
y list
19 8
Line ar
'] ]
14 0
get her
Ġmodify NEWLINE
y es
Ġe lem
I con
07 4
s lot
( """
65 6
Ġse ries
s izes
ĠD ocument
ĠU SE
Ġ1 76
a verage
leaf s
Ġ1 24
sig ma
bro cade
sh ould
w all
ĠAn y
normal ize
ĠH O
ci pe
t an
Ġf uture
Ġm u
Ġfloat NEWLINE
Ġdef ine
N ULL
local host
Ġthat NEWLINE
ĠMo PropertyMeta
r nn
4967 295
ma jor
By te
dis patch
Ġi gnored
Ġdest ination
late st
G U
NEWLINE for
> .
64 9
F Y
Ġde code
Ġlink s
09 3
35 6
Ġv ol
Ġ1 89
a j
aw n
sa pt
Ġm ight
te le
c mp
Ġcurrent ly
Ġ1 88
Ġchannel s
Ġstep s
Ġ1 02
[ ^
ĠCom mand
Ġsen tence
44 44
Ġnumber s
iv ely
T ABLE
init y
Ag ent
Ġmatch ing
04 7
"] [
am b
T ab
the me
Ġw ell
TR Y
05 2
Ġ( _
v id
[ \
Ġbot tom
co ord
Ġin dic
b lack
ĠWIT H
me t
Ġb order
Ġcheck point
Ġ1 84
W H
qu ot
Ġ 88
sp i
ĠDi ct
Ġ201 7
28 9
+ =
ac ter
Name d
C lose
ref resh
w iki
S UB
SS L
Ġ1 72
is m
Di rectory
pub lish
w ar
sapt one
o x
Ġrel ation
33 4
Ġset s
org an
18 7
16 7
Y Y
FI E
list s
Po st
Ab stract
01 3
str ftime
re direct
cur rency
09 5
Ġc ross
ĠS y
t v
ing er
sub process
AAAAAAAA AAAAAAAA
Ġwith NEWLINE
log s
ci pi
g le
ys ical
re et
fig ure
Ġd s
Ġ1 05
mg r
soft max
Ġlo aded
mon itor
24 8
Ġd river
A K
J K
ĠM eta
Data base
08 3
pri ority
c ancel
AR M
Ġtemp file
Fa il
flat ten
Ġcal culate
e mit
Ġ1 70
T otal
ad v
Ġwrit ten
record s
WID TH
Su bject
auss ian
] -
N on
an a
33 9
all back
rep ly
64 8
f ri
util ity
( ',
Ġpre cision
UN D
Ġcom bin
e ver
Ġsy m
to ur
device s
F in
33 5
Ġl at
Ġnormal ize
Ġf ixed
aris on
| |
le c
I ME
ĠRa ises
Ġn ested
h d
') ))
dis able
n ative
ca o
Ġ' '):
33 3
Ġa void
p w
07 2
at ar
DE FINE
Per mission
RO OT
Ġ ^
cache d
ĠE lement
ĠT alk
C Y
Ġ1 87
L ock
li es
TR A
vis it
ch at
at trib
m aterial
ce ed
Pro duct
Ġset attr
div idual
04 2
201 2
) ")
TR P
M z
CO MP
Ġde coder
Ġ1 73
P USH
Result s
Sp ace
Ġdirect ly
Ġcall s
extension s
Ġinst alled
write Field
ic ally
l m
Ġu s
25 9
REQU EST
Ġw orld
Ġpos itive
ce l
lo cale
Ġ201 6
pre vious
ĠCON TR
ip s
r r
ys ql
Ġo k
u ang
Ġ 76
ĠLo ad
cal c
is instance
74 4
thread s
Ġd id
A pi
g lob
Ġc lick
u ses
ab stract
Ġre quested
Ġen coded
88 9
fab ric
Ġmetri cs
ise d
Ġxml ns
ation Error
25 8
Ġon ce
W riter
JJJJJJJJ JJJJJJJJ
ĠCon st
H istory
S im
32 6
FI L
Ġcon si
{} '.
iter ator
Ġ1 18
P anel
ĠO ther
sen tence
! \
ne ed
F lag
am s
Z one
" />
an aly
Ġo ps
ex pi
28 57
X E
R ad
17 2
g m
32 5
Ġh istory
frame work
Ġ1 22
Ġme m
iss ue
pl us
Ġstate ment
= \
un named
Ġp ie
66 6
Q Q
Ġ1 71
Ġ1 82
Ġd ig
Mo zilla
in o
Ġs ock
Ġy et
max imum
c annot
Ġ1 81
':' *
Ro ot
F l
ĉĠ Ġ
79 8
greg ate
Ġsk learn
ro om
Ġimple mented
Ġ1 13
y mo
08 4
Ġ1 024
rel ative
Const raint
06 7
ĠC lient
table s
ss h
S NEWLINE
st ock
Ġresource s
G IN
Ġ% .
Ġ5 5
Ġpage s
24 9
429 4967295
den se
Ġmeta var
################################################################ ############
re try
MB ER
cipi ent
NEWLINE p
16 2
umer ation
. /
Ġembed ding
de t
Re port
make dirs
A rea
Ġ1 83
P ES
38 6
Ġde g
C L
Ġup per
09 4
velo p
sup ported
Ġf i
Del ta
s lots
C ustom
En able
al chemy
0000 000
ĠM ax
mun ity
l as
Ġpri vate
type NEWLINE
us ing
Ġans wer
f la
Ġ6 2
vari ance
Ġneg ative
L android
13 1
get item
Ġmon th
E QU
Ser ies
'] ]],
l g
Ġwh ite
Ġ1 90
s qu
o logy
Ġvis it
Con d
19 7
L com
Ġ) .
Ali gn
Ġtop ic
19 6
Auth or
Deta ils
pick le
ĠNet work
k on
ma y
Ġ4 4
Ġrepresent ing
pair s
ĠN ew
C V
R et
Ġex act
25 4
pre cision
ru pt
ĠIn valid
b tn
I m
Con nect
Ġc la
} },
Vis ual
23 1
C M
99 5
contain s
Ġex ternal
) =
Ġd uration
2 77
Se q
Ġpredi ction
Ġsig ma
E Y
Ġp ur
ĠS leep
Info Bg
out h
E ngine
UN K
Trans form
Ġ1 91
in c
set default
Ġ3 3
ph i
er n
ance d
adapt or
Ġmo dified
Ġne cessary
GGGGGGGG GGGGGGGG
C opy
08 6
Ġk nown
pro d
O NE
Ġst ar
gener ic
V r
Ro le
Ġthe ano
R D
CON F
z A
c wd
C UR
69 5
ct ypes
abs olute
St andby
W h
2 75
L AN
cur ve
mp y
ĠI s
se mb
ra se
ĠD ist
G ROUP
Ġpro vider
ic les
Ġsa fe
= ["
99 6
environ ment
Ġc pu
28 6
V AR
Ġpro to
ymo us
8888 8888
en cy
k b
k an
w t
st it
g reen
Ġ) ),
ffi c
me mbers
tro ls
ta x
a lert
ex e
id NEWLINENEWLINE
Ġpass NEWLINENEWLINENEWLINEclass
N t
warn ings
tr uth
Ra w
Object Name
ac ing
j ava
22 6
D oc
Ġf req
Ġle g
cl one
ri ca
Ġde leted
p or
Ġincl uding
P IPE
Ġ* =
me ter
ĠPro cess
Ġm d
86 18
ST OP
us ion
co pe
Ġex clude
AS K
19 4
og ram
ad a
part ial
ĠTH IS
b one
clo sed
Ġraise d
find all
Ġcur r
Ġ201 8
I ST
R ight
ul lable
urn al
Ġs che
STR U
g ht
NO NE
Ġg it
Ġre duce
ĠBu ild
fi ed
X T
inter net
con sole
Ġde pendencies
T AG
sche me
par sed
ĠE nt
Ġgo od
aw s
H y
Ident ifier
In te
W V
config ure
Pass word
ag raph
S F
activ ation
P M
ĠIn teger
pre pare
39 2
Ġrecord s
Ġexception s
il ing
v lan
fail ure
li ve
) **
Ġinitial ize
Ġr c
Ġpart ial
ph one
True NEWLINE
h u
Ġm aterial
07 3
68 7
Lim it
late x
ok ies
38 9
FORM AT
ĠS imple
ri s
J I
maz on
pe ar
co very
ĠData Frame
File s
15 1
sn ap
06 3
B D
proto buf
Ġself NEWLINENEWLINE
Ġl ang
77 7
LE D
ynchron ous
b p
Ġ 72
/ \
ĠLI MIT
ra ft
com ments
Ġ6 7
r NEWLINE
wh ile
irt ual
ĠD jango
Ġup load
55 55
L ong
activ ity
source s
h ref
ĠC OP
path NEWLINE
Ġal ias
Ġ5 3
s yn
ĠL ine
V olume
34 5
Ġpro per
M j
m ultiple
" %
ak er
ver ts
ri er
Ġin side
w n
Ġautomatic ally
ĠO UT
P LYPD
D raw
h ort
ĠI nt
ment um
mo difi
R T
Ġmin imum
ag ger
05 3
({ "
b m
25 2
Ġin dicate
ag ing
w id
J j
pipe line
UT F
] ':
predi ctions
ue ss
Ġre try
part ner
I t
ad ow
al len
Ġp ower
f ollow
h ide
con catenate
Ġcase s
H ist
Me mber
Ġme dia
09 7
Ġsy ntax
ĠString IO
08 7
Ġcall ing
in a
Ġlist s
ge o
__ _
Ġle ss
assertIs Instance
24 4
Ġp id
sg i
Ġz one
Scen ario
64 5
b ul
WOR K
G D
99 7
par ame
() ).
32 7
Ġ4 7
78 3
ex pect
Ġt z
FIL TER
g mail
umb na
Ġ' *
Ġc ard
17 0
Ġresult NEWLINENEWLINE
Ġmark er
Bin ary
> %
Ġ' '.
Ġwork er
Ġ3 9
co ordin
Ġ8 2
Ġp a
ST ART
Ġexp licit
, ):
assert Not
ad j
R ed
Ġf id
Ġqu ant
H R
PO S
32 4
c am
b um
re store
re at
Ġ ------------------------------------------------------------------------
} ')
64 6
Ġf mt
COL OR
" '
r x
Def inition
k es
f w
li ct
cord ing
535 7
is dir
Ow ner
speci fic
set ObjectName
8 00
Ġbas ic
/> .
ĠC or
68 6
Ġb its
Ġh app
c red
pi e
S pe
r st
") [
ut ation
LO AD
33 7
Ġde lay
Ġt ile
De cimal
Ġvalue sNEWLINE
24 5
curs ive
cre te
char s
Lo op
Ġfunction NEWLINE
de leted
sph inx
ĠM at
Ġ4 6
O B
mo id
77 5
pro j
py NEWLINE
allow ed
Q B
Ġt rigger
cei ver
ke le
k y
ĠCOP Y
38 7
r ation
ĠS M
Ġ" ")
Ġpre dict
Ġblock s
07 1
ref s
PRE SS
Ġas NEWLINE
EN CE
Argument Parser
Ġs quare
B ad
mo ving
Ġsc ene
LI ED
co v
g w
T er
w alk
* \
T ransport
Ġ( )
Name space
w rit
Ġsh ift
Ġscal ar
Ġwork s
Ġpackage s
Ġor d
pri ate
al let
liter als
Ġcoordin ates
g d
ĠG raph
comp any
Ġ ----------------------------------------------------------------
E W
ul ator
33 8
es h
ale nt
pro bs
n dim
AP P
f u
R U
Ġen code
Ġun known
ĠSt art
Ġc ir
34 9
Ġde scri
S m
Ġ7 0
Pro to
17 3
Ġsc an
(' {
Time out
D W
trig ger
Ġstart ing
78 4
b rowser
re tri
66 8
ed itor
mis c
E B
ING S
Y X
Ġde cimal
se lector
Ġd ropout
w ifi
Serial izer
not ification
K EN
Format ter
Ġline ar
Ġmodel NEWLINE
stru c
ĠO per
Ġ1 26
con no
a ug
mat ches
Ġan NEWLINE
k n
at ter
Ġsw itch
] (
+ \
K it
Ġre c
Ġbu ilder
LE TE
cao conno
Ġ" (
dest ination
list dir
v d
Ġtime NEWLINEimport
ĠV er
WR ITE
04 0
ĠThe re
ĉĠĠ Ġ
L T
Ġconst ants
lin eno
Ġc lip
" ;
AS P
ri a
as set
( ':
Ġlogging NEWLINEimport
LY S
project s
v rf
ep isode
; &
Ġt urn
33 6
Ġexp and
mp ls
Ġoc cur
w atch
L i
Ġ ĠĠĠĠĠĠĠĠĠĠĠĠĠĠĠĠĠĠĠĠĠĠĠĠĠĠĠĠĠĠĠĠĠĠĠĠĠĠĠĠĠĠĠĠĠĠĠĠĠĠĠĠĠĠĠĠĠĠĠĠĠĠĠĠĉ
Ġ ĠĠĠĠĠĠĠĠĠĠĠĠĠĠĠĠĠĠĠĠĠĠĠĠĠĠĠĠĠĠĠĠĠĠĠĠĠĠĠĠĠĠĠĠĠĠĠĠĠĠĠĠĠĠĠĠĠĠĠĠĠĠĠĠĠĉ
Ġ ĠĠĠĠĠĠĠĠĠĠĠĠĠĠĠĠĠĠĠĠĠĠĠĠĠĠĠĠĠĠĠĠĠĠĠĠĠĠĠĠĠĠĠĠĠĠĠĠĠĠĠĠĠĠĠĠĠĠĠĠĠĠĠĠĠĠĉ
Ġ ĠĠĠĠĠĠĠĠĠĠĠĠĠĠĠĠĠĠĠĠĠĠĠĠĠĠĠĠĠĠĠĠĠĠĠĠĠĠĠĠĠĠĠĠĠĠĠĠĠĠĠĠĠĠĠĠĠĠĠĠĠĠĠĠĠĠĠĉ
Ġtask s
ind s
Ar t
Ġin ner
ĠD AM
Ġ> ',
ten ces
ĠThe se
65 4
os ition
Ġdi alog
ten ant
pat terns
sh uffle
Ġrule s
201 0
88 7
(? :
ch r
Ġ5 7
re peat
ig ab
Re gex
AR D
O BJ
Ġ 86
GG ER
Ġc rop
Ġpub lish
69 6
99 4
Al most
22 0
I A
Ġare NEWLINE
count ry
Ġnot NEWLINE
at tention
E mail
Com mon
ĠMO DI
Z Z
W ord
C ategory
Ġfail ure
86 13
M V
Ġrad ius
ĠT able
Ġde n
Ġbo ok
86 15
O W
b ank
65 9
st rength
Ġx NEWLINE
ĠIn it
Ġpair s
S B
ro ke
ho od
Me mory
permission s
NEWLINE H
per m
host s
ch ors
xy z
com ing
Almost Equal
doc string
sm all
J SON
cry pted
im al
ĠE num
Ġin spect
05 0
Ġsub class
ud it
ĠSer ver
> ")
ĉĉĉĉ ĉĉĉĉ
2 10
ĠEx it
66 9
Ġed ges
mo use
ĠRes ponse
ĠCon trol
Ġbu iltin
Ġpro c
Se ction
act ual
comp ress
Ġ201 5
ĠSt ate
mo bile
ĠU N
74 8
Ac cept
' |'
S end
Ġf type
order ing
Ġlo ader
n z
Ġsn apshot
Ġcontrol ler
NEWLINE L
68 9
comp are
Ġapp lied
Ġcomp are
Ġp t
ta u
18 2
Ex pression
Ġ8 4
Ġ9 8
ĠS H
Set s
Ġm ult
at ial
cur r
Ġp lease
35 9
loc ity
Ġact ually
ĠB UT
Ġl arge
FICATION S
Ġv m
IM AGE
Ġde sired
NEWLINEs S
b on
B ACK
W W
Ġtyp ing
su ite
cry ption
Deta il
de cimal
th rift
> -<
ĠC LR
39 8
mark er
G Y
Ġs imp
NG TH
q s
ĠPO INTER
Ġpl an
speci al
Ġm s
Ġdict NEWLINE
! ")
18 3
Ġph ase
b re
Ġcon tact
M F
Oper ator
il le
de pendent
Ġpri ce
Pro perties
equ ipment
Ġnd array
Ġ5 2
] }
Ġho ok
Ġma de
we ek
ĠSer vice
77 9
Ġs olver
Ġt akes
Ġs parse
re ward
fs m
p an
Ġc c
29 8
ap pro
Ġun pack
oc us
Ġc li
Ġ8 5
log ical
79 4
art icle
Ġpri or
wrap ped
de ploy
66 7
H as
t ip
AS N
B F
h w
ine ss
Ġexample s
ĠM ulti
Ġiter ator
Ġb ig
D H
77 8
Ġ5 12
D est
read line
m icro
dataset s
in ux
NEWLINENEWLINE print
de ns
Rou ter
ĠL CID
2 06
Ġ1 03
A MPLE
79 7
Ġno ise
V V
p aper
E xample
velop ment
ar Down
Ġstri p
Ġac curacy
D N
Program ming
sp y
ĠA ct
go od
Ġpredi ctions
W ifi
Ġsim ilar
lim iter
B ound
Ġ9 7
IP V
ma chine
is k
2 37
He ad
ment ation
ĠW rite
p ending
Ġexec ution
h l
Ġappro priate
I Z
av as
, *
2 14
Ġs sl
Se gment
igh ted
ĠI F
R F
b es
end or
SSI ON
rit ical
B ody
L P
st andard
Ġpass NEWLINENEWLINENEWLINE
Ġ1 21
ĠS up
C ard
no tes
ĠWH ERE
ver sed
LE NGTH
24 6
Ġre NEWLINEimport
b ridge
Tra ce
p lain
H F
Ex it
Ġper cent
ro l
ĠIO Error
p ur
ĠAuth or
Ġcol ors
AL A
Ġcon struct
bound s
]) [
vert ical
ĠE ND
SH A
Ġ8 1
88 5
u an
re pository
ĠO ne
K I
Ġ" {}
a NEWLINE
i ff
stri ct
ra ce
W F
Ġsup p
74 5
server s
NEWLINENEWLINE try
base d
C y
predi ction
ri e
Ġcomponent s
bos ity
Ġh ist
an alysis
Ġdimension s
MODE L
r at
q q
s ol
vari ant
Ġhel per
ĠComp ute
38 3
Ġsome thing
ang les
ĠDe cimal
TH R
201 1
u ro
Inter val
() ;
ĠDE FAULT
UT O
_ ='
ĠO ptions
Co uld
ient ation
F older
34 4
in line
2 11
H J
Cur sor
77 6
G en
j ar
SO UR
S Q
an chor
h orizontal
Ġre pository
Ġ' :
trans lation
Er r
version s
pe ated
Ġpath NEWLINE
In it
ĠGener ated
Ġv s
Ġ 73
File Name
Ġ( [
Ġe scape
ĠS QL
ion Error
Ġar ound
Batch Norm
64 4
Ġr atio
ou ter
o ot
Ġf s
iv alent
ver tex
or dered
ale s
P ick
Ġb lob
Ġhe x
ĠW eb
ĠIMP LIED
t ol
liter al
Reg ion
Ġeval uate
f h
Ġupdate s
qui ck
ĠMODI FICATIONS
Ġr and
P V
_ '
wh ich
ĠW ork
Ġl st
Ġde scriptor
T uple
ĠB lock
Ġar rays
Ġstride s
04 1
Ġst age
po w
ver ter
tent ial
ĠUni code
cri min
75 4
me asure
ĠLIMIT ED
NEWLINE plt
shape s
ĠM A
range s
03 1
Ġcho ice
"" ")
mk dir
38 5
plan es
f x
"] ),
ract ive
work ers
=" ",
state ment
Ġsh uffle
Ġi terable
Bo ol
activ ate
assert AlmostEqual
Ġco okie
r g
SER VER
iz ing
h op
Ġin d
Ġt xt
init ions
ĠA S
74 9
O b
rot ate
65 8
Ġ arch
Re mote
Ġagain st
Ġcomple x
E A
Ġme asure
. ],
g ate
26 3
F SM
im ation
ck o
GG G
Ġh our
di git
interface s
is tered
>: <
Ġi de
agic Mock
Ġjson NEWLINEimport
88 4
B ot
d ns
lar ge
pro blem
Sum mary
clar ation
") ),
# <
th resh
Ġ8 3
Ġinter pol
Ġsh are
FIE LD
Ġan chor
: ],
75 9
S ingle
length s
; )
D b
r strip
Ġp ush
Field s
ĠQt Core
c ity
Ġ( ('
script s
Dist ri
ĠRe served
Se curity
STRU CT
kele ton
ag tail
ca pt
k k
02 1
min imum
C AC
T r
N a
Ġy dk
Ġsm all
C Q
V ideo
Ġsec ret
32 3
Ġde ep
ip her
el ls
n es
Ġspe ed
28 7
De bug
ĠT ag
mo re
R ot
Ġ'/ '
ĠF e
ĠMe thod
c us
are st
RES ULT
Pre dicate
` :
ĠĠĠĠĠĠĠĠĠĠĠĠĠĠĠĠĠĠĠĠĠĠĠĠĠĠĠĠĠĠĠĠ ĠĠĠĠĠĠĠĠĠĠĠ
RE F
c NEWLINE
w ave
Ġs leep
B asic
ĠC an
di ffe
Ġthe me
PRO TO
28 4
f NEWLINE
ĠAl so
no st
f ar
U ID
Re LU
Ġg amma
R B
P G
ba z
ĠB ack
Ġallow s
Ġc b
Dis able
88 6
F irst
wh en
ce pted
h ow
ch er
lo sses
umbna il
Ġ201 4
^ {
Ġ archive
Ġdetermin e
(" [
ĠRes ource
09 2
/ <
06 0
Un less
Ġ question
16 1
NEWLINE G
Ġraise NEWLINE
pos itions
Ġp s
Ġac cording
apt ure
Ġ\ \
x path
200 8
ĠĠĠĠĠĠĠĠĠĠĠĠĠĠĠĠĠĠĠĠĠĠĠĠĠĠĠĠĠĠĠĠ ĠĠĠĠ
44 8
Ġma chine
STAT S
level s
28 5
ul ary
C AL
08 2
embed dings
Ġtime delta
T NEWLINE
lst m
Con f
def inition
P oly
Ġfl ask
annot ation
Ġsu ite
Ġn one
ĠD I
time delta
PD ATE
Ġ ĠĠĠĠĠĠĠĠĠĠĠĠĠĠĠĠĠĠĠĠĠĠĠĠĠĠĠĠĠĠĠĠĠĠĠĠĠĠĠĠĠĠĠĠĠĠĠĠĠĠĠĠĠĠĠĠĠĠĠĠĠĠĠĠĠĠĠĠĉ
Ġ ĠĠĠĠĠĠĠĠĠĠĠĠĠĠĠĠĠĠĠĠĠĠĠĠĠĠĠĠĠĠĠĠĠĠĠĠĠĠĠĠĠĠĠĠĠĠĠĠĠĠĠĠĠĠĠĠĠĠĠĠĠĠĠĠĠĠĠĠĠĉ
Ġ ĠĠĠĠĠĠĠĠĠĠĠĠĠĠĠĠĠĠĠĠĠĠĠĠĠĠĠĠĠĠĠĠĠĠĠĠĠĠĠĠĠĠĠĠĠĠĠĠĠĠĠĠĠĠĠĠĠĠĠĠĠĠĠĠĠĠĠĠĠĠĉ
Ġ ĠĠĠĠĠĠĠĠĠĠĠĠĠĠĠĠĠĠĠĠĠĠĠĠĠĠĠĠĠĠĠĠĠĠĠĠĠĠĠĠĠĠĠĠĠĠĠĠĠĠĠĠĠĠĠĠĠĠĠĠĠĠĠĠĠĠĠĠĠĠĠĉ
helper s
Ġversion s
in ing
il ation
op le
79 5
Ġiter ation
de li
Ġ' (
ak ing
int s
Ġn ative
exist ing
ĠS ign
ic a
R M
ex periment
] ?
AC CESS
ĠGo ogle
Ġcoordin ate
PRE FIX
01 1
Option al
t cp
Ġ[ {'
ra gment
bal ance
ĠE ach
C annot
ro u
Ġrep ly
Ġm ultip
J y
Y W
Ġat tach
N ull
Ġd ummy
ĠY ANG
v in
v g
Ġcop ies
Ġman ual
x p
Ġs i
G O
ĠA nd
19 3
ĠĠĠĠĠĠĠĠĠĠĠĠĠĠĠĠĠĠĠĠĠĠĠĠĠĠĠĠĠĠĠĠ ĠĠĠĠĠ
Ġ ri
pos al
78 6
ench mark
cl uded
se ct
pre tty
Ġcon nected
imp l
Ġ201 3
s dk
li de
CO LU
align ment
un ded
################################ ################
ĠPar se
de tection
annot ations
F sm
ier arch
B I
NEWLINE T
ar row
SY M
O FF
Ġan alysis
Ġcur ve
ge ometry
Ġn ullable
74 6
=[ ]
Info St
b all
w g
P lan
m f
Ġw rong
Ġfile names
Ġ6 1
mask s
F unc
ap s
b py
NEWLINE d
Ġ201 9
Ġ termin
initial ize
" })
Pack age
Ġex pi
NEWLINE c
Ġ ĉĉ
dig its
Ġpro duce
ĠPro ject
andid ates
m argin
h h
19 0
ĠAs sert
MS G
ĠS ave
Ġs olution
SE TT
cre ase
Ġsupport s
lo y
39 5
k g
ĠM odule
shape NEWLINE
rot ation
format s
P K
k u
Ġg ui
2 17
2 68
Q A
U V
categor ies
ip ay
ok ed
34 8
Ġd x
IN ST
Ġpart ition
Ġs lot
H pr
Ġit self
> (
User s
{ {
ĠOS Error
DE X
Y V
l te
Ġpar sing
ĠA b
i ma
key words
ar a
V ec
Ġpy game
ent ropy
B N
copy right
Ġdocument s
P i
g lyph
Ġo bs
Ġfrom NEWLINE
B i
or ing
) '),
ro me
lin alg
Ġclo sed
En v
M AC
77 4
compat ible
ĠS ource
Ġlo cale
un ters
o tes
Con s
Ġt ar
Ġ8 9
C a
M Q
Me dia
EN A
Work Item
29 6
Ġset NEWLINE
ĠPar ameters
S lot
sub mit
com m
Id x
Mo ve
Ġ9 6
Ġprocess ing
D L
parame tri
Ġthe ta
l j
-+ -+
ar c
sc a
ap sed
.... ..
ire ction
Ġa udio
Ġg round
ĠC H
Fe ed
Ġh ome
H ttp
h icle
E val
M IB
Ġc ategor
9999 9999
O G
ĠCon vert
M pls
Ġdi rectories
Ġqu ote
pl ane
Re lease
69 8
DI RECT
ĠC all
sur face
encode d
av ig
def ine
ĠT ask
desc r
Ġte am
2 15
ME T
PO INT
fin ished
jo urnal
Ġg u
gg le
Add r
click ed
Ġlimit ation
dest roy
Hel lo
window s
Ġ9 5
ĠSer ies
la zy
Scenario Flags
b w
Ġd ue
Ġf requency
col lect
ON LY
t ur
Ġpipe line
loc ations
Ġcre ating
arg max
Ġre ward
Ġ9 3
39 6
b il
ent ities
e cho
Pat tern
ex er
re cted
! ')
78 7
SI G
88 59
T x
25 7
09 0
ĠLI ABILITY
ME TH
AC TION
bat ches
B G
Sign al
bin s
TY PES
z i
bas is
vi m
Ġval s
Exp anded
... ")
C lean
schedule r
78 5
Time r
L a
ĠI tem
AS H
IB UT
E ffect
f lip
R GB
ta ched
n ers
Ġat tention
st rap
36 7
OP TION
14 2857
34 6
Pro p
Ġt b
ic ular
d ynamic
avas cript
s at
C LI
po sed
Ġvis ual
C trl
ct rl
Ġp in
2 07
k v
36 0
++++ ++++
in ator
Ġtype NEWLINE
'' ',
Ġad j
res net
65 7
et c
Q H
len e
leg end
unt il
ĠGe cko
con tinue
upt ools
A ng
ĠNO TE
2 12
ĠH el
ĠTemp late
Create d
lif y
tr unc
Ġpro cessed
valid ator
h it
red is
PA SS
35 5
Ġis n
Ġ{' @
DO WN
pro g
> '),
sen der
Ġc ert
Message Type
Ġal i
change s
li k
Ġback up
Ġse curity
fi re
Ġsy mpy
Ġ1 06
U sage
R en
M ult
te ctor
O rig
in p
Cl uster
Di rection
Ġbu ilt
Ġident ity
M ake
work flow
2 05
s olver
35 4
(' [
Ġeval u
c amera
set Value
Ġwork ing
ĠEV ENT
E SS
Ġcache d
Ġc os
44 6
with out
res olve
To Many
Ġsource s
] '
c lock
ener gy
n f
g re
M od
ST ER
ĠF ind
gen e
ame nt
ĠV ector
s an
ĠS phinx
Event Args
2 32
SE D
Ġso ft
mid dleware
(' .')
w c
at ype
G ame
75 5
I VE
M Y
UR I
ĠO ver
Ġdi ag
Ġlog its
SC ENA
IT S
F ind
let ter
A me
ADD RESS
ĠMake ScenarioFlags
Access or
read only
__ ))
Ġse en
Ġ' ','
Ġc ar
ĠA ss
45 6
Ġ' ["
b ut
TR AN
ĠH ow
Ġpre pare
+ )
NEWLINE g
di ctionary
row se
f m
V e
ve st
let ion
Ġ ._
o auth
cre dentials
ig en
MA IN
Ġbe havior
=" %
O c
Ġhand ling
37 6
on al
r k
if act
ĠCOPY RIGHT
] .__
A H
Ġpri ority
Ġd y
ang er
h c
C N
([ (
unct ools
2 18
Ġma il
tod ay
Set ting
Ġcre dentials
37 3
Ġdefault NEWLINE
v l
Ge ometry
i um
ĠP ri
F IN
d dex
' {
Ġcon trib
la ve
Ġdata NEWLINENEWLINE
Ġc one
update s
Ġn x
m ix
D Y
E F
De le
Ġu i
xt ures
Ġsche me
75 6
o ted
ĠE xt
Ġx y
TO KEN
F UN
>': '
Ġb i
ĠV i
d g
D K
COUN T
M igration
Ġ' ':
Ex ist
ot ion
VE L
ot ype
ES C
Ġauth entication
Ġframe s
Ġkey words
ific ations
IC T
te in
he t
Ġco ver
lin ux
01 01
r ng
$ $
2 08
{} ".
ST M
std in
Ġ ut
Ġen viron
/ *
Ġrot ation
Ġt ransport
Ġview s
ĠE d
P lot
ĠR ights
Ġ1 98
Ġse g
co in
ĠC lear
S chedule
)) ])
Ġinitial izer
ĠE nd
69 4
we et
^ ^
Ġav g
68 4
Ġ4 1
Ġover write
E thernet
Ġ[] ),
ĠQueue WorkItem
ji ang
st o
Ġt k
Ġde precated
hy per
Ġth ree
EV ENT
ĠHttp Response
Ġre vision
Ġan aly
M G
ab ly
Ġsql alchemy
I W
v v
cat alog
Ġwill NEWLINE
Ġthread s
] /
Ġprovide s
Q C
ĠU I
N R
79 6
P lease
us ted
M apping
h an
h p
88 3
29 7
tain s
Ġfin ished
66 5
pk l
D P
uto ff
Ġreg istry
Uni code
Ġ4 3
07 0
Ġm akes
to list
ME SS
leg ate
F ace
Ġmeta NEWLINE
Function Index
ber t
base s
Ġp print
ar p
Scen a
ON T
< =
Ġadd resses
NEWLINE else
ul ated
w k
Ġ8 7
In ternal
! =
Ġh ard
cell s
M AN
Child ren
ed u
Ġcheck s
ĠCon tent
arg sNEWLINE
Pos itive
ĠT EST
' ll
yn omial
Ġre d
Ġconver ted
al gorithm
Event s
Ġderi ved
au x
read lines
HI E
ct ype
Ġb n
Point s
DE LETE
text NEWLINE
st ra
ator y
_ <
te t
Ġdefault dict
h ard
={ "
a cl
ĠN ULL
ci l
man ual
ĠSt atus
Ġarray NEWLINE
clus ive
79 3
ol ved
lec ule
ARM CPU
Get s
A W
:: ::
b ur
Ġs urface
eval uate
ct l
Ġ2 000
cm ds
Ġin dividual
, %
serial izer
url lib
ad r
n at
Ġinte gr
A p
F c
ĠP ack
res olution
Ġfig ure
str ategy
al o
SOUR CE
R R
26 7
WAR NING
Ġ' \\
Co unter
2 99
, (
w a
deep copy
Ġ ĠĠĠĠĠĠĠĠĠĠĠĠĠĠĠĠĠĠĠĠĠĠĠĠĠĠĠĠĠĠĠĠĠĠĠĠĠĠĠĠĠĠĠĠĠĠĠĠĠĠĠĠĠĠĠĠĠĠĠĠĠĠĠĠĠĠĠĠĠĠĠĠĉ
Ġ ĠĠĠĠĠĠĠĠĠĠĠĠĠĠĠĠĠĠĠĠĠĠĠĠĠĠĠĠĠĠĠĠĠĠĠĠĠĠĠĠĠĠĠĠĠĠĠĠĠĠĠĠĠĠĠĠĠĠĠĠĠĠĠĠĠĠĠĠĠĠĠĠĠĉ
Ġ ĠĠĠĠĠĠĠĠĠĠĠĠĠĠĠĠĠĠĠĠĠĠĠĠĠĠĠĠĠĠĠĠĠĠĠĠĠĠĠĠĠĠĠĠĠĠĠĠĠĠĠĠĠĠĠĠĠĠĠĠĠĠĠĠĠĠĠĠĠĠĠĠĠĠĉ
Ġ ĠĠĠĠĠĠĠĠĠĠĠĠĠĠĠĠĠĠĠĠĠĠĠĠĠĠĠĠĠĠĠĠĠĠĠĠĠĠĠĠĠĠĠĠĠĠĠĠĠĠĠĠĠĠĠĠĠĠĠĠĠĠĠĠĠĠĠĠĠĠĠĠĠĠĠĉ
St andard
Ġc t
trans fer
Re quired
Ġm argin
Ex port
ĠP art
Ġ201 2
EN TI
Ġh ig
ĠConfig uration
B ro
SC S
RE NT
v oc
Ġre use
Ġtable s
ens ure
En coder
der s
m v
/ ')
sh op
W IN
Ġne ver
X F
Ġtemplate s
W ait
st and
g ar
Expanded Name
En coding
map per
35 8
200 9
f requency
V irtual
ay ment
je cted
Ġsepar ate
index es
59 4
r untime
Col lision
HEAD ER
________ ________
Ġs ync
Attribute Set
36 3
+ ',
Ġnot hing
j I
Ġpart icular
String IO
e fault
] )))
Ġpixel s
vert ices
pro mpt
ĠDe f
ToMany Field
ak en
J E
ĠS ome
run ner
Ġal t
Ġ' '),
auth entic
z hou
Ġraise s
NEWLINENEWLINENEWLINENEWLINE NEWLINENEWLINE
es ser
F i
Pe er
Ġ9 4
Mis sing
TRA IN
d w
Stat ic
list NEWLINE
c x
Ġ[' -
ĠS top
Ġy aml
lis ten
an te
Ġfe at
os ite
MD ME
Ġc ertificate
Ġcol s
iter al
ĠP age
i cip
M ouse
f ort
ly ing
b t
\ .
FFFF FF
Imp l
Ġretri eve
Ġnp NEWLINEfrom
pri v
w sgi
L te
Con vert
(_ ("
45 9
+ [
24 2
Ġ0 2
li cies
iv ation
n ested
co eff
J H
ĠRes ult
ĠP lease
Hel p
ast ic
)] ],
# ------------------------------------------------------------------------
34 7
Ġbet ter
ĠW hether
trans ition
> )
class ifier
Ġd ynamic
J i
> [
get value
y o
ĠOther wise
T ri
AD MIN
Ġver tex
Com ment
er ge
Ġ1 92
Ġcy cle
ĠRe distribution
KE T
ter ms
able s
Ġas yncio
CO M
Ġcount s
py plot
L anguage
ow ns
re name
A fter
st one
COLU MN
| [
EN TRY
27 6
B L
2 38
produ ction
39 7
OBJ ECT
IT H
Ġgener al
de ri
Scena Index
g ot
f type
Ġver y
//////////////// ////////////////
Ġtw isted
p f
G ER
V N
ĠN umeric
allen ge
E K
En ter
Ġparameter sNEWLINE
" %(
00 02
ash board
Ġvar s
sw ig
dir ty
Ġte arDown
0 88
ĠJ o
18 1
ach ine
Ġ' ve
0 99
F ree
ĠB Y
config s
ker as
save d
ph ab
ler ance
Se quential
ĠRe ference
Ġh it
Ne ighbor
b id
NEWLINENEWLINE This
B S
75 8
W C
ĠA UTH
Ġc s
parametri ze
$ {
l us
Sw itch
Ġc amera
f loor
n py
ĠX XX
Ġmon itor
il li
ĠD es
pre p
Ġse p
ĠAr ray
Mid dleware
ĠF irst
dis abled
Sh ort
ĠQu ery
ĠN ow
D ay
Ġ/ =
Ġcl one
v b
crimin ator
Ġy ang
n or
ĠM ap
69 3
Ġf h
fa ct
N OR
ĠCon v
Ġs ur
76 7
ĠB it
Ext ra
LE FT
DE L
06 1
att le
exec utable
Many ToManyField
Ġhy per
P layer
he el
Ġkey NEWLINE
{ \
'] ):
ĠL esser
Error s
ge om
Ġde al
Ġstri ct
08 1
st mt
2 65
@ \
er red
B Q
2 09
number s
AA A
Ġhost name
QU E
ĠG uang
re view
M a
39 4
B AND
64 3
ĠT rain
Ġb ug
Ġline NEWLINE
ĠS k
dt uple
gan ji
__( *
rb ridge
Ġ= ================================================================
ph er
2 16
ĠL a
_ [
ĠCol or
Ġsh own
e ach
ĠL abel
Ġen ter
la unch
n h
Ġro uter
ĠF loat
M esh
Ġsen der
Ġd c
ile s
69 7
fi dence
b en
en umeration
se udo
NEWLINE k
Ġreg istered
ur ations
Ġc p
Ġtime NEWLINE
J U
Ġ vec
ĠExit Thread
Ġd a
ol l
)) ]
gener ated
mb o
mi ted
Ġinter pre
st ation
g if
comb o
Ġmap s
Ġrestri ction
T K
ĠC ustom
t as
49 6
AR K
fin ish
Ġren dered
ĠS p
Ġex periment
h ave
28 3
t id
Q R
sc roll
Ed ge
Ġread ing
n ed
SETT INGS
G S
S plit
Ġ= >
Ġu a
Ġauth entic
r aries
Ġm ime
2 30
s am
s al
int o
si an
p P
Ġremain ing
Ġi NEWLINE
re m
regular izer
k ar
} ",
35 7
NEWLINE P
DI M
ĠVersion Meta
68 5
Ġde tail
iv ar
account s
I MP
Ex pected
b ri
AR CH
Ġrepresent s
move s
pol l
ro i
im ize
Ġse quences
get text
mark s
44 9
sy mbols
ĠM ark
Re p
X ml
Graph ics
32 0
Ġw agtail
22 1
la re
n m
ĠCon nection
S ap
Ame rica
Ġ virtual
Ġiter tools
set Up
ĠR ed
ul se
m ysql
f an
Ġday s
ĠP h
ne ighbors
Ġw ave
w p
in formation
u df
Fail ure
c ertificate
Ġre cent
T X
S uccess
Float Field
n umeric
05 1
pri or
Group s
k J
:: -
re ceived
ĠDefault s
R UN
NEWLINENEWLINE The
PO INTER
Ġdis abled
27 3
man ifest
G rad
b fe
ff t
Cond ition
ĠF IX
ig uous
ex act
r mt
Ġpe er
= ('
n v
V R
Ax is
f old
NEWLINENEWLINE NEWLINENEWLINENEWLINE
b undle
ĠP Y
17 1
GL N
Ġm ag
AT T
75 3
Ġe ar
iter ations
Ġor dered
bu ff
V C
Con tact
2 36
Ġcone q
p le
F oo
('/ ')
f tp
sub net
J ECT
ĠD ATA
Ġeval uation
ĠArgument s
Cur ve
NE G
Ġde corator
ĠS to
Ġbound ary
] ;
ho use
st ub
** *
Attribute Value
i ally
Ġ\ "
ĠSet s
ĠS Y
] "
fo cus
al ive
d ll
_ =
Ġeps ilon
th ia
Ġc ent
ĠT oken
B OO
C loud
as m
65 3
st udent
AN T
Ġli ght
Pri ce
4 55
g ateway
log o
D NEWLINE
Ġhash lib
u di
text ure
se ctions
th at
M R
.. .,
al ty
_ :
d B
k r
q dm
AT OR
Ġ7 1
LO B
ĠDAM AGES
m ass
Gener ic
asse mb
Ġg ive
ĠIndex Error
ĠInitial ize
74 7
z o
len der
^ \
Z G
scri ber
( "")
ĠT ry
Al low
tern ative
Ġtuple s
Ġas k
N X
O C
ĠCh ange
tl b
Ġfile path
qui et
2 13
h g
rite ria
i ang
Ġst uff
= ""
99 3
in voice
[' _
ĠS im
Ġon NEWLINE
H t
MA IL
2 88
Ġres olve
lo pen
de pendencies
ar ing
Ġcol lect
im ing
i prot
de cor
29 3
2 33
S ta
Ġmap ped
un gen
U ES
LIC Y
co verage
b NEWLINE
Ġin data
C s
Ġif NEWLINE
' ve
" ',
Ġreturn NEWLINENEWLINEdef
Trans action
Ġc ut
String Field
ĠFalseNEWLINENEWLINE NEWLINENEWLINE
TE MPL
89 8
connection s
cor pus
Ġlate st
Ġfil tered
re main
sens itive
ĠIN CLUDING
ĠExample sNEWLINE
R X
Z T
l k
DI S
Ch ain
load ing
le ave
Ġannot ation
D ATE
mut ation
sig moid
Ġoutput NEWLINE
> |
49 4
D rop
VI DED
m r
34 3
Ġb rowser
Ġurl parse
plo ts
Ġattemp t
Ġ er
Un able
S cope
g res
man agement
F ull
li hood
Ġcre ation
in ja
Ġlin eno
Su ite
ile nt
R PC
U i
file NEWLINE
g Y
arg types
tra de
ĠN T
inte gr
Max imum
format ter
ha lf
F Q
L AB
Ġcom ments
back ends
J son
Ġsize NEWLINE
ĠGener ate
se en
ri cal
vis ual
ve red
Ġone s
S PE
or i
39 3
he st
ode s
Ġnot ification
Scen e
C md
An not
ffi cient
AT IN
m ant
b ine
g ray
Ġco efficient
ĠDe vice
w ers
phab et
ren d
n NEWLINE
P air
ro bot
[ [
ĠD escription
Ġvari ous
N B
Ġserial ize
Ġs lim
de mo
to k
LE S
M AL
48 9
ime r
al ipay
Ġf c
rand n
ER T
ffer o
u y
Ġcomp ile
back ward
LE VEL
>>>> >>>>
Ġ""" <
ĠN AME
ri ces
trace back
75 7
b el
Ġco ord
IN PUT
NO DE
te ch
temp erature
ĠA ffero
W B
S ync
None NEWLINE
M X
Ġg tk
Ġc nt
=[ ('
or NEWLINE
| ',
time zone
IS ING
45 8
or a
ĠSH ALL
at al
ST RE
o ser
Ġtrans lation
Ġalign ment
ch ase
B LYPD
Ver tex
p al
WI SE
ac le
i NEWLINE
Ġres olution
cap s
C lick
Ġn u
NEWLINENEWLINENEWLINE from
ĠS hould
In dent
NEWLINENEWLINE NEWLINENEWLINEclass
ad mir
gan ization
] ",
Ġfile sNEWLINE
H D
Ġchar set
ĠW HE
pay ment
Ġcon sole
NEWLINE try
con firm
value NEWLINENEWLINE
Ġre ceive
fin ite
Ġwho se
1234 56
Ġb al
Do uble
aa a
ĠIP v
E Q
N AL
Const ant
U PDATE
ILE D
er NEWLINE
jo y
Ass ign
ch art
ĠPRO VIDED
x l
w ater
ass oci
44 4
ĠAdd ress
For ward
Ġne ighbor
un ion
sk y
ĠL ay
Ġstar ted
ra b
Ġbo ot
Ġo uter
Ġde ploy
I K
Ġde tect
F ixed
clean up
im gs
Ġimage NEWLINE
Ġone NEWLINE
... )
rack ed
Ġlog s
A w
at tack
Dist ance
55 5
Cho ice
Ġs pi
fra c
"] ','
ce ler
Ġca use
e th
NO WN
ns ure
Ġ201 0
Ġbound s
R ender
F K
Z h
Ġget s
vector s
H igh
Sk ip
ĠSe arch
int ain
pre view
Ġc andidate
(' ')
Ġpat terns
Ġprob ability
exec ution
Ġep isode
e led
one y
ĠĠĠĠĠĠĠĠĠĠĠĠĠĠĠĠĠĠĠĠĠĠĠĠĠĠĠĠĠĠĠĠ ĠĠĠĠĠĠ
Ġconfig ured
st an
Ġlis tener
Sy mbol
D J
R P
GE NER
ble ms
c um
u om
li me
fl u
ĠR et
x Y
ĠPer mission
Ġ joint
Ġcorrect ly
Process or
dic ator
Ġto ols
Do es
66 3
ĠTest s
]? [
ĠP ost
ĠB atch
Ġl l
CRE ATE
ĠM in
32 1
Element s
k ill
Ġwho le
>", "<
s ale
ĠIn stance
RE SP
Set up
Ġquery set
Ġc ast
AMPLE S
te ll
m NEWLINE
Ġap pear
ĠHO LD
gener al
? ',
Ġ201 1
ĠLI ABLE
to gether
be am
ĠS w
Ġcal c
__ ',
Ġent ities
Ġad v
u er
i co
Struct ure
Ġ[ {
p NEWLINE
Ġm ouse
cla use
li a
Class ifier
ĠS IG
ER Y
T si
Ġp ers
} :
')]) ),
sw ap
in place
Ġb and
Ġg r
V o
Re direct
m ime
ch en
Ġres pect
ĠAR ISING
separ ator
Ġsp an
ĠDe lete
ĠM IT
M UL
ON SE
sub class
Ġat tack
Ġb b
Ġ" $
lo pe
se quences
w f
place ment
a ign
Ġtransform s
BAND WIDTH
Ġre store
Ġ ;
En vironment
ĠP ass
... ')
E th
Ġnormal ized
T ick
Time stamp
PO LICY
of s
Ġgener ic
F H
Ġarg v
ĠWHE THER
ĠSe quence
re load
T UR
Ġformat ted
D river
Q Size
w m
18 18
quant ity
P lay
li text
') ):
IP v
par ty
ĠCONTR ACT
MESS AGE
en ario
V G
File name
Ut il
Ed itor
Ġg c
ĠSM ALL
: ")
P open
Net Device
go al
Ġp ag
fil tered
/ .
} (
T D
ĠSe ssion
Ġvis ible
C AT
t unnel
lic a
ce eded
ĠVi ew
u da
([ ('
ĠKey word
j d
An y
Ġsupp lied
l ugin
2 74
} ),
Ġn args
rypt o
si x
: (
Ġe v
Type NEWLINE
lat form
el low
df t
CC ESS
w ind
ĠEX PRESS
PAR AM
Back end
Gui de
ffff ffff
rag ma
Ġe t
Ġad just
False NEWLINE
Ġ ĠĠĠĠĠĠĠĠĠĠĠĠĠĠĠĠĠĠĠĠĠĠĠĠĠĠĠĠĠĠĠĠĠĠĠĠĠĠĠĠĠĠĠĠĠĠĠĠĠĠĠĠĠĠĠĠĠĠĠĠĠĠĠĠĠĠĠĠĠĠĠĠĠĠĠĠĉ
Ġ ĠĠĠĠĠĠĠĠĠĠĠĠĠĠĠĠĠĠĠĠĠĠĠĠĠĠĠĠĠĠĠĠĠĠĠĠĠĠĠĠĠĠĠĠĠĠĠĠĠĠĠĠĠĠĠĠĠĠĠĠĠĠĠĠĠĠĠĠĠĠĠĠĠĠĠĠĠĉ
Ġp anel
Ġ ĠĠĠĠĠĠĠĠĠĠĠĠĠĠĠĠĠĠĠĠĠĠĠĠĠĠĠĠĠĠĠĠĠĠĠĠĠĠĠĠĠĠĠĠĠĠĠĠĠĠĠĠĠĠĠĠĠĠĠĠĠĠĠĠĠĠĠĠĠĠĠĠĠĠĠĠĠĠĉ
Ġ ĠĠĠĠĠĠĠĠĠĠĠĠĠĠĠĠĠĠĠĠĠĠĠĠĠĠĠĠĠĠĠĠĠĠĠĠĠĠĠĠĠĠĠĠĠĠĠĠĠĠĠĠĠĠĠĠĠĠĠĠĠĠĠĠĠĠĠĠĠĠĠĠĠĠĠĠĠĠĠĉ
Ġbo ard
s olution
cal culate
S UP
F amily
b iz
Ġtime r
B c
orn ado
H Q
X FF
M g
k m
re ceive
Qt Widgets
O V
Top ic
A ut
p ure
Ut ils
Ġ1 97
space s
T V
SN MP
eps ilon
X V
Ġconnection s
Ġed itor
z oom
SP ACE
M U
Ġ terminal
(' #
face s
Ġ2 04
widget s
z ed
pri me
C lo
' ',
compile r
F ACE
n ick
aaaaaaaaaaaaaaaa aaaaaaaaaaaaaaaa
spe cs
g ri
oper ations
cons umer
ret ch
Ġreplace ment
ĠR andom
E l
M K
ai lab
ĠA ction
sh utdown
ĠF rame
09 1
ĠM AX
Ġt gt
NEWLINE model
Ġmat ched
c andidate
C AP
ĠM et
Ġat trib
ag s
Ġse l
f k
Ġpie ces
tin uous
ge l
Ġequ ivalent
lev ant
Pro gress
ĠĠĠĠĠĠĠĠĠĠĠĠĠĠĠĠĠĠĠĠĠĠĠĠĠĠĠĠĠĠĠĠ ĠĠĠĠĠĠĠĠĠĠĠĠĠĠĠĠĠĠĠĠĠĠĠĠĠĠĠĠĠĠĠĠ
77 3
D G
Ġ1 99
sub plot
Ġ| =
Ġen ough
AC TI
con struct
( ("
add itional
Ġr ng
Ġsy sNEWLINE
ĠT e
O k
ĠCur rent
Ġh params
ĠU t
]\| [
! "
48 5
e y
ri end
Ġclass NEWLINE
Ġb g
Vr fs
Ġbot o
velo pe
Comp ute
2 69
> âĢ
chunk s
Ġdoc s
ĠGet s
in fra
w ho
Y S
sec ure
? )
] ')
iter ation
\ "\
ug gest
non zero
Ġdi v
lis tener
ig rate
ri cs
Ġload ing
ĠĠĠĠĠĠĠĠĠĠĠĠĠĠĠĠĠĠĠĠĠĠĠĠĠĠĠĠĠĠĠĠ ĠĠĠĠĠĠĠĠĠĠĠĠĠĠĠ
ST OR
Ġg ene
AME TER
ur ther
N z
$ \
u ck
R G
Ġen er
Ġcomp uted
sv g
ĠThe y
Ġs in
ĠCO DE
Ġ9 2
D one
Ġre ally
NE CTION
w av
L ines
Ġge ometry
Ġret val
Ġm uch
Ġg reater
par allel
at o
ra c
Ġs mal
ĠFIX ME
LY P
I RED
de tect
P W
Ġindic ating
clus ters
long name
char acter
Ġs s
OP ER
X r
ĠP rint
loc ator
2 78
Ġent ire
sub type
Ġre ferences
on ical
` )
ite cture
=' <
Z H
ann ing
Ġc er
FL AG
mat mul
n k
Ġin p
Ġme t
h df
Ġbool NEWLINENEWLINE
f v
ĠB SD
und o
A RE
Ġpos itions
callback s
1111111111111111 1111111111111111
add resses
ĠLoc al
iv ot
ro ve
ap on
Ġfail s
ĠS TR
T CP
import NEWLINEfrom
Ġsc ra
quest ions
Log in
3 02
p ag
Ġlon ger
Ġtr unc
# \
A fs
Ġde tection
j k
(" .
ite rable
CI AL
Ġrun ner
collection s
ĠB asic
ut ron
date s
S ome
3 05
vers al
riter ion
ad just
Ġp p
ĠCh ar
lin space
53 17
pre cation
Ġcal ler
mus ic
34 56
CHE CK
t age
Ġhapp en
ĠI mple
id a
Ġsy mbols
Se e
Ġb s
or ies
B LOCK
NE D
Ġany thing
Ġin f
E mbed
ĠOTHER WISE
V K
td c
am ing
Ġsub set
Ġ -----
Per son
t gt
() ])
Ġde tected
char set
Un ion
Q i
32 2
Ġdef ining
ex change
document s
fi es
S Z
Ġtrans fer
Ġa m
Ġassign ed
Ġvari ant
inter pol
Ġtime zone
in cip
Ġm c
j avascript
F NEWLINE
f q
> ......
Ġbe am
o ol
',' <
Ġle ave
ar rays
Ġsh a
op rot
o spf
ir ation
{} /
VI EW
sy ntax
mo dify
inte rest
ĠM ain
ailab ility
li o
mit ive
ĠTest Case
W in
ĠDE BUG
Re ceived
z d
bro adcast
gen ce
Run ner
new s
NU MBER
Ġw s
en ded
ĠN ative
v y
Lis tener
27 2
get ter
Ġ" \\
{} )
ST O
Ġsuccess fully
NE L
igab ite
Ġexec uted
ang ing
45 45
ph rase
54 7
er os
ur a
Ġcompat ibility
serv ations
ĠSetChr Pos
OUT PUT
X B
igabite thernet
ro les
ĠS um
q i
at ches
ĠF ilter
assign ment
da e
me ans
Ġpar allel
ild card
86 3
o y
d ocker
Label s
F LO
Can vas
scri ptions
/ #
Ġt p
Ġadd ing
Ġdis patch
out ine
ĠT ORT
D AT
ri ch
)) [
Ġpredi cted
unt racked
k p
19 1
Ġactiv ity
Ġpre vent
iz ard
vis or
N P
ot a
Ġre v
star ted
Ġf ore
Ġth ings
T U
Ġch r
Ġconsi dered
b log
Ġcon version
Ġc ancel
AN Y
L exer
s tem
48 4
K B
U ns
ĠMat rix
Mon itor
K Y
u zz
Ġf amily
sc r
b an
li der
Ġcon t
Ġdataset s
h al
ĠU sed
Ġse ver
V ari
IN DEX
Ġ' $
t une
Ġbase string
a W
ul ly
Ġ* ',
atom s
mat ched
ac quire
e ye
is ten
P lace
T ON
44 5
C lear
Ġ tes
fo ot
Ġg ran
in el
ance s
presen ted
P op
Ġq s
st aff
A NEWLINE
d ong
Av g
m igrations
Bo ok
68 3
Ġcode cs
Ġs pect
qu it
ĠBy te
Ġtrans late
t lene
run db
Ġs uc
S izer
Ġe st
Ġ( ?
P ane
ĠM igration
g ap
} ]
sp litext
ĠD ummy
STRE AM
84 3
num Args
__ ),
O i
assertIs Not
(' ''
Ġ{ :
Ġwrap ped
tlene ck
F ROM
Ġe tree
Ġp g
ae mon
Ġso up
ĠDist ri
V Struct
H z
Ġc ells
55 6
Ad apter
ĠConst ant
Ġin crement
F W
TE GER
j j
b x
ĠM on
are n
St age
Ġf unctools
tensor flow
ta ke
ĠA D
Ex pr
Ġall NEWLINE
Opt imizer
iz able
Ġservice s
ĠF ake
Form s
gt k
SER T
Ġb rush
ĠD ESC
Ġvector s
ent s
Min imum
h old
c g
ag g
ierarch y
Ġa ble
me l
Ġe s
55 9
Ġsq rt
Ġro om
top ics
Ġserial izer
us ic
m aries
hort name
y label
Ġpo inter
on y
Ġj s
Com bo
check er
Ġ9 1
Ġart icle
Ġmessage NEWLINE
ĠBo olean
55 8
Ġf rozen
get cwd
AP H
c ustomer
h am
pred s
IC AL
Ġ[ ["
res olver
\ /
C enter
EX EC
Dis k
Back up
vent ion
([ ("
ĠAttribute s
C ancel
Ġbu ff
Ġwork flow
Q Y
Ġ Ġĉĉ
D n
ĠLO AD
Ġpro mpt
is ation
2 79
ICAgICAg ICAgICAg
So ftware
B LE
Ġimp orted
P ipe
)) ),
Ġas set
ĠNumeric NodeId
leg al
Lib rary
cor r
Ġbound ing
B ridge
wh at
Not ification
Ġindex es
ver ted
Fa ctor
sub set
an sion
K K
inger print
ĠL inux
Ġrequest NEWLINE
Ġs ca
ĠPro tocol
hook s
coordin ates
C LO
constraint s
gra ms
r ar
Ġf un
Ġchar ge
metri cal
Ġlocal s
S ite
CO MPLE
Ġdevice s
split lines
LI G
con tract
normal ized
IS O
Re set
size NEWLINENEWLINE
Re q
Te X
global s
re start
v ative
Ġref resh
; /
Ġb lack
T w
estim ator
R IC
H g
si a
Ġinstance NEWLINE
Ġx s
Ġn or
ĠCo unt
seg ments
b z
parser s
Ch ip
t abs
Ġse lector
E TH
la m
q ty
ĠN ormal
iss ues
I ES
sp am
Dele ter
05 88
pack ets
in crement
b old
Ġcategor ies
stru ctions
Ġt qdm
S creen
pro tected
Gener ated
iz ar
pre trained
session s
ĠF l
Ġindicate s
at i
qu is
local s
Ġ lab
L ight
Ġchunk s
Ġrelation ship
Stat istics
pt ime
Ġmask ed
Ġth ing
be at
NEWLINE i
Se lected
ĠW ait
'} },'
io dic
Ġ2 06
Ġm ut
../ ../
G PL
BB BB
ĠI dent
Ġdiffe rence
in ct
C ar
+ (
_ \
fo x
am os
Ġar c
bound ary
ĉĉ Ġ
. '''
sche mas
44 3
cre ator
Ġcan vas
en crypt
time NEWLINE
pe ak
Ġli ter
an cy
ĠL ib
'' ",
Ġstate NEWLINE
IL D
y thon
im show
Spe ed
tmp dir
ma le
Ġinclude s
UU ID
un link
x label
Ġun less
200 7
Ġargparse NEWLINEimport
G RE
74 3
ĠM ust
ĠSh ow
B al
Ġinitial ized
Ġt aken
work space
ge red
L F
49 5
he alth
In voke
t NEWLINE
Ġflat ten
As sert
hour s
P ub
b or
IN VALID
Ġ ################
fra ction
Ref Count
2 66
S core
~~~~~~~~ ~~~~~~~~
G u
TIME OUT
j p
DE F
assertIs None
Q ual
Ġun signed
ĠD on
Ġb us
Lo okup
python NEWLINE
velo per
Ġclass ifier
ĠO K
Ġset uptools
NEWLINE stage
iv ing
co okies
ITE M
err no
k d
........ ........
C i
ro uting
AB C
49 8
ache d
Ġpro ps
m ongo
file names
sens or
= """
set Level
Ġm i
ĠC l
== "
St ub
Ġ jobs
e very
NEWLINE patch
En code
li day
(_ ('
MO DU
q n
Ġme mbers
Ġcop ied
ick ness
Ġab stract
H and
49 3
Se cond
Q uest
mask ed
36 00
v an
g igabitethernet
M s
on om
cri be
)) *
RESP ONSE
s ampling
ĠT uple
LE N
. "),
TEMPL ATE
Ġp kt
circ le
Ġen c
g uid
Ġ2 02
35 3
Z ero
'} },
insert ion
ĠK EY
cal lable
x ies
A ST
Ġconfig ure
Tag s
ORD ER
im ate
a ma
Ġa ux
ten v
ĠC loud
Ġro bot
M AT
Ġcon volution
O ther
ra ps
info s
I y
T OP
Ġe c
he at
to o
t atus
Valid ator
RE N
59 8
ĠCom ment
Ġout side
Ġpack ed
A Z
Auth entication
Ġ2 07
AR GET
Ġcomple ted
Sign ature
s mooth
Global s
Ġa ug
Ġdef ines
dir NEWLINE
} ")
sq lite
Ġac ross
map ped
b la
rest ype
Path s
Error NEWLINEfrom
ce il
L V
Ġtemp orary
ĠTHE NEWLINE
sp awn
k at
L sp
In line
Q V
Ġf la
ĠSe lect
ata ble
az ure
su ch
transform s
IIIIIIII IIII
Ġcreate s
Ident ity
={ },
code NEWLINE
NEWLINENEWLINE for
st ick
cap acity
C ir
u j
), ()),
V ert
Ġ-- -
idx s
ĠR O
d v
it i
L iteral
TO DO
Ġc are
S cal
ĠApp le
un ce
L ow
NEWLINENEWLINENEWLINE import
Z a
w ik
ve y
Ġde pendency
([ ],
Ġassign ment
Ġ ################################################################
stat istics
p laces
B ig
Ġle x
. +
Ġco ords
Ex ternal
Ġnumber NEWLINE
ca mp
Di ff
25 1
Ġas ynchronous
g ust
Ġrun s
H V
PRO CESS
Iter ation
P t
UT C
limit s
k ur
I j
Ġmer ged
sim ilar
Ġex tend
Inter rupt
Ġcheck ed
ĠF ade
ĠPRO P
Ġ6 00
im s
ss ue
Q y
), "
Ġres idual
F tdc
ĠGuang dong
LE ASE
T W
ĠP IL
AP IT
T G
auth entication
F o
chan ism
com munity
MENT S
ser ted
09 09
IN V
ad apter
STOR AGE
ĠPy Qt
in strument
r w
com munic
x m
Ġformat ter
(' ',
ra vel
O X
Ġ@ @
ĠM ay
cre ation
ci dent
Ġclass ification
Not Exist
EX P
Run ning
54 6
ĠL ink
ĠW ith
vers ity
C AS
5 37
F AB
i ence
equal s
i ser
de serialize
g is
multip ly
Ġd ns
` \
Ġdoc test
Re stri
Policy Class
ĠS ER
Ġsh all
Ġs ol
present ation
nt h
Ġ lic
Ġ& &
ca lendar
g iven
obj s
LI MIT
Ġ4 04
S ig
Simple RefCount
or ph
su ally
Ġlet ter
ma k
R x
Ġ[ %
q r
Ġt t
ĠPro duct
Ġstart s
st a
i y
H G
ut ral
vi ation
, [
Positive IntegerField
h id
S GI
Serial ize
ol ding
min or
TI CE
Ġp aper
ĠS P
pe g
ĠH andle
Ġr s
A IL
cla imer
s ound
web site
iv o
m V
query set
<< <<
Ġw on
Ġ ĠĠĠĠĠĠĠĠĠĠĠĠĠĠĠĠĠĠĠĠĠĠĠĠĠĠĠĠĠĠĠĠĠĠĠĠĠĠĠĠĠĠĠĠĠĠĠĠĠĠĠĠĠĠĠĠĠĠĠĠĠĠĠĠĠĠĠĠĠĠĠĠĠĠĠĠĠĠĠĠĉ
Ġ ĠĠĠĠĠĠĠĠĠĠĠĠĠĠĠĠĠĠĠĠĠĠĠĠĠĠĠĠĠĠĠĠĠĠĠĠĠĠĠĠĠĠĠĠĠĠĠĠĠĠĠĠĠĠĠĠĠĠĠĠĠĠĠĠĠĠĠĠĠĠĠĠĠĠĠĠĠĠĠĠĠĉ
Ġ ĠĠĠĠĠĠĠĠĠĠĠĠĠĠĠĠĠĠĠĠĠĠĠĠĠĠĠĠĠĠĠĠĠĠĠĠĠĠĠĠĠĠĠĠĠĠĠĠĠĠĠĠĠĠĠĠĠĠĠĠĠĠĠĠĠĠĠĠĠĠĠĠĠĠĠĠĠĠĠĠĠĠĉ
Ġ ĠĠĠĠĠĠĠĠĠĠĠĠĠĠĠĠĠĠĠĠĠĠĠĠĠĠĠĠĠĠĠĠĠĠĠĠĠĠĠĠĠĠĠĠĠĠĠĠĠĠĠĠĠĠĠĠĠĠĠĠĠĠĠĠĠĠĠĠĠĠĠĠĠĠĠĠĠĠĠĠĠĠĠĉ
ex tended
Ġt au
>, <
HHHH HH
Ġc red
N y
Ang le
MUL TI
Content s
Qu ant
ir ror
t ot
Ġr ather
sp in
S r
w v
sc ra
Ġend NEWLINE
Inst all
Ġr gb
59 5
g id
clean ed
(" !
r ho
admir ation
>', '<
ĠHOLD ERS
Y PE
ĠT ree
D ER
re cipe
Ġuse NEWLINE
Ġend NEWLINENEWLINE
remove d
RE C
Ġclo ud
(( (
CONT RO
Ġ( {
over lap
rou ped
Ġp en
M ON
Ġover lap
Ġd uplicate
Ġpass NEWLINENEWLINENEWLINEdef
sym metrical
Ġo sNEWLINEfrom
s us
len s
Ġ xb
Ġro ll
h int
ĠG tk
kw ds
Ġerr no
ĠA CTION
de sign
H i
Check ed
Ġiter ations
if ul
mark et
Ġener gy
LO CAL
) "),
; ':
in herit
Ġ" ":
ĠS U
Ġepoch s
End point
Ġcount ry
A z
art ist
TransientPolicyMap Type
Ġ' |
FI ED
ib Builder
Se lector
R S
26 2
g ain
M ultiple
sh ard
27 27
m F
r ating
comple ted
Ġbl ue
li e
op ro
> """
response s
6 12
A i
A J
; '
ĠU RI
ca ffe
ĠG ET
h k
PolicyMap Bg
icro soft
ĠNotImplementedError NEWLINENEWLINE
T B
IN IT
/ ",
ĠCon text
c nn
{ %
Ġplugin s
59 3
a us
n as
Ġevery thing
Ġcompat ible
Ġpro cesses
ĠS SL
Z V
C NEWLINE
Ġs lug
d ating
in ception
M aterial
z u
( ",
R MT
process ors
Ġuser NEWLINE
SE QU
' (
Ġerror NEWLINE
def s
45 4
U F
Ġqu eries
Ġvert ices
p ull
ĠSk ip
Event Infop
ph y
scal ing
ST EM
ĠP ort
At tach
me nd
ID s
Ġh alf
Policy Event
Ġmulti processing
Ġmo v
To ols
PolicyEvent InfoBg
48 7
P ixel
Ġpre trained
Ġsens or
Class Infop
ĠT urn
al ler
Ġcheck ing
work ing
amb da
AD DR
PolicyClass InfoBg
Ġde coded
b ill
Ġr untime
cu it
Ġsuccess ful
owns ample
b ian
an chors
EN ABLE
domain s
ĠAc cess
Ġp lain
n w
We ight
T ED
Ġle arn
: <
data NEWLINENEWLINE
Ġbase s
W PBED
sub scribe
Down load
Ġs izes
EV T
58 5
track er
I g
28 0
Ġtemp erature
Ġ' &
P g
Ġf act
aut iful
Ġnode NEWLINE
deg ree
55 4
writ ten
De coder
m ust
class ification
76 3
G Q
W X
Ġglobal s
inet ics
co ef
Ġinst anti
Ġor g
l ator
Ġge o
du cer
vide os
IS H
ĠCo unter
S urface
ct ime
mag ic
H Y
Co okie
po ses
C k
ul k
Ġde limiter
ann ed
ili o
Ġf urther
assertIsNot None
() ',
': [
D om
F il
w as
Ġph i
Ġresponse s
Bit Field
Ġmap per
ĠE xec
lock ed
tick s
Ġim mediate
C e
an cer
at temp
Ġname dtuple
K S
Ġhere NEWLINE
Ġc e
s he
Ġcm ds
set item
ĠTh read
F X
g al
r h
res ume
ĠU SA
ch rom
d ro
ub er
{} .
Stats Hist
in ventory
Ġt y
Ġre peat
F J
Ġperform ance
match ing
Ġappro x
Ġn umeric
ver b
up ported
mon ic
Ġcho ose
6 17
I o
Ġcomp iler
CU MENT
B NEWLINE
reg ions
W M
Ġz eros
ang ular
Ġplace holder
ner gy
ĠAc count
p ic
64 0
bit rary
x is
ĠCal culate
le y
arg er
char ge
ĠM ac
) >
Ġto k
ew idth
Ġst o
SI GN
ĠEX AMPLES
V S
EXT EN
Ġstat istics
ĠJ iang
98 7
Ġ'. '
ĠĠĠĠĠĠĠĠĠĠĠĠĠĠĠĠĠĠĠĠĠĠĠĠĠĠĠĠĠĠĠĠ ĠĠĠĠĠĠĠĠĠĠĠĠĠĠĠĠĠĠĠ
ab out
ĠĠĠĠĠĠĠĠĠĠĠĠĠĠĠĠĠĠĠĠĠĠĠĠĠĠĠĠĠĠĠĠ ĠĠĠĠĠĠĠĠĠ
Ġread y
() }
Ch unk
Ġn an
T ip
OP EN
sub mission
Ġto day
Ġtrain able
l h
ĠSt ream
D g
ju ke
id name
p as
ĠR el
Th reshold
ĠA uto
OO OO
over load
to ggle
termin e
=' /
B UT
D a
ad mi
Ġspecifi es
R Y
99 2
Ġre tain
grad s
i ans
28 1
FA ILED
d on
ro ck
)* (
fi d
Re al
Ġcomp arison
() ['
vide s
Ġs at
: ')
case s
Ġres ize
Ġde ns
P ACK
ĠSt andard
IN CLUDING
25 49
PAR AMETER
59 7
Ġv NEWLINE
pa use
ss ib
Met ric
G J
fe ats
58 4
R AY
K ind
Does NotExist
Ġconstraint s
GR APH
ref lection
T Z
Ġdis claimer
ĠRedistribution s
+ /
Act ivity
DW MP
pro jection
fail Unless
ty p
h m
NEWLINE GL
Ġs ampling
SC SNMP
SCS MP
rmt ree
t re
Ġtrans ition
Pick le
ĠC re
sm art
NET WORK
assertNot Equal
Ġ-- >
Ġ" ''",
Y i
c w
XXXX XXXX
Ġre actor
ĠForm at
add on
Ġ{ :.
un used
35 2
a co
DDDD DDDD
c ritical
Pre view
Ġf ew
rad io
dimension s
Sy ntax
id le
c pp
Message Box
!! !!
lo ok
24 1
la ps
& \
Ġinitial ization
l Z
row n
Ġlook ing
LU E
percent age
DE O
k om
TH ON
ph oto
B h
B IT
d xs
Ġpro jection
v f
METH OD
sen tences
Ġinformation NEWLINE
I AL
Ġwe ek
AD AP
Ġretri e
66 2
Ġsign ed
U sed
Ġp ragma
âĢ Ķ
} ],
Ġbin s
Ġid NEWLINE
Ġlog ic
lib s
ue l
Ġm ibBuilder
CAC HE
ad tz
f ront
head s
sub scription
P j
i ro
I J
Ġcat alog
Ġdig its
Ġt ail
w an
Ver ify
url NEWLINE
Ġargument sNEWLINE
) |
Ġ' =',
Ġe NEWLINE
Ġw atch
N L
Ġs r
gradient s
organ ization
ĠAdd itional
Ġexec utable
y ield
b v
Ġcons umer
B AD
Ġ ht
D ense
par k
fi xtures
ĠT ech
D M
Ġsq lite
attach ment
Y y
an juke
Di ctionary
order s
di ce
g ather
ob ile
Ġcode NEWLINE
89 6
ut ter
presen ce
( ""
Ġp df
dd d
dis connect
ĠApp lication
go ing
un squeeze
(" _
ĠM ib
86 7
Ġmo ving
group by
ĠD T
exp lo
Ġlevel s
Ġprob ably
Ġnot ify
on ic
de ad
mbo lic
de ps
Ġg uess
Ġs sh
Text s
NEWLINE html
fe e
pri se
Ġla unch
75 2
Q S
er ing
Ġt ax
Ġ_ (
function NEWLINENEWLINEimport
ĠData set
' [
ck pt
', )
medi an
Trans fer
h uman
f lo
F ore
IIIIIIIIIIIIIIII IIIIIIIIIIIIIIII
Ġr hs
Ġc ipher
Ġb el
com men
ost on
S an
Ġf o
bot h
NEWLINE X
ro is
Del ay
fri end
comple tion
Ġre view
A SS
> ']
* ',
ĠF a
cha fe
Ġm ass
44 7
Ġs yn
M achine
45 7
C opyright
BU FF
n av
mo v
Ġcode s
ĠV AL
ĠB ar
FLO AT
ur on
D yn
F ocus
Ġmark et
ĠOr der
dxs chafe
si tes
Ġb one
Ġindex NEWLINE
Ġg reen
Ġ2 05
ali ases
C J
Not ify
=' %
Ġc f
Ġexact ly
Mo difi
Ġret NEWLINENEWLINE
ĠB in
tick et
ĠInter face
F M
DE VICE
ĠAb stract
ĠPO ST
CA DE
Ġa ff
u it
ab o
b rowse
Ġf lip
ĠB ad
ĠGener ic
Ġtensor s
et ree
Gener ate
Av ailable
Mpls Te
' %(
Fe atures
Q O
ass is
cle tic
pk t
Ġlis ten
} ))
Ġsub net
offset s
r ink
Ġden se
Ġ% }
button s
Ph one
ri ck
64 2
Ġi r
STOP WORD
* ,
Ġ1 93
diffe rence
K G
Default Deleter
re con
Q X
Ġproper ly
) ==
Ġtext NEWLINE
B undle
=' '):
Ġh old
anon ymous
Ġclean up
gle xt
avig ation
n om
mp Tunnel
Se c
in voke
ĠNone NEWLINENEWLINENEWLINE
C la
x FFFF
u u
ĠR o
ĠP lot
79 2
config ured
NEWLINE E
inst alled
h b
sc atter
to oth
Ġ""" )
unc p
Ġc lf
Ġdi rs
CONT ENT
% \
ĠĠĠĠĠĠĠĠĠĠĠĠĠĠĠĠĠĠĠĠĠĠĠĠĠĠĠĠĠĠĠĠ ĠĠĠĠĠĠĠĠ
C ertificate
Ġresponse NEWLINE
Ġ1 96
S f
p itch
Ġreturn ing
type NEWLINENEWLINE
J O
G r
re pos
Ġused NEWLINE
we ak
tod o
ĠP lugin
ĠA rt
Ġgran ted
code c
c z
T N
fra gment
p od
Ġp ending
01 11
comp ressed
Ġg pu
In sert
Ġwhite space
Ġa mp
p db
Web Kit
ri eve
man age
Ġs l
Ġin place
multip lier
c ube
Ġe mit
Ġgo ing
ĠT IME
Ġinterpol ation
H P
find Widget
Ġexplicit ly
L y
Ġ| |
ĠDe cl
st m
D V
st ands
in ted
Ġre dis
Ġ1 94
B a
) `
B and
M EN
tan h
mir ror
de letion
ĠVer ify
ĠD own
Ġk lass
S ch
ĠDocument ation
8 03
abstract methodNEWLINE
__ :
dae mon
Ġman ually
Ġman ifest
: ].
=' ')
85 7
d ar
ĠS ize
he m
Ġ ke
59 6
ch dir
Ġm icro
Ġp db
Ġhost s
check sum
_ "
age s
d ur
Back ground
Ġlo sses
D ropout
bo b
A O
Ġc riterion
Ġno se
De code
b ing
Per form
or se
Ġs he
Disable Collision
Ġresult ing
uro pe
Key word
AD J
(" {
ĠEx tension
ME DI
c ms
me try
" {
Ġnode Name
h ub
teri or
H N
Al ter
RO W
( <
Ġpre p
b ag
fb d
C at
Ġali ases
A j
[ _
55 7
Ġro spy
Initial ize
ĠPo licy
U tf
al bum
ob servation
P ublic
ĠS UB
serial ized
ject ory
27 0
k h
pro cesses
AT URE
ci pher
Sc roll
proto c
Per iod
i ou
p ir
ut ors
So up
ci se
Ġspace s
u ator
d up
De pth
Ġstd in
Ġat t
m w
add Callback
Ġ| \
Ġde cor
49 7
Po inter
Ġo l
>...... \
e ther
Ġre start
SE G
l ations
ren derer
Ġident ify
I Q
Ġdistri bute
bu y
RE E
PASS WORD
Ġe as
Ġinteger s
LOB AL
D iv
ĠA WS
44 2
Ġmodifi cation
co lour
ĠI ter
v endor
Ġpo se
NEWLINENEWLINE entry
NEWLINE f
tens ity
TO O
Ġ2 38
G l
45 3
SU CCESS
x z
c lf
ID D
Ġgo al
ag gregate
Ke ep
NO RE
e in
,, ,,
cond itions
ĠF ire
de scribe
J S
A MP
or ientation
Ġgener ation
DO MAIN
L ANG
sp atial
er ce
65 2
Ġread s
D h
Ġbegin ning
min ute
C d
Ġbyte array
Ġhandler s
Ġdivision NEWLINEfrom
tra st
ĠNO TICE
Ġs mooth
S hell
'] =
af ari
Ġdoc string
ĠG iven
ĠT ABLE
01 00
ĠT op
ĠAssert ionError
D uration
loc ate
ist ant
e u
s ince
ĠB U
Ġmay NEWLINE
Ġ13 88888888
led ge
W ITH
Ġfin ish
cs PropertyMeta
Ġse ll
ule r
Y z
v ul
M W
gu ard
x k
a mazon
ĠData base
ĠCreate s
vn ic
p Z
ca ption
Ġd om
ĠS ORT
H L
Ġm agic
[ @
ment ion
ĠB oston
spe ction
yp ot
: /
Ġd p
c atch
n ic
Ġch art
('. /
cogn ized
] |
T rigger
sl t
ann o
s alt
host Ftdc
F P
crypt o
B d
ĠV is
RE GI
qu eries
x html
Up load
Ar ch
Ġc lock
Ġcer tain
alle ry
\\ \\
Ġformat s
TL S
E G
Ġm ol
ci a
Ġin verse
b k
e ss
56 7
Valid ationError
Ġb r
Ġtext ure
F ill
ip pet
tensor s
Ġorder ing
Z ip
NEWLINE D
sp ot
de cl
TUR N
VIC ES
ra pi
F n
i h
u dd
ĠC APIT
le ting
Ġvis ibility
5 000
Ġconsi der
Ġn t
58 7
ĠM agicMock
ME M
res se
Ġshow Indent
Ġ tex
it a
Default Vrf
Ġdatetime NEWLINEimport
go v
w r
EE E
H C
Ġtrans formation
ĠNote sNEWLINE
Ġde li
]) ]
Ġb undle
Ġcor pus
literals NEWLINENEWLINEfrom
m ute
Q W
vi te
inter p
ĠE nsure
function al
46 7
Q T
37 2
N ni
#### ##
Inte gr
Ġ1 95
Ġrandom NEWLINEimport
. '),
13 01
Ġurl s
ĠCAPIT AL
Ġ2 03
u o
li ch
Ġ'- '
Ġpo tential
in verse
white space
ENT ER
Def ine
Ġpro duction
Ġpl ane
key NEWLINE
i cons
Ġdirectory NEWLINE
S ID
de precated
Ġhigh light
check ed
############################################################################ ###
ome tri
w ire
ĠDis play
Ad am
e lect
Ġst udent
ol ation
modifi er
parent s
ĠBE GIN
loy ee
Ġm k
p ot
FAB RIC
B w
NEWLINENEWLINE NEWLINENEWLINEdef
y i
S i
ĠS end
fi len
Z K
ater n
= <
ĠT ra
Match Infop
Ġmay be
ĠSy ntax
, _
e gg
200 1
Ġpol l
CLI ENT
============ =
ced ure
r pn
y d
Ġ ĠĠĠĠĠĠĠĠĠĠĠĠĠĠĠĠĠĠĠĠĠĠĠĠĠĠĠĠĠĠĠĠĠĠĠĠĠĠĠĠĠĠĠĠĠĠĠĠĠĠĠĠĠĠĠĠĠĠĠĠĠĠĠĠĠĠĠĠĠĠĠĠĠĠĠĠĠĠĠĠĠĠĠĠĉ
Ġ ĠĠĠĠĠĠĠĠĠĠĠĠĠĠĠĠĠĠĠĠĠĠĠĠĠĠĠĠĠĠĠĠĠĠĠĠĠĠĠĠĠĠĠĠĠĠĠĠĠĠĠĠĠĠĠĠĠĠĠĠĠĠĠĠĠĠĠĠĠĠĠĠĠĠĠĠĠĠĠĠĠĠĠĠĠĉ
Ġ ĠĠĠĠĠĠĠĠĠĠĠĠĠĠĠĠĠĠĠĠĠĠĠĠĠĠĠĠĠĠĠĠĠĠĠĠĠĠĠĠĠĠĠĠĠĠĠĠĠĠĠĠĠĠĠĠĠĠĠĠĠĠĠĠĠĠĠĠĠĠĠĠĠĠĠĠĠĠĠĠĠĠĠĠĠĠĉ
Ġ ĠĠĠĠĠĠĠĠĠĠĠĠĠĠĠĠĠĠĠĠĠĠĠĠĠĠĠĠĠĠĠĠĠĠĠĠĠĠĠĠĠĠĠĠĠĠĠĠĠĠĠĠĠĠĠĠĠĠĠĠĠĠĠĠĠĠĠĠĠĠĠĠĠĠĠĠĠĠĠĠĠĠĠĠĠĠĠĉ
sent ry
26 1
Ġst ock
speci fied
Ġre cur
Ġloc ations
Ġr bridge
Ġin line
iz ations
Ġt ol
q p
categor ical
Ġp c
uplic ates
m il
re use
89 5
relation ship
ol ated
mo vie
Align ment
Sh ared
c df
par a
ĠEn vironment
y r
xx x
IBUT ORS
89 4
% &
Ġmask s
Ġwindow s
Grad ient
29 2
non ce
D im
i ot
... "
com NEWLINE
Ġ{ {
ĠV ER
html NEWLINE
F etch
H K
REQU IRED
od b
Ġ] ),
Ġ[ ("
A u
! '
P ress
Match InfoSt
in fer
Ġob servation
FR AME
C ALL
call y
b ab
check s
Match Data
Ġto po
al a
ix map
ĠValid ationError
train able
Class MatchInfoSt
35 0
Bl ue
P TION
dis p
Ġt d
Y n
Vis ible
Ġp rom
âĢ Ļ
Ġcalcul ated
' /
sw agger
As ync
A udio
Ġp ress
Ġwhich NEWLINE
S ys
and box
Nni Tunnel
HO ME
, :]
unct uation
B IN
Guide Session
book s
as ing
ret val
t bl
UNK NOWN
h params
per f
di um
Ġstr ategy
Ġsim ulation
as sets
gorith ms
o ct
writeField End
writeField Begin
es NEWLINE
2 0000000
I e
load Texts
ĠR FC
num s
RO P
Ġschedule r
S CHE
BUT TON
Ġ" *
y ou
il ine
V F
firm ware
A LE
Ġin s
gr p
Name NEWLINE
mis s
Bind ing
Ġle af
28 2
Bu cket
d types
mark up
AAAAAAAAAAAAAAAA AAAAAAAAAAAAAAAA
require ments
3 07
') ]],
U sing
co un
ĠStr uct
=" /
k le
Ġsp atial
Q z
Ġp m
ĠF in
th rough
SER VICE
et ter
dict s
Ġcomp ression
( ":
Ġfl ush
H our
4 03
Ġre versed
200 6
board Interrupt
s olve
U l
if ace
Q E
Ġpart ner
Ġf g
lo s
w rong
stit ution
Ġ-------------------------------- ----------------
Ġmo mentum
on to
out ing
dens ity
mor ph
Ġi i
Ġhel pers
NEWLINE This
ĠS m
Ġm m
") ]
Ġs alt
Box Layout
C g
ĠN a
x o
ĠF rom
Ġlimitation sNEWLINE
ADAP TOR
Ġannot ations
A verage
Ġper formed
ĠP oly
sh ake
[:, :,
Ne g
H LA
A ff
d og
v NEWLINE
34 2
Ġre cipient
L K
> "],
sca led
Ġval NEWLINE
ĠEnt ry
Ġembed dings
Ġdens ity
SE CRE
high light
el apsed
th ree
66 0
Ġre fs
sp acing
FFFFFFFF FFFFFFFF
Ho ok
xxxx xxxx
q os
I NET
W orld
Ġl s
W ER
de pendency
Ġse gments
ĠCONTR IBUTORS
f on
ĠAUTH ORS
U e
q c
COMM AND
Ġmin utes
NEWLINE as
con tour
ĠN on
CA SE
N i
Ġh uman
oc c
base line
48 3
Ġto gether
st roke
6 13
Ġ200 8
ib atch
ĠUn ion
36 36
ur lopen
AB ASE
incip al
set Description
M J
G K
Ġmode NEWLINE
for um
w z
Ġback ward
ĠAl low
LO CATION
ĠS ample
M p
f ed
NEWLINE checkpoint
ction aries
apt ic
Ġnew line
Ġtr uth
network s
o e
Ġversion NEWLINE
j b
V m
Ġs low
save fig
ra mid
ĠIn st
H AND
Ġinput NEWLINE
ĠCon struct
Ġn a
do es
CAS CADE
it tle
y u
] ")
pl ural
Ġ orm
N W
Mo dified
H p
ĠU TF
utc now
MODU LE
bar s
S ort
Ġhand led
D imension
p ip
seq s
Ġg s
ĠĠĠĠĠĠĠĠĠĠĠĠĠĠĠĠĠĠĠĠĠĠĠĠĠĠĠĠĠĠĠĠ ĠĠĠĠĠĠĠĠĠĠ
Ġwe ak
PRO FILE
CH O
cal cul
Ġc wd
DE P
DE LAY
Ġresult sNEWLINE
ĠDef ine
capt ure
Ġapp s
00000000 0000
port ion
fin der
ay s
mac ro
Ġdist utils
at qz
sub s
Reg istry
0000000000000000 0000000000000000
89 3
use Name
Ġt or
ĠBy tes
Ġbro adcast
15 38
meta class
ĠS tep
is ing
short cut
normal ization
L B
ifi es
78 2
address NEWLINENEWLINE
in de
ĠW h
ib ration
) """
F w
Ġth resh
dz lu
Ġsimp ly
Con tains
tern ate
over flow
overload Index
Ġs an
ĠIn te
Main Window
s un
en ame
H S
Ġ-------------------------------- --------
ut ine
o h
MP TY
ac er
P hy
e NEWLINE
3 01
fast a
Ġget ting
6 25
C MD
A h
re i
t ions
as n
Ġin correct
ree ment
Ġsy sNEWLINEfrom
Ġother NEWLINE
PROTO COL
linear ity
am ble
Attribute Checker
ase d
} /{
hen ius
dis gust
Ġvert ical
Ġf f
]) ),
Ġvalid ator
ĠUn it
a lect
NEWLINE sys
Ġ200 9
P en
X connect
B us
Vis Size
ĠDESC RIP
t g
K W
Ġk b
foo bar
Ġm ix
sign als
Process ing
cont iguous
ĠT YPE
ĠLa TeX
Ge o
Pool ing
ĠT arget
cons ume
ren ces
Ġp ull
Ġ/ >
R W
S heet
D X
T k
hes is
Q Application
se ll
li fe
DE SC
s uc
ug ht
A tom
ph ysical
ron tend
WIN DO
Ġversion added
ĠCh annel
z ar
Ġs qu
{} _
O spf
} _
on gs
Ġ* /
it able
Ex tended
b ir
[ ...,
ĠG lobal
([ -
bet ween
Ġre cursive
00 05
do o
Ġ"/ "
m ic
A ctions
"] ))
3 12
cho sen
ipe dia
real path
dat as
i loc
Di ag
need s
ĉĉĠ Ġ
fi cation
auth ors
ĠH E
Ġshape s
under stands
bul k
title s
Sup ported
Ġex tended
y l
P c
m h
Ġexp lo
EX CE
M ARK
Content Type
ĠHe ader
3 65
Ġc atch
ĠG PU
pos x
s ad
us ters
T ry
C X
Ġ* ,
squ ares
pre process
N NEWLINE
gener ation
Ġname NEWLINENEWLINE
ĠE ast
J z
ĠCo mple
Ġdir name
To String
Ġsend ing
k lass
or al
Ġco verage
P ush
ENTI AL
as yncio
Ġa ge
mm ar
ĠN ON
s udo
d rive
Ġimple ments
ĠI mp
From String
Ġport s
TE MP
'] ])
ap is
Ġf ully
69 2
AL SE
Ġf ragment
Ġ2 24
reg istration
vers ation
DEL TA
ĠA ns
Ġarg sNEWLINE
De c
vi r
gen ome
ag ation
< \
ĠT EXT
ĠT w
is nan
Ġw alk
T ARGET
ume rical
SER V
inter section
D rag
Ġg zip
Po lice
m ixed
char ac
g ent
Ġp alette
==== ===
N v
Random Variable
ĠC PU
Ġspecify ing
Distri bution
an i
Ġn c
A WS
Ġonly NEWLINE
pub lished
pixel s
ĠG H
T here
ĠLay er
UN I
Me m
Ġfunction ality
Ġcur rency
ĠM ode
Ġge om
Enum Value
Y E
Ġ"" ",
run s
77 2
co dings
Q g
new axis
w allet
Track er
Ġth ird
Sp in
> ?
ak y
tuple s
Ġs g
NEWLINE N
in er
Ġpython NEWLINENEWLINE
M erge
k al
F U
Ġf our
EN S
ĠP R
Clean up
ĠA P
set Enabled
VAR I
ĠW ord
Ġmo unt
ĠBo ol
Ġf ire
In v
Ġ" ".
V B
ĠT F
Ġv ul
Ġreg ard
ĠA UTO
Ġtorch NEWLINEimport
Ġin herit
Ġc map
fl ux
co res
Me an
An aly
ag ne
Ad vert
fun cs
ĠTo ol
cent ral
Ġa ctor
Q m
mat plotlib
Ġwork space
CA ST
;; ;;
St ar
Ġr ho
I l
Ġi x
so up
Ġdeg ree
Ġcombin ed
ffe red
P ayload
Ġobject sNEWLINE
Over ride
Ġacc um
ole obj
b am
bs ocket
str ong
i ters
Ġs pl
Ġbuild ing
Ġout NEWLINE
ĠA L
if th
PR P
Ġformat NEWLINE
hand led
ograph y
lit ude
el t
SECRE T
U C
MO D
CHAN GE
200 5
Ġscript s
Ġvari ance
filen o
lap se
Ex ists
h dr
(' __
s x
Ġre levant
([ ^
c W
pre f
] },
Ġsub mit
Ġla zy
V T
H op
L STM
isten cy
De ferred
Ġro i
d it
ĠS afari
ĠEx p
ud y
U AL
Ġspecifi cation
Ġliter al
33 1
Ġre presented
ma ker
ĠIN TER
ran ches
00 04
Ġp ing
Co st
L j
Ġc mp
Ġunder lying
like NEWLINE
Ġb c
E MAIL
Ġf raction
Ġsever al
ou ch
en di
may be
j ump
lat in
Ġe mb
R J
Invoke Types
K HTML
Ġde sign
F Z
w l
d j
mo mentum
Ġe asy
horizontal Layout
re cipient
Ġs id
Ġcomp any
Re ason
" ')
N h
g oto
Ġr pn
Ġcon firm
Ġpri v
el s
te e
M aster
Ġde scribe
. <
Ter min
U Z
Ġreplace d
son g
hex digest
Ġh aving
Ġpro j
Ġdo ing
_ ()
Q o
Ġpass NEWLINENEWLINEclass
Ġmid dle
her ited
Ġper mit
' >
P X
69 1
Ġsa ver
rit ic
de corator
d rag
############################################################################ ##
: ]:
74 2
Ġr nn
ex tent
ĠE ngine
produ ce
68 1
p rom
at tn
ĠCor por
Ġh ad
pos als
Ġph one
Ġsepar ator
re served
Ġscal ing
Ġ1388888888 9
k Z
ag greg
G X
Ġp laces
Ġcallback s
Text ure
acc um
N H
in spect
able NEWLINE
Ġ\ '
F ast
36 2
ĠT Int
V W
RE P
44 0
Ġ2 14
Ġcheck sum
right ness
App ly
64 1
' ")
asse sNEWLINE
L at
post gres
Ġs olve
Ġdeg rees
P latform
Ġtuple sNEWLINE
Gener al
g old
M ay
ĠM is
Ġren derer
M ASK
Ġvi m
7 03
Fa ke
A m
= ",
sample r
SY STEM
Ġan n
Ġproduct s
au sed
Ġc apture
Ġdescri bed
Ġface s
Ġ14073748834 6
an der
34 1
initial ized
/ ?
pe ople
26 0
Act ivation
count NEWLINE
velo pers
ĠApple WebKit
ĠN S
ĠG PL
BUFF ER
g as
; "
Ġp ip
late nt
ĠL td
Ġname sNEWLINE
_ *
T wo
util ities
are r
Ġor ientation
Ġdebug ging
RE MO
ĠCon nect
NEWLINE sa
m ms
ĠJ ob
ĠS PE
IC O
token ize
Ġun used
th ost
G M
LY NEWLINE
QSize Policy
Ġlength s
Ġdef er
sup p
27 1
Ġre peated
Sm all
re ferences
ĠE mpty
SY S
u fa
Ġraise NEWLINENEWLINE
Ġhandle s
it ized
Ġ' },
AC H
Ġf riend
c andidates
ume n
UB LE
ne arest
de tach
raw ler
clus ion
m time
Ġte ll
Ġr pc
Ġhig her
================================ ================
g x
t one
ĠF oo
Con volution
I mg
mot ion
Ġab ort
ĠNone NEWLINENEWLINENEWLINEdef
ĠD ense
grid Layout
Q K
Ġ2 08
b lo
} -
ĠCON NECTION
tw itter
g v
of fi
Ġtest NEWLINE
al ways
J W
EQU IP
h NEWLINE
App lied
k in
Ġoption sNEWLINE
' (?
cl uding
ĠOR NEWLINE
boot strap
; ":
ĠLoc ation
vi er
up grade
Ġ ĠĠĠĠĠĠĠĠĠĠĠĠĠĠĠĠĠĠĠĠĠĠĠĠĠĠĠĠĠĠĠĠĠĠĠĠĠĠĠĠĠĠĠĠĠĠĠĠĠĠĠĠĠĠĠĠĠĠĠĠĠĠĠĠĠĠĠĠĠĠĠĠĠĠĠĠĠĠĠĠĠĠĠĠĠĠĠĠĉ
Ġ ĠĠĠĠĠĠĠĠĠĠĠĠĠĠĠĠĠĠĠĠĠĠĠĠĠĠĠĠĠĠĠĠĠĠĠĠĠĠĠĠĠĠĠĠĠĠĠĠĠĠĠĠĠĠĠĠĠĠĠĠĠĠĠĠĠĠĠĠĠĠĠĠĠĠĠĠĠĠĠĠĠĠĠĠĠĠĠĠĠĉ
Ġ ĠĠĠĠĠĠĠĠĠĠĠĠĠĠĠĠĠĠĠĠĠĠĠĠĠĠĠĠĠĠĠĠĠĠĠĠĠĠĠĠĠĠĠĠĠĠĠĠĠĠĠĠĠĠĠĠĠĠĠĠĠĠĠĠĠĠĠĠĠĠĠĠĠĠĠĠĠĠĠĠĠĠĠĠĠĠĠĠĠĠĉ
Ġ ĠĠĠĠĠĠĠĠĠĠĠĠĠĠĠĠĠĠĠĠĠĠĠĠĠĠĠĠĠĠĠĠĠĠĠĠĠĠĠĠĠĠĠĠĠĠĠĠĠĠĠĠĠĠĠĠĠĠĠĠĠĠĠĠĠĠĠĠĠĠĠĠĠĠĠĠĠĠĠĠĠĠĠĠĠĠĠĠĠĠĠĉ
l w
us b
88 2
Re served
at an
B ATCH
Ġre cv
Ġcla use
client s
ĠWITHOUT NEWLINE
A UTO
R ATE
Ġsub st
z NEWLINE
Ġb ra
Header s
HI ST
Ġlimit s
i et
(" #
ated NEWLINE
Ġpe ak
d ark
Ġf ar
ĠHow ever
Test ing
o NEWLINE
Ġserver s
Ġas pect
ĠLine ar
INTER FACE
Q w
l bl
Man agement
C amera
T M
Ġh ide
' _
B LUE
Ġdep ending
ri st
list NEWLINENEWLINE
Ġ} }
Ġmaterial s
A cc
V lan
exp licit
G h
IG NORE
cal ler
fl ash
################################################################ ################
Pre di
App end
Error NEWLINE
content types
Ġc ustomer
Ġun ion
and ong
p andas
autiful Soup
th umbnail
Ġ ERROR
pass wd
do or
B M
sp here
HHHHHHHHHHHHHHHH HHHHHHHH
HHHH H
Create s
ĠRe cord
d uplicate
ap ters
For ce
Te am
ub y
Ġc am
com mend
ĠT er
work s
a is
min utes
Ġa ir
onent ial
CT hostFtdc
Ġ[ {"
Mon th
48 0
ĠFade To
. ".
remain ing
5 10
H ub
Sn apshot
cri ter
ĠC LI
=_ ('
Ġsmal ler
eval uation
play list
ĠSet up
(', ')
Ġ'. /
ho le
ĠO pt
ĠS u
res idual
AC TER
00 07
Ġleg end
Ġ2 0000
IC ON
ag ate
7 25
AN ON
lic ations
Ġnoqa NEWLINE
ĠSE LECT
T ran
Ġadd ition
q e
Annot ation
TI nt
as c
rc nn
... \
out ube
,), (
AR RAY
vo te
Di rect
Ġtry ing
trans former
ag o
Policy Manager
Ġli ve
Ġlog ged
Co ordin
se cs
Ġ[ (['
Orig in
ĠI Python
Ġs NEWLINE
GR AM
de sk
ol ar
5 36
NEWLINE test
3 04
ma ch
rf c
Ġin ference
si mp
ad i
Ch at
Ġ ser
S AME
v gg
u ction
Ġno tes
Ġin struction
L NEWLINE
Ġconf lict
Ġtran sp
vertical Layout
74 1
SO CK
ĠIN TO
U K
Y Z
M agicMock
Ġsen tences
Ġ qual
ĠSt orage
} \\
sh adow
ul us
AT H
IN SERT
'] },
utor ial
par agraph
C TYPE
Ġst ub
rid den
Ġr m
Ġcho sen
âĢĶ âĢĶ
NOR MAL
r up
Q k
Ġ' ?
Ġe vt
ach er
Ġmark up
SE SSION
ot or
optim ize
+' _
band width
Sup er
Rel ation
ion e
Ġrot ate
'\ \
Comple x
card s
D NS
from Utf
CA LE
ĠL im
FIN ISH
ĠT hen
ĠA mazon
d raft
Start ing
Ġcontain ed
s se
Ġinterface s
h its
72 1
Re vision
Ġk inetics
+ ')
ĠS chema
F d
id ue
Ġwhen NEWLINE
te ctions
5 33
ĠT ri
Train ing
ĠD raw
Bo ard
Ġback wards
@@ @@
is y
data flow
De claration
min us
ĠSet tings
Mult icast
l NEWLINE
Ġcomp utation
hist ogram
Ġy NEWLINE
A k
un set
S can
ĠD irection
J B
QU ERY
Rad io
Ġag greg
ce le
38 2
Lo ading
Ġ(' <
f re
it u
ber g
vi a
con verter
D ynamic
Ġo cc
Ġl arger
D ig
Combo Box
Al gorithm
R atio
D ummy
C ES
Dest ination
int NEWLINE
Ġc apt
c art
stri des
Ho liday
H w
ĠP e
view er
model NEWLINE
* )
R V
as pect
Ġac cepted
al ter
connect or
Pri vate
in side
criter ion
D AY
ĠM ongo
Ġco lour
g zip
s j
N I
C ross
o led
.* ?
Ġauth ors
ĠH ost
arn a
expand user
set Max
Ġ4 78
n en
Ġreg ression
ld ap
B rowser
E ng
ĠID s
author ized
re ctions
open stack
Ġdisplay ed
con cept
Bit map
Ġ0 1
'] ).
JJ J
Author ization
M b
u h
lt k
protocol s
p res
Bz Bz
LA ST
peri ments
mid dle
Ġl and
Ġch at
driver s
Ġv o
CUMENT ATION
9 89
b enchmark
min i
ĉĉĠĠ Ġ
Ġv struct
co co
ffff ff
Ġc d
Ġlength NEWLINE
u ds
NEWLINEas S
me mo
Ġdi gest
re ceiver
and a
3 32
th ers
fore ign
Ġar bitrary
Ġestim ator
07 69
68 2
ĠU sage
sen ses
D w
L z
comp arison
Ġzip file
Ġmatrix NEWLINE
l z
track ing
Se par
F V
Ġitem NEWLINE
Q n
~ \
ant ial
Temp orary
R s
se m
A ns
enum s
Ġx NEWLINENEWLINE
Q Label
decor ators
d ashboard
sk i
Ġm aking
p wd
39 1
=_ ("
AU X
IN FR
84 7
# :
AS C
precation Warning
B X
F y
last ic
Ġnormal ization
J w
ĠSto re
stru cted
h j
Ġexpression s
Ġ quality
f ork
ĠDi ctionary
lat itude
Ġcons ume
de re
Ġmodule NEWLINE
Ġquant ity
03 19
'), )",
sp r
W i
ard own
WA KE
mp i
56 3
l strip
atern ion
[ ::-
ĠA LL
Interface s
ta iled
Ġvocab ulary
r henius
Ġ/ *
Q G
fla vor
H orizontal
ĠCO MP
product s
]+ [
Ren derer
semb le
Per cent
/ (?
L M
Ġcon tract
Ġat ol
ig ure
ext ras
Ġper m
mode s
ai red
Ġoptim ization
v et
ĠE l
we ighted
def initions
Ġdeep copy
fetch all
Ġle ading
96 33
######## ###
Ġt c
Ġc trl
ĠTech no
ext methods
ĠT E
Ġ200 6
Ġdictionary NEWLINE
v x
C W
trans itions
mp p
P k
U y
mer ged
route s
EN V
m R
00 03
ĠThe NEWLINE
Ġparent s
index NEWLINE
on line
Ġal le
og rad
Ġ quick
Ġadd s
t tl
Ġhere by
29 1
fi sh
path NEWLINENEWLINE
N Z
Ġpop ulate
OO F
Ġfirst NEWLINE
Go ogle
ING E
t rees
Re pository
F s
Ġh orizontal
le ts
tri m
str ptime
88 1
Ġp ts
tran sp
Ġpre c
Ġtoken izer
) })
F it
t ls
N Y
P in
Not Implemented
Ġimport ant
Const ants
) <
Ġst ation
Uni que
ri l
len code
ĠA sian
V ID
co vered
mp ath
ve locity
> /
Ġu sually
ĠPy Js
Ġpol ynomial
Ġfloat ing
ver bosity
as hes
ĠE val
Ġcon cat
: \\
U ST
5 34
Ġaddress NEWLINE
Ġp ow
******************************** ********************************
Ġ'_ '
Ġl d
P w
ĉĠĠĠ Ġ
re call
3 78
a fe
info NEWLINE
Ġan chors
M ail
Exec ution
te re
ib ling
ĠF rank
3 03
Ġshould NEWLINE
= "")
######## ##
D at
Ġport ions
S pect
NEWLINE x
t art
8 02
ph an
ĠPer son
NE CT
E y
F x
K d
Ġsub scription
Ġper mitted
Ali as
retri eve
c utoff
An alysis
Ġprocess or
appro x
TER N
V ol
Ġpre serve
Ġpro g
second ary
C r
Ġextra cted
Image s
um s
H W
ĠR ange
ate l
+ '.
E q
ĠD oc
+ ]
U X
Key Error
Ġcor ner
ĠTensor Flow
Ġl b
Pri ority
G ot
at on
c B
Ġde t
z k
3 15
SCRIP T
V Z
ĠMo ve
Ġe cho
LO GGER
Mark er
Ġ3 50
Ġt a
Ġco okies
stit ute
commen ded
Exec ute
ĠC ar
Ġ""" \
EQUIP MENT
Sup port
Ġo auth
LA IM
link ed
Binary Protocol
like lihood
Con sole
Ġderi vative
ile n
ĠAd min
cu ssion
e i
Ġs li
inter pre
ĠJ ava
ĠLO GGER
with in
ĠKey boardInterrupt
Ġfrozen set
T ASK
L u
Ġn NEWLINE
ĠPro perty
B rush
EEEE EEEE
ĠS ingle
45 0
Ġpre process
Ġu v
B ranch
Ġestim ate
Ġm app
E qu
)/ (
Ġc ss
S CO
NotFound Error
Ġsub mission
S ound
Ġex change
table name
ĠD ec
: [
ĠF loor
is tence
regis tered
SUP PORT
re cur
State ment
76 2
comp iled
3 11
Ġplan es
as is
H u
er ry
ĠPer form
Ġperson s
Ġ ----------------
NEWLINE F
ĠRe f
_ ('
ĠComp onent
Ġsh ard
99 1
ma pp
"> </
ssib ly
b ow
J R
op ener
r hs
NEWLINE M
ĠSpeci fies
Ġp b
style s
Ġre load
raw l
ĠM enu
extra ctor
Ġide ograph
Ġhe at
member ship
FILE S
5 02
v stack
Ġin coming
ĠCON F
" /
ĠT rigger
Ġin serted
Ġ% %
Ġbase name
pat ches
ive d
Ġres net
36 1
A bs
ALI NG
non ymous
C b
St ation
Fin ished
ĠE a
CC SD
Ġpass ing
in dicator
icip ant
Ġc k
ĠExt ract
M Z
Normal ization
INGE MENT
f j
ĠAuth ors
RE Q
Ġdate s
g uess
[ \\
E w
Ġ200 7
Ġsetting sNEWLINEfrom
Ġvariable sNEWLINE
amp aign
NAME S
Ġat tached
ph ys
Ġis o
c G
ff set
x FA
P F
Policy Action
Ġsc roll
re cursive
et y
K T
BO X
re cent
ĠU sing
Ġmin ute
LD ER
S tri
'' ')
Ġ" (('
Ġin strument
ĠC alled
/ +
ar ound
OPTION S
y ellow
ress or
ĠSet ting
00 10
75 1
ĠUni versity
top ology
be i
Ġre cipe
Con verter
Ġoffset s
" )))
out s
NEWLINE r
sv c
and o
) ``
G UI
Ġg ives
start ing
A y
e ven
Ġr tol
ab b
Ġutil ity
sNEWLINE def
i ate
mn ist
requen cies
Data Type
C w
as p
Ġb NEWLINE
Ġ14073748834 59
ĠS ET
FINISH ED
ĠC SV
over lay
re versed
Ġpredi cate
]+ )?
Ġ#### #
ĠR ule
communic ate
Ad v
F lex
ĠC opy
U s
ms gs
ĠST AT
ud ge
Ġmath NEWLINEimport
ĠPar ser
= &
) ._
H a
16 00
mant ic
ĠFalse NEWLINENEWLINENEWLINE
termin ate
Ġz oom
O s
ak a
Ġreg ions
ĠT R
Ġany NEWLINE
poly gon
n cy
at ypes
\$\$ \$\$
ER O
P AGE
78 1
dia lect
SCHE MA
ĠSh andong
Ġ'< /
- ',
P HA
Message s
Ġfil led
Ġlanguage s
Ġlis ted
lo red
ze ug
ob ot
dd y
x w
PRO JECT
extend able
LI B
de m
comb ined
READ ME
/ $',
import s
up s
token izer
TRAN S
c url
NEWLINEB LOCK
Ġwait ing
ĠU UID
Ġt ornado
p ho
se quent
ĠL android
predi cted
g ad
Ġg ain
Act Infop
Se lf
th umb
'] }
ID NEWLINE
Ġre call
tra j
ĠG E
Valid ation
split s
C alled
in ference
W o
PolicyAction InfoSt
Ġideograph NEWLINE
Ġup grade
al arm
S X
ĠAr rhenius
D en
ĠV ar
U G
Ġp ayment
77 1
Ġdatetime NEWLINEfrom
Ġpar a
Act p
Ġm ar
roll back
ĠCon d
c map
ĠA DD
ĠR GB
Ġfilename NEWLINE
P ad
R NN
V s
Ġre name
Ġre duction
00 11
-+-+ -+-+
EnumValue Descriptor
Ġsw ap
ST Y
Ġ( `
Cal cul
Ġag gregate
I q
st ory
Ġlog ical
Dis patch
Ġpoly gon
J u
e di
sl ash
j peg
Protocol MessageType
ĠS ince
and atory
b io
ĠL en
34 0
Ġprevious ly
l sp
ĠIS O
UN IT
Ġl te
54 3
ene my
=' \
SA MPLE
: #
qu ad
Ġma jor
Ġpur pose
ĠF ace
Plan e
dh cp
M H
Me asure
z w
im read
o sed
Ġimp licit
j adz
v ille
ch ie
M u
ACTI VE
Ġcir cle
Rad ius
AL OG
@ _
p alette
Ġcalcul ation
(' {}
Ġiss ub
J G
Un its
S ensor
d ag
ĠB ot
Ġunittest NEWLINEimport
ĠSign al
J Y
Ġd ocker
track s
.) {
Generated ProtocolMessageType
Ġun expected
r sion
length NEWLINE
Ġli k
ĠApp ly
r ss
NEWLINE t
Ġcom ma
medi um
V f
ge tenv
Ġst ick
ch n
Q D
55 3
long itude
w char
co mes
cho ol
E nergy
ĠG it
Ġlayer NEWLINE
am i
QP alette
ĠCode NEWLINE
Co lour
J h
R rc
Ġin c
ĠG P
par sing
','','','',' ','','','','
Ġassume d
Ġre fer
INFR INGEMENT
di vide
d jang
M en
Ġtra iling
Ġcom munic
I k
Ġ3 60
quis ition
ne monic
read Struct
G ateway
Ġorder NEWLINE
Ġh ack
T ex
line NEWLINE
E stim
p si
Wh ite
H ex
Ġd m
Ġsh utdown
ĠFrank lin
R pc
IC S
ĠJiang su
j n
read Field
Ġcom bine
write Struct
mobile Template
ci ency
33 0
M ar
P LAY
Ġcode c
CONTRO L
re ach
ĠClear Chr
K R
file Name
Ġcon tour
06 25
Resource s
Ġd ic
Ġc NEWLINE
Z Y
Function s
V P
ag ers
"] ],
or acle
Ġst m
s cipy
]+ )
Ġf allback
Re st
_ ))
Ġc andidates
Ġdid n
Ġe g
A sia
ĠClearChr Flags
15 00
7 00
od oc
Ġad apter
E H
ĉĠĠĠĠ Ġ
i Y
Ġso und
f ut
data store
Ġpar agraph
Ġtri m
fe rer
iv a
R ack
OR IZ
post s
Ġdef initions
Ġ3 49
! ',
i q
An imation
F f
e ast
Ġin voke
Ġdep ends
S HO
Ġres ume
gen es
spi der
ĠT CP
Ġch rom
ĠSer ial
Ġc en
84 0
Comple te
Ġcon trols
]) \\
Sh ift
Ġco v
we ep
agent s
PRO C
ĠE N
un ary
pe m
Ġread only
Ġel apsed
NEWLINENEWLINE logger
b idden
Ġsepar ated
Ġf ront
Ġwh om
retri es
d id
ĠRe port
Ġ[ _
z n
ar ter
y x
z s
Ġuni form
39 0
38 1
ĠB utton
F r
lo ut
Ġpro blems
Alter Field
play ers
g k
L m
f allback
< !
IE LD
Fa ON
al ized
arm up
Ġf aster
Opt Arg
D ot
Ġdi ctionaries
cs r
sa ver
re wards
Ġde ad
ĠTe am
AP E
M gr
Ġ02 110
Ġd d
Ġpie ce
Des cribe
Ġinitial izes
add Item
Ġrequire ments
pat ient
Ġfont size
Ġhour s
Ġsoft max
cap ital
St d
ĠH o
9 58
ud c
Ġg ateway
R outing
5 04
f ol
l hs
feed back
K ernel
Ġma intain
log ic
$ ",
Ġf ocus
default Named
NEWLINE A
stream s
ane ous
Ġa z
66 1
a udit
dis c
z ation
build ing
= .
! +[
ch t
mb ic
V X
Ġca lendar
sp rite
FUN CTION
Ġimport s
Ġst and
NEWLINE R
ĠM AY
Ġt id
J X
T a
t il
ĠRe quired
ne eded
Ġsetting sNEWLINE
00 33
AIL ABLE
pre ferences
ĠD NS
ĠA pi
Ġst mt
D ark
q m
ĠC ho
Message End
ĠHe re
exec utor
IIII II
') ).
s ink
Ġoccur red
c j
Ġpack ets
Ġd dex
NEWLINE y
IT CH
B K
ĠG UI
Ġre con
Pl us
vis ibility
t al
Ġtick et
fo lio
ĠMib Table
ĠCh rome
Ġiss ues
ad am
E U
or med
ĠBe autifulSoup
B r
Oper ations
c O
T alk
Ġcover NEWLINE
ĠF ifth
tes ter
Un expected
script ors
Ġco unters
Ġth row
Ġwe NEWLINE
format ted
N l
00000000 000000
(( -
Ġ NE
co e
IN TEGER
Ġint ro
expi res
d ry
value sNEWLINE
ĠA SC
Work er
Or deredDict
clo sure
assign ed
ffe cted
head ing
ach ing
Al t
Ġpred s
Ġbind ing
Ġp tr
Ġissub class
AR B
ou te
H ome
Z y
ĠE mail
predi cate
Sta mp
ĠVAL UES
ĠTalk FunctionIndex
ĠTalk ScenaIndex
me ss
Ġde cla
A ck
Ġcl usters
ĠID NEWLINE
ĠGener ator
x u
Ġ' ../
nost ic
Ġab c
return NEWLINE
MO DI
con version
Ġn r
Ġshould n
fo ur
01 96
To One
Ġin crease
Ph ase
ĠFe ature
Ġrange s
68 62
Ġto lerance
pop up
comp ression
Ġchain er
ĠSy mbol
Schedule r
on der
Ġ'{} '
Ġ2 50
pie ce
n os
o i
Ġde mo
pp rint
Ġ2 19
ar ante
al go
35 1
nt he
Ġb atches
Ġman age
h z
ĠV M
di rected
v iz
By Name
ar b
log file
ĠD yn
Ġa ren
S MB
Address Family
b rid
5 32
po ssible
Ġtable NEWLINE
predi ctor
8 01
ir m
Ġserver NEWLINE
GENER ATED
Ġop ener
NEWLINEa x
prefix es
Ġt NEWLINE
Ġpad ded
Ass oci
Ġe igen
012 3456
Ġinter section
con trols
st ic
it ches
tra its
ĠDO NE
Y ear
s lave
de e
ay es
Ġcomple tion
P UB
ang ible
Ġc uda
Fa NN
get Register
Ġndarray NEWLINE
w est
Ġcan NEWLINE
W Q
De v
ve cs
ad or
DAT ABASE
w ill
cred it
() `
ST UB
M ag
Jo in
V A
# ',
L G
ĠMe dia
8 75
POS ITION
5 25
| :
av atar
ort ho
ĠM atch
Fa OO
om an
pl at
Ġth ough
R y
Ġimmediate ly
rel ations
note book
55 2
ĠReg ister
tr unk
Ġatom s
Ġfollow ed
in der
ĠPro file
s av
3 14
ĠT rack
pro posal
N F
ĠC LAIM
rep lic
Ġk ill
google ads
: ("
Ġl as
Ġcheck er
gen et
Ġal ternative
Ġa f
Row s
h om
le e
Method s
Ġ tenant
D y
cor outine
ph ot
EXCE PTION
])\\ .){
ĠT Str
ĠC ache
117 647
J A
C lip
con j
99 0
ĠTrue NEWLINENEWLINENEWLINE
SC SM
Ġa lert
Ġfi xture
assemb ly
NEWLINE n
FI ER
ME TA
Service s
assertNot In
; <
i ra
88 0
16 15
Ġc ity
v tk
set Style
F ALSE
some thing
Ġ lf
Ġthen NEWLINE
Vari ant
HE IGHT
ĠT race
[ %
Ġ ################################
part ment
ĠD er
ĠMax imum
art ifact
ĠF low
Ġit sNEWLINE
R t
Ġs d
ĠRa ise
pass NEWLINE
ĠSoftware NEWLINE
Ġlink ed
up y
73 1
ĠNON INFRINGEMENT
Ġinte rest
>` _
Ġdata store
Ġt ot
Ġwe ighted
ĠC AU
ĠAdd ing
= ?
Ġconfig NEWLINE
Pri mary
Ġmin or
Ġpl us
ĠW SGI
it o
Ġshort cut
sli ces
b ones
z uf
d G
s low
c ub
Ġtra de
Ġs outh
C apture
Ġm l
ĠL ast
Ġto do
an xi
ĠA li
F z
Q Widget
$ ')
Dyn Class
2222 2222
ĠD el
B RO
ĠZ ero
ĠDE ALING
ener ated
setMax Access
At Time
DESCRIP TION
ĠT ex
B W
Ġs heet
V H
] })
Bo ot
el come
K H
. '.
h v
th en
he ap
Ġl ittle
Ġembed ded
Ġo thers
Ġj ump
__ [
Ġans ible
x min
Y es
F ragment
Ġco me
) ['
G LOBAL
Ġcom m
AL LOW
mark down
se x
Float Tensor
K y
y lim
B reak
Con nected
Ġve locity
pie ces
65 1
ĠFl ask
Ext ract
Add Field
proto s
Ġc Pickle
Ġf all
Com mit
s ay
se ason
in h
Ġdi alect
U Int
O U
ĠA RE
Ġiter ate
xt ick
Ġend s
ig gs
ac ency
Ġurl NEWLINE
38 0
I u
Sh are
if e
rate s
- )
Ġsign als
ĠSh ape
a q
ATTR IB
46 3
Ġap pe
ĠC ourse
ĠIn fo
d T
assert All
z ones
squ ared
Ġin voice
G ra
tz info
cb b
k top
valid ators
s ci
ĠSpeci fy
le st
re peated
fe c
Ġ' :'
Ġg ate
Ġd aemon
ĠDESCRIP TOR
ĠCom mon
Ġgiven NEWLINE
ĉĉĉĉ ĉĉĉĉĉ
basic Config
ĠBin ary
i mag
un register
L an
Ġwh y
PROP ER
03 92
Ġmac ro
58 3
comp osition
lect ron
Re ply
NEWLINE The
present s
WINDO W
... '
ve hicle
Ġde ci
ĠU TC
Q j
folder s
Ġc um
m j
in ge
publish er
ĠAlso NEWLINE
++++++++ ++++++++
6 18
et ime
Read Only
B T
art beat
I DE
cs rf
37 0
tor rent
fir med
Ġsm art
alo ader
Ġsub license
ver ity
% \$
Ġlook s
Ġ---------------------------------------------------------------- -
ĠW ill
ĠG aussian
Ġinfo NEWLINE
# ================================================================
Ġqu otes
') ;
Ġmat rices
ĠB LOCK
Ġcopy NEWLINE
__ ['
CUR RENT
Ġe ol
C n
W Z
OF P
Ġf r
St retch
U ri
log ies
i ci
P p
Ġsca led
ĠTurn Direction
C AN
ad os
irection al
37 1
Ġframe work
Ġclient s
LAB EL
F ire
Ġo sNEWLINE
S pi
abc def
Ġsubst antial
cor ner
la de
- '
Pub lish
Vis Zone
comb ine
Ġhttp lib
f ru
Ġr x
Ġwidget s
m ate
EN UM
64 00
W rap
Bro adcast
Ġgradient s
FA ST
ten ance
14 00
Ġobtain NEWLINE
sk in
Request Handler
temp dir
Q F
ĠN pc
E LE
N zY
Ġ[' ']],
) '''
C Z
re aded
loc s
conf lict
; :
ĠF IELD
u D
br and
Ġoc curs
oc al
d ri
mid i
K D
ĠPo ol
Ġin tern
][ -
pre processing
st f
Ġwork ers
code name
68 0
A ir
Ġs ilent
)) ;
s il
similar ity
Ġmo vie
w y
NEWLINENEWLINENEWLINENEWLINE NEWLINENEWLINENEWLINENEWLINE
ĠS olution
g un
in tent
g ro
29 0
** (
Ġsub classes
RA W
Ġg ap
12 356
ĠI d
has attr
err it
aff inity
Loc ator
cil ity
} ;
it ize
NO TI
flu ence
G it
Ġoper and
ul ative
h stack
Ġ$ {
TEST FN
- ()
CHAR ACTER
ĠSetChr Flags
lo ve
EXTEN SION
Ġpro d
urn ished
Ġp ast
R c
Ex periment
PO WER
Ġdim s
L n
56 2
N d
00 08
Ġ<= >
dh dft
a ler
b ew
C KET
Ġs aving
File Path
mo ji
CU RE
deploy ment
Ġme mo
text s
col l
WAR D
09 55
decode d
th an
lab eled
ab a
L g
over write
ĠUN I
B AR
tri al
Ġattach ment
prob ability
7777 7777
A mount
ĠĠĠĠĠĠĠĠĠĠĠĠĠĠĠĠĠĠĠĠĠĠĠĠĠĠĠĠĠĠĠĠ ĠĠĠĠĠĠĠĠĠĠĠĠĠ
te ts
Ġt rial
lis ted
co p
ĠT otal
CONT EXT
sh an
Ġp ay
W b
contact s
ĠAp pro
ĠO rig
e z
U A
V D
ĠInit FunctionIndex
ĠInit ScenaIndex
ALI GN
Ġcap acity
X i
di rectories
pro files
Ġq t
dat atype
Ġlib raries
79 1
dis criminator
C AG
sh ou
%%%% %%%%
So ft
E NEWLINE
in coming
sp ark
Bytes IO
po licies
STAT IC
p ct
Ġv lan
ĠE mbed
n ist
Ġretrie ved
Ġwithout NEWLINE
ED IT
C m
Ġa way
Ġ= ================
Z S
F uture
Q J
ĠO p
ts v
ighb our
tin u
cra ft
d ra
ĠDI SC
Ġopen ed
opro ject
Str ategy
ul ong
ĠL ATIN
block ing
s ter
Ġobtain ing
Argument s
o z
ĠS ty
ĠA ut
Ġcomp iled
pen alty
NEWLINE m
Ġtes ted
STO RE
ĠO Auth
havi our
me ga
Q M
Ġr ing
ĠE OF
S parse
ĠP at
int ro
ĠA B
ĠC A
Ġa ws
return code
re w
C NN
M ore
Ġmin imal
Ġb m
Ġ.. .,
X ro
FA IL
o la
M ATCH
pre fs
Ġdraw ing
Al pha
ĠO b
Ġext methods
r z
Class Map
Ġhave NEWLINE
4 05
sv n
U O
o j
un ge
s ap
re gs
N pc
Ġme as
Z m
tl v
setValue AtTime
Ġg old
P atch
ĠFalse NEWLINENEWLINENEWLINEdef
W atch
Ġman agement
Des cr
ĠCorpor ation
Log ging
Ġc riteria
Ġtmp dir
Q N
ĠPro xy
Art icle
add Action
Ġcommand NEWLINE
Ġs ay
comp ose
in str
K F
L ang
H h
Cl asses
Number Of
bind ings
PL ACE
re stri
Ġsee ms
atom ic
so ftware
An im
Ġsystem s
En umeration
n ms
Ġproduce d
9 00
Ġy s
V j
aut os
N ON
ĠSPE CIAL
P gE
X D
Part ition
rain ed
Attribute Error
d os
07 37
ICO DE
() ``
V AUX
Ġw ifi
x g
Ġdest roy
L ab
S rc
len ium
Ġlik ely
ĠIn formation
Ġm igration
Ġex tent
ĠDo main
F inal
ĠJ O
H IG
BOO L
D ump
(" {}
er k
GI NE
ck s
Ġon to
W hen
DI SP
Ġshape NEWLINE
Ġimport lib
speci es
Ter m
ĠF SM
read able
ans wers
Ġfollow s
] ].
ĠP rep
ch k
' *
Ġcons istent
ĠMy SQL
ĠCON FIG
Re place
re play
Ġform ula
V LAN
b om
Ġres NEWLINENEWLINE
arn as
Ġd ry
Se cret
ategor ical
get Param
ĠS EE
in file
ĠByte Field
Ġskip ped
D ICT
Met rics
E ther
Ġstart NEWLINE
ĠBo x
ĠP lace
Be fore
DO M
). """
Ġse ctions
v k
75 0
Ġ{} ).
59 2
j w
Ġmean ing
S ORT
U r
c rc
L W
76 1
Ġt cp
J D
5 14
sc enario
t ate
mo x
Char acter
ab ort
Ġop code
col lector
ĠM AC
ĠP LEASE
S ING
45 1
X NEWLINE
Ġ. /
* ]
v it
54 2
scale s
pool ing
Ġone ofs
E poch
(' >
ĠA verage
Ġdig it
im m
am d
X M
Ġtrans formed
out dir
b G
ri m
Register Message
Ġconver ter
log it
={} ):
ĉĠĠĠĠĠ Ġ
has hes
ample d
Ġrel u
ĠL i
HHHH HHH
3 13
R ank
Ġen crypted
5 74
now ledge
Ġc id
__( **
4 33
ĠT MessageType
#### #
builtin s
Ġg ithub
Extra ctor
Ġb a
Ġd r
Ġsen se
C MS
da ily
A ML
fi er
oriz on
ht m
ĠR PC
K V
a qz
Ġprefix es
authentic ated
ing u
reg ression
Ġar row
ame s
E urope
Ġd rag
ĠBytes IO
As set
k el
Ġtw ilio
Ġ` ``
o a
Ġs phinx
Ġsecond ary
d al
Ġx x
pe p
gener acy
(" ",
Ġ3 43
E m
Ġserial izers
Ġ" &
vid ing
al ready
on i
shou fang
fu zz
Ġadd on
Ġs ong
R ST
vi con
wik ipedia
INTER NAL
row th
T s
PE CT
st able
Ġ' '))
Res olution
ĠLib rary
K L
4 02
Ġ' ..
6 32
ri ent
version NEWLINE
er shoufang
sub plots
Ġcomp ress
Ġinv oked
bucket s
ĠT r
3 08
b boxes
bu st
8 000
w heel
ol ate
am ili
t j
x lim
re actor
Ġlast Node
Ġpos itional
I w
zuf ang
Ġmode s
ĠCh ip
5 07
M NEWLINE
F AC
et ing
h Y
Ġalle le
tick er
man aged
the ano
un ix
Ġx max
doc test
C ANCE
6 04
ct r
start s
Ġpro du
> {
ĠM ask
djang oproject
Ġfile system
Ġan im
g aussian
Ġdata frame
vo x
G reater
b anner
Ġsn ap
ufa cture
fetch one
Ġn om
t un
ĠP DF
f ord
Ġ{} \
0588 235
Ġd ilation
Ġsto res
pad ded
Ht ml
Scal ar
, :,
sh ader
R slt
dict NEWLINE
uc lide
Ġre ceiver
ĠDyn Accessor
Ġca ption
al so
wait ing
Ġg ray
M m
super user
quot a
vi sed
F j
mp l
Ġcon ven
G PU
author ization
Ġclo sing
to s
ĠB ound
Top ology
W D
Ġlo st
ĠR ad
Lis p
Ġa i
le ast
co efficient
Ġstate ments
sen ce
ĠRE ST
P ur
to uch
Ġshutil NEWLINEimport
par s
ĠU AS
Ġ' ').
Ġin cre
be low
Ġmodifi er
) %
vpn v
ĠB ut
Ġb p
report s
Ġl p
r df
Ġco eff
sent s
\\ \
L s
98 3
Owner Id
Ġexp anded
4444 4444
Ġn at
Ġapp ended
Ġclass ifiers
en de
Ġlogging NEWLINEfrom
Ġos NEWLINENEWLINE
ĠDI RECT
ĠH en
Poly gon
SCSM IMP
Cre ation
ac a
ref cnt
sk ill
y c
Ġhig hest
ign ored
_ ',
Z e
handle s
ĠCO MM
/ _
e ager
pop ulate
Ġver bosity
DI ST
serv ing
um ing
mat ic
ĠLen gth
Q s
Ġt rig
al NEWLINE
D r
sp ro
9 78
K J
NEWLINE findWidget
join ed
?? ?
ĠLog ger
9 84
Ġdis p
() [-
B est
nb sp
factor s
form ula
ang o
Ġcase NEWLINE
a fi
ab e
IN AL
Ġtime NEWLINEfrom
IC E
NEWLINE assert
": [
LO T
Ġpercent age
Ġmo ves
multi part
Application Exception
assertRaises Regex
Ġsys NEWLINENEWLINE
index er
rt ol
R UP
Ġmo lecule
di e
BB I
Uni form
R SA
mul ler
log out
h ol
leg acy
ri p
el astic
policy mgr
re y
g ons
Create Model
H x
8 08
B its
Map per
Ġr t
uber ne
ĠCon tact
200 4
RE SOURCE
z t
Power PC
ĠG OO
et ched
k ap
ĠOver ride
Ġcomp ressed
Ġ NEG
bu d
ĠAUTO GENERATED
), ),
11 01
Q Color
Ġcon fidence
8 22
9 01
3 09
c A
Uns upported
Ġpre ce
Ġph ysical
Ġsubprocess NEWLINEimport
gram mar
cei pt
ver gence
+' /
ĠSE G
Ġde generacy
END ING
A ES
c are
B Z
Ref resh
tool bar
SY NC
Ġweb site
Ġsize Policy
V k
re quested
SO L
in y
sh i
C ATE
U Y
Ġmark ed
Ġcoefficient s
f ro
NEWLINE sg
de crypt
st reet
RE L
igab it
Aut om
; ',
float ing
ĠUAS f
Ġ ten
Ġ'% (
we i
66666666 66666666
coordin ate
() (
ĠH as
Ġgener ating
ich uan
namespace s
curs ively
U m
X Z
> -
distri buted
__( ...)
L ATIN
pe l
trunc ate
ĠNo tes
6 36
J P
Ġm irror
is digit
tr ing
Ġ2 70
H ard
re mo
lip se
L java
ra z
Ġfunction sNEWLINE
f wd
j r
Id NEWLINE
Q Z
12 00
cer ts
V l
pre load
string NEWLINE
modifi ers
j it
Get TypeId
V u
pos ix
Des ign
C LE
ĠP OS
Ġ(' _
Ġr d
thread ing
Get Value
47 0
la cing
Ġcombin ation
Ġin fer
NEWLINE GR
In ventory
sim ulation
Ġw all
iz z
WA IT
######## #
Check Box
Ġ{ %
P AD
we ets
H idden
tra ffic
I x
Fin der
H AS
Pre sent
sh p
--- +
) &
N b
F ITS
9999 99
// /
k muller
Ġro uting
02 02
Cre ating
; </
FO UND
E g
Ġdown loaded
ĠIN PUT
pack ed
Advert ised
Ġover ridden
Ġc he
Ġoptim ize
} ]+)?
iv ari
exp anded
ĠS tack
Ġen cryption
Pipe line
7 68
(' ../
Ġth ink
ĠN UM
pro be
4 69
(% [\\
b rain
N M
to c
Link s
ĠPass word
Ġp od
Ġsample d
ĠLO SS
NEWLINE tf
volume s
Ġear ly
NEWLINEC opyright
ĠEnt ity
can onical
ĠSt reet
ap y
N m
s keleton
udi ence
Ġre ached
Ġup on
es ter
La unch
use rid
q K
F p
D l
55 0
4 32
gen der
Ġt ur
Ġat tn
al one
Con struct
=- =-
g py
level name
Ġ âĢ
(' \\
Rot ation
Ġt ries
AV AILABLE
z b
v w
Ġne ighbors
A da
Tool Tip
ĠS ichuan
R n
G tk
W Y
Ġaccept s
9 22
gu ild
S yn
Sh ader
PowerPC CPU
Ġ', '.
q b
H int
3 06
ĠField s
CLASS ES
ĠTrans form
MEDI A
Re ferences
ĠWAR NING
A o
ma ya
ari a
ate ver
anim ation
BE GIN
op p
O NEWLINE
ad ir
ĠEn able
ĠRe set
st c
W K
lib c
dispatch er
res olved
che sNEWLINE
up an
ĠB l
CE PT
ĠFire fox
Ġthem NEWLINE
sr v
X P
st s
Reg ression
u ss
float X
Ġformat ting
Ġbin ascii
Ġinter p
C ent
og ra
onom y
di vision
SS H
state NEWLINE
CS V
LOW ER
Ġmon key
Ġbutton s
O H
k NEWLINE
SEQU ENTIAL
L NEWLINEL
65 0
DE V
ch allenge
inte ractive
t ics
ud p
uberne tes
Line Edit
id f
ra ctions
az y
ĉĠĠĠĠĠĠ Ġ
pr inter
ĠJ son
Ġtrain ed
Li ke
Ġsc enario
STY LE
Ġnetwork s
Ġpro posal
W T
ĠP os
rol led
Ġoper ators
W rit
Ġbal ance
ĠLO ST
ht t
Ġ ascii
Ġsame NEWLINE
Re write
( .
B ank
Des ktop
ST AMP
ĠIn ternal
le mbic
z c
] **
ĠC lean
ĠValid ate
Ġcorrespon ds
ph as
Ġlst m
C OR
Ġdesc r
Ġi teri
P ol
v at
Ġne arest
Ġsort ing
Z s
VER T
5 39
ĠAuth entication
imp orter
Ġperiod s
d X
Ġfield NEWLINE
Ġn ick
ĠNe ed
app le
align ments
C lock
/ ")
Ġnote book
se ud
NEWLINE flags
=" <
Ġman aged
ĠSe ction
m igration
NEWLINE w
ĠI M
Ġal bum
4 68
clo sing
Ġload s
Ġclose st
z l
Ġopt parse
s amp
) #
Ġ( <
Re c
Z i
tex info
I Y
rect angle
Ġparam NEWLINENEWLINE
k j
Ġ3 20
ĠStop Iteration
ll ing
ME L
2 048
3 10
rot tle
Ġbro ken
ENT AL
Ġf out
b ak
ch il
Le ss
sc p
() -
PARAM S
Ex change
Quant ity
54 0
B x
Exp and
Ġe mp
provider s
graph ics
Ġgrad s
mat ure
st re
Ġinte ractive
N w
y ml
), ('
Ġh ar
ĠC ase
W x
Ġa ffect
ĠS Q
g reater
86 2
'' ''
Is is
Ġget text
Ġlin ewidth
ĠDO CUMENTATION
op h
ĠImple ment
B ILITY
check box
ĠA C
Ġbut NEWLINE
CH A
sent inel
Ġcan onical
ĠF ore
ign ed
; ')
un defined
ĠE D
i lo
ĠPack age
RAN GE
g uest
ĠAns ible
Y our
ĠTrans action
O E
X H
Me ter
co pg
ĠValue s
A ctor
Ġ ang
as ctime
Ġy max
serial izers
/' +
> ]
Co ord
Ġhist ogram
K C
Pro blem
Ġfoo ter
Ġmeasure ment
Ġpr inted
: ":
Vert ical
St ates
Al arm
om inator
ol ing
ĠOper ator
measure ment
CHAN NEL
con fidence
distance s
umer ator
buff ers
Ġlate x
spect rum
errit ory
z g
ToOne Field
Ġspi der
Ġ200 5
ĠG ame
ik a
ĠON LINE
Ġad apt
C ourse
h um
en crypted
ĠPy Side
set NEWLINE
not ifications
ĠG rid
ĠCol lection
: &#
z ier
Q os
Ġob served
serv able
Frame s
Ġnp NEWLINENEWLINEfrom
49 2
caten ation
Ġxb mc
interval s
w ide
test NEWLINE
F u
p assed
( .*
dis card
FF F
Ġ serve
Ġin ventory
5 05
b ios
} })
Ġpe ople
Ġ2 18
J k
ĠGraph ics
width NEWLINE
i en
ĠDecl Npc
v h
v Y
vi dence
f its
b h
ul ations
Ġre produce
Ġf uzz
d in
V y
Ġapp lies
A e
de tector
R p
In clude
ST ACK
R N
Ġfla vor
REGI STER
uclide an
Min ute
ĠChip Index
J Z
>| <
ĠNpc Index
sub dir
Ġc utoff
ĠLo op
R H
Ġw ater
Ġ3 24
pat ial
Ġup NEWLINE
ENT ITY
P ref
ĠD AT
G CC
igabit Ethernet
48 2
1538 46
Ġmore NEWLINE
Ġd l
di f
CA Y
Ġ( :
V a
s izer
(" .")
Ġmo ved
R ib
Ġan no
ate x
cen ters
Ġne ar
ĠS plit
11111111111111111111111111111111 11111111111111111111111111111111
Ġin dependent
Ġgroup NEWLINE
Ġtz info
04 30
Ġres olved
mot or
Ġpro bs
ri k
ump tion
Ġos NEWLINENEWLINEfrom
Ġaccount s
PD F
cho ose
4 15
RE SERV
NEWLINE DESCRIPTOR
Ġdetermin ed
r q
ke w
OFF SET
ext rap
Ġsw gpy
L X
v z
inte resse
DO T
M x
Ġ ĠĠĠĠĠĠĠĠĠĠĠĠĠĠĠĠĠĠĠĠĠĠĠĠĠĠĠĠĠĠĠĠĠĠĠĠĠĠĠĠĠĠĠĠĠĠĠĠĠĠĠĠĠĠĠĠĠĠĠĠĠĠĠĠĠĠĠĠĠĠĠĠĠĠĠĠĠĠĠĠĠĠĠĠĠĠĠĠĠĠĠĠĉ
Ġ ĠĠĠĠĠĠĠĠĠĠĠĠĠĠĠĠĠĠĠĠĠĠĠĠĠĠĠĠĠĠĠĠĠĠĠĠĠĠĠĠĠĠĠĠĠĠĠĠĠĠĠĠĠĠĠĠĠĠĠĠĠĠĠĠĠĠĠĠĠĠĠĠĠĠĠĠĠĠĠĠĠĠĠĠĠĠĠĠĠĠĠĠĠĉ
Ġ ĠĠĠĠĠĠĠĠĠĠĠĠĠĠĠĠĠĠĠĠĠĠĠĠĠĠĠĠĠĠĠĠĠĠĠĠĠĠĠĠĠĠĠĠĠĠĠĠĠĠĠĠĠĠĠĠĠĠĠĠĠĠĠĠĠĠĠĠĠĠĠĠĠĠĠĠĠĠĠĠĠĠĠĠĠĠĠĠĠĠĠĠĠĠĉ
Ġ ĠĠĠĠĠĠĠĠĠĠĠĠĠĠĠĠĠĠĠĠĠĠĠĠĠĠĠĠĠĠĠĠĠĠĠĠĠĠĠĠĠĠĠĠĠĠĠĠĠĠĠĠĠĠĠĠĠĠĠĠĠĠĠĠĠĠĠĠĠĠĠĠĠĠĠĠĠĠĠĠĠĠĠĠĠĠĠĠĠĠĠĠĠĠĠĉ
te ro
Ġ4 783
F ONT
y or
Th at
no va
Ġd NEWLINE
Ġgu arante
diffe rent
3 16
Ġw ire
ĠRe mote
ĠExample s
Ġindic ator
ĠIMP RO
IL L
pa int
User name
ĠT k
U j
ĠTh at
sli de
ĠA fter
N umeric
Ġex cluded
Ġauthor ization
ĠMe mory
Ġ# '
vi es
'] "})
3 17
L inux
log ged
ĠDEALING S
Ġf fi
Ġgen ome
ĠS cript
Ġc as
align ed
ax y
len NEWLINE
val NEWLINE
J l
Ġp ys
Ġl hs
Ch art
file obj
Imple mentation
ĠCl uster
ten ds
Mac sec
Ġsub lime
bu ilt
P adding
sh al
cap abilities
Ġc i
support s
s ar
16 6666
ĠDate Time
from string
Av atar
ass istant
LA l
Ġne utral
final ize
language s
full name
B H
Ġ quiet
ar ily
M n
args ort
sample d
ense mb
arg ins
Ġph ot
C ENTER
it ivity
? "
SC ALE
Ġin file
byte array
contain ers
end points
ls x
arg parse
Ġfile Name
a ur
Ġreg istration
Ġdistance s
Ġcontrib utor
T ES
dis covery
r sa
Ġproject s
G w
ĠOpen GL
semb ly
v struct
ĠDe velopment
Ġb id
e ssage
port al
* /
6 88
3 68
h or
ab ili
ĠIMPRO PER
Res p
u str
ĠF O
S ent
stf Name
ĠI DEO
Key board
re me
Ġf old
24 24
vocab ulary
ĠAUTOGENERATED NEWLINE
ĠIMPROPER LYNEWLINE
Ġx p
" ^
ĠEXAMPLES NEWLINENEWLINEfrom
ĠM icrosoft
man ent
Ġal loc
Ġident ical
a uc
g rate
() '
NO TE
5 65
Ġr l
M k
aut ograd
Ġhapp ens
3 19
deg rees
3 000
@ ?
Se conds
ĠP op
(' "
Act iv
Ġf ine
ĠCON SEQUENTIAL
Ġ2 39
ĠHel per
Ġeach NEWLINE
ĠIN DIRECT
6 64
D s
Q c
Ġtrans former
x iv
1 999
Cre dentials
COMP UTE
x or
Ġ`` '
==== =
Ġfail ures
ĠOper ation
io us
45 2
ai ter
Ġtrain er
= }
IBUT ES
M argin
C c
lin d
og enerated
Neg ative
Ġcre dential
Sa ver
LIG ENCE
Ġinteger NEWLINE
ĠN ext
F g
ĠL et
P ers
dimension al
Ġb enchmark
Ġco variance
Ġmo ment
Ġloss NEWLINE
1234 5
` ")
Ġc ube
iet f
f ps
44 1
E i
F requency
w raps
p aste
fra g
Y j
Ġunittest NEWLINENEWLINEfrom
Perform ance
Ġbyte sNEWLINE
Decimal Field
Ġtra ffic
bi ases
au f
Ġf urnished
Ġro les
Auth entic
Ġver ts
foo ter
n is
gui de
PY THON
ĠMan ager
Ġheader NEWLINE
ĠJO IN
part itions
Ġd up
Ġmodels NEWLINENEWLINENEWLINEclass
5 22
ev t
NEWLINE data
ud nn
en dian
'), ('
N r
Ġnon ce
)] ),
f ly
ĠEx port
ak t
ĠU SER
Ġpart icle
bound ing
S lice
Ġm andatory
65 535
ta int
Ġg rouped
th r
Ġan on
Ġsu itable
K o
ĠS SH
(': ')
7 08
[ ]
Ġ: ],
me as
one t
tr on
Ġp itch
0000 01
G W
ĠR NN
ĠDISC LA
Serialize ToString
Ġlabel NEWLINE
env s
os o
pop ulation
Ġs keleton
Ġs b
T i
_ |
Ġm ixed
def er
ĠDi rectory
w ell
h ape
=' )
Ġth er
Ġattemp ts
Ġappe ars
Ġ2 09
ĠSe curity
Ġexist sNEWLINE
st y
Ġim gs
76 0
ĠMibTable Column
] ][
p q
Ġsub type
Ġcontext NEWLINE
cogn ition
******** ****
Ġlate nt
TEXT URE
M ust
d ock
R l
alloc ate
LO SS
Bg c
] ==
Ġ( .
user NEWLINE
en sing
ar di
+ '\
K X
Ġt weet
) ^
Res olver
f al
b ond
ĠJ ust
ad vert
De pendency
L H
RO UT
Ġqu it
p Val
close st
RU LE
Pro b
Pro ps
av en
e h
IT LE
sli der
K i
AAAA AA
Ġobject ive
qu oted
ĠPRO FITS
ific ant
Dis abled
pur chase
ĠBo ok
ill ing
annot ate
200 3
== >
si der
a que
TIC AL
Ġ(" <
NEWLINE NEWLINEW
AT U
v lc
Ġfl ash
comp ound
ĠDistri buted
ac cepted
Ġn ltk
object ive
Enum Field
c si
std dev
Ġs v
Ġde refcnt
Le g
Ġprob abilities
p ast
Ġsimilar ity
Ġo dd
ĠRe lease
B lack
Ġunittest NEWLINEfrom
Quest ion
ivari ate
w NEWLINE
GGGG GG
ĠS chedule
part icle
Rule s
Ġa udit
root s
R AD
Ġp sy
4 06
Var Int
TI M
Attach ment
charac ters
Ġpoint NEWLINE
de b
5 49
3 18
Ġt l
By Index
F lat
Ġclean ed
ĠV ideo
h ig
Ġal phabet
Ġl n
co unters
inter cept
ik o
Ġ2 15
Ġid le
il ler
Ġart ifact
9 79
9 57
SE ARCH
L ost
add Handler
Ġactiv ate
pro tection
sum maries
C fg
ls a
G AN
ĠIDEO GRAPH
V Y
G lyph
q h
Ġre action
s ult
7 01
Ġnon linearity
T p
Ġ ĠĠĉĉ
ĠDo es
ĠĠĠĠĠĠĠĠĠĠĠĠĠĠĠĠĠĠĠĠĠĠĠĠĠĠĠĠĠĠĠĠ ĠĠĠĠĠĠĠĠĠĠĠĠ
&& &&
' &
ĠPar am
U k
Bot tom
Ġc x
Po se
Ġ ################################################
ĠHen an
N x
m igrate
D x
Ġm b
ĠL STM
f und
R k
Ġlo t
02 00
Ġoverride s
al phabet
so ap
One ToOneField
NEWLINE DIM
RE SET
H ar
G Z
ĠPublic NEWLINE
li ps
mapp ings
W all
f all
in di
dep ends
AD ATA
E PS
roll ment
j id
in vert
ATION S
M w
gr pc
graph s
fixture NEWLINEdef
on ing
as tes
mp eg
AT IVE
en cryption
Ġstr ftime
PAT TERN
) },
un icast
Ġgra mmar
Ġup dating
Ġe ta
Cat alog
u ma
ut s
ĠH y
Command s
Ġ"% (
lex er
ĠS ort
IN F
n itude
m ad
ma gn
Ġk m
c ron
friend ly
Ġ5 000
8 09
d ash
AR GE
M ath
ĠG en
lf ile
^^ ^^
)) ):
ube i
ĠPro gram
coeff s
8 04
4 16
lan e
('/ ',
C t
de sen
ĠURL s
ĠOR DER
ĠTime out
LI NG
O j
Ġh op
Ġu gettext
c gi
ĠY List
min imize
ST IT
F req
P AC
q j
G x
vision ing
Ġor gan
6 08
K A
ri b
E J
Ġre ach
IIII I
c ular
Ġfilter ing
authentic ate
Ġattribute sNEWLINE
Ġn m
Ġorder s
kw argsNEWLINE
( {})
LAl chemy
ele ry
ĠNEG LIGENCE
g allery
Ġobj s
b lend
Ġinter mediate
Ġconfig s
f lex
Ġcal ib
8 77
Ġcount NEWLINE
Ġt reat
I r
int f
W l
db g
NER GY
Ġto uch
7 28
Re ceive
Ġent ropy
ar ity
Ġto ggle
46 2
dat atypes
Ġbegin NEWLINE
Ġsens itized
7 14
ĠA nonymous
Ġl ar
ĠTrain ing
n ume
r ated
De serialize
x mpp
A re
Sk ill
ĠHel p
Ġx min
Ġhe alth
86 01
} |
trans actions
ul p
Re quire
Ġf oot
ĠM IN
]. [
9 28
ĠB ro
Rel ative
Ġvalid ators
CC C
Ġ2 34
Speci fy
Ġapplic ations
ĠSEG MENTS
ren ch
H ASH
q f
Div is
Ġe le
Ġtran script
Ġw f
ENABLE D
Ġ" ."
Ġpre view
NEWLINE MEL
Ġmis c
Temporary File
ĠRes Net
Ġte ch
NEWLINE REN
Ġarch itecture
literals NEWLINENEWLINEimport
ĠP ipe
NEWLINEG HA
ĠM ar
Ġindex ed
expi re
DIS ABLE
lev ation
U AGE
red uction
NEWLINES KI
NEWLINEGR S
NEWLINEK VO
Test Class
le tes
Ġf rag
ĠA TT
Ġ3 02
Ġph oto
v cs
aff ine
Ġ- .
Z w
so cial
56 1
nost ics
Ġi l
Hy per
ges ch
Ġbase line
__ '
B lob
y er
ĠSe quential
Ph ysical
R i
is ch
Ġw ind
J Q
s lim
Con structor
ĠU P
Ġelement NEWLINE
sur f
TR UE
ME TR
dicate s
UU UU
C AD
AG ENT
Work flow
Ġor ganization
Ġcon cept
u lo
we apon
d an
Ġ' ')])),
li ef
Ġdescription NEWLINE
Ġob servations
Ġ-------------------------------- ------------------------
sp er
AC C
pe ek
og gle
________________ ________________
N ow
q y
Ġresp ons
ĠTime stamp
Ġr r
gen cy
sn mp
Ġin herited
K w
08 24
ĠSystem s
ĠFa iled
12 28
Ġresponse NEWLINENEWLINE
Ġscra py
Ġe m
Col ors
Ġ# ----------------------------------------------------------------
Z ONE
Ġreport s
Or g
trunc ated
admi ra
an h
Mo dify
ĠLo ss
B s
ĠI ssue
(' //
SI BLE
Ġmock ed
Ġtrue NEWLINE
Ġstatic method
e per
peri ence
Ġif ace
ol den
Draw ing
Z n
ĠV AR
ĠA T
6 22
sc en
Ġ2 52
str s
Res ize
SI NESS
Ġre shape
# '
-------------------------------- ------------------------
W a
coun tered
Z j
df s
Dest roy
#### ###
Mo vie
(' $
. </
6 78
Ġs f
Template s
atel lite
R j
index ed
at ur
Modifi er
53 1
Ġaff ine
6 38
Ġbuiltin s
ĠEx tended
Aff inity
Ġmock er
Ġqu ot
co d
in NEWLINE
Ġin tended
document ation
Ġdataset NEWLINE
Ġman ip
Ġm ysql
map NEWLINE
pi cture
J g
Ġc type
i am
ps y
Ġ8 00
5 99
Ġh p
os ome
ĠCal lable
E MPTY
K ER
5 78
X n
F ault
s lope
m ann
)) )))
ĠG u
embed ded
fil t
(' ^
ab ric
O ld
Ġfound NEWLINE
P ING
Ġf t
plan ation
pro ba
") ):
N g
Ġcheck NEWLINE
M c
og en
Ġfriend ly
Not OptArg
ro per
ĠW orld
Ac celer
material s
4 13
de limiter
bro ker
q d
=' '
J x
C ert
defaultNamed NotOptArg
P ID
V ars
Ġf NEWLINE
D ock
irm ware
Ġe fficient
V L
ĠF oreignKey
REG EX
ĠThis NEWLINE
CO PY
ult y
Sty lus
v u
Ġt unnel
Ġsm tp
un ted
Ġs z
Ġdat atype
COMM ENT
Z l
out line
4 14
1 00000
\: \
Ġcr ash
IC ES
Path Option
app a
FORM ATION
7 07
_ '+
red dit
Ġ4 03
ĠC ategory
an other
Ġintegr ation
Ġch erry
et ag
3 64
7 22
D er
Ġf w
R ing
y outube
Tick et
} [
R h
D f
Ġ ĠĠĠĉĉ
ans ible
ĠDe bug
U h
A a
D jango
Ġof ten
R SP
j et
or ient
ĠNone NEWLINENEWLINENEWLINEclass
p la
A nt
system s
02 32
ĠRet rieve
33333333 3333
Ph oto
r split
ĠHe bei
Nj c
in ters
Ġgo es
PE G
"] ]
Ġnamespace s
Ġh int
pre ferred
T or
tele meta
Ġart ist
4 99
X G
fin es
>( <
8 25
red it
R K
in struction
Ġ2 25
Ġfast binary
Ġtrack er
ct xt
ĠF lag
i ment
Y O
Ġpop ulation
LO C
Rel ated
Ġsub sequent
exp ansion
A GG
ĠGe o
Sample r
C ity
Ġtuple NEWLINE
ĠP ower
NEWLINE h
Ġy min
M er
m z
perform ance
Ġl m
S q
Instance Active
SD K
k or
ĠCheck s
ĠDe termine
NT Q
Ġdict s
ĠEn ter
? ",
PO OL
3 79
ĠR ate
ĠL ab
Spect rum
Ġn ice
no op
separ ated
aj ax
pos ure
Ġi mm
pe s
Update d
P s
ĠN U
NEWLINENEWLINE parser
in ations
4 25
m se
Ġtext wrap
Ġsensitized NEWLINEcheckpoint
I h
:// %
P d
Ġde que
y our
[' %
at tached
t im
ometri c
Ġspecified NEWLINE
Ġtopo logy
Ġli fe
um mary
u ge
tile s
Request s
ct ree
re cognized
z oo
]) ):
ĠA v
Ġcall NEWLINE
Instance Standby
in bytes
imp licit
Ġch an
Ġpur poses
re z
i ator
h ass
blue print
Ġd h
deli very
Ġh dr
FO LDER
4 35
Ġpage NEWLINE
11 00
68 75
nor mpath
Ġusing NEWLINE
read String
ra cle
Ġ[' %
RO LE
ank s
W k
Def ined
li an
Ġreduce d
aaaaaaaaaaaaaaaaaaaaaaaaaaaaaaaa aaaaaaaaaaaaaaaaaaaaaaaaaaaaaaaa
NEWLINE e
ĠR aw
Ġread able
Ġexpi res
b fd
Ġen crypt
Ġsample r
reate d
Ġi ou
DIRECT ORY
rap pe
Q l
Ġd ct
Ġo sp
Ġb ulk
ai k
out bytes
Ġsh if
Ġ4 29
EN GINE
ĠS c
cc cc
ĠGP IO
X L
Ġconfiguration NEWLINE
{} \
sub scriptions
200 2
5 16
4 000
Ġretri es
ho o
use rag
hex lify
gr ant
Ġpos y
Ġ0 9
Ġtoken ize
ĠDi rect
me tic
ĠSw itch
74 83
8 19
al ar
} \:
ĠASC II
> /<
Trans former
Py Object
Ġr sp
mk d
ex pose
X C
fig size
at ched
Ġp wd
2 0000
Na N
ER IC
At temp
z f
Record s
Long Tensor
>< ><
Ġde cision
class NEWLINE
DE C
ci ous
=" #
Ġtoken NEWLINE
R untime
th ird
UN ICODE
writ ing
ĠP ER
U g
'} ],
st ored
], [-
ĠConfig Parser
Ġme th
5 89
li min
Ġh i
Options Define
W ater
Ġsp acing
Ġsys NEWLINENEWLINEfrom
, .
Con n
T ax
start NEWLINE
VAL UES
lo upan
142857 142857
Ġst rength
CANCE L
Ġpat ient
06 75
6 34
xml ns
U H
ograph ic
6 01
T l
feed s
> "),
Ġ'* '
ag en
object NEWLINE
Ġtrack ing
y t
446 744
STIT UTE
t weet
op code
imple mented
i w
ĠB ig
st uff
9 32
! ",
y min
INST ANCE
} `
py gments
Ġstatus NEWLINE
S l
Re quested
M l
4 24
ĠV irtual
Ġ' *.
um in
ler in
58 2
h ang
Frame work
st ime
Ġdep end
ĠP lay
Ġutil ities
fil led
U u
De velopment
Ġreference d
ĠPO SSI
ff f
au ses
VI SED
446744 0737
Ġdatabase NEWLINE
bus iness
Ġd u
un ordered
R untimeError
li ers
Ġident ifiers
stream ing
Ġnow NEWLINE
Block s
Ġ================================================================= =============
3 99
Ġth us
ĠM od
Ġth umbnail
read ing
contain ing
Ġevalu ated
In strument
Ġc le
De ploy
d ue
C ERT
J e
U W
log dir
data frame
press ure
Ġbi ases
7 02
Syntax Error
L ambda
ĠName Error
W ords
Ġthe mes
ĠS ite
ĠName d
IME D
} '),
Ġ2 35
I ssue
Ġ journal
ac teri
Read y
am in
4 20
sp l
ĠS C
Node Class
comp uted
Ġtf NEWLINEimport
h atz
TransientPolicyMapType Xr
G s
Ġpoint sNEWLINE
Valid ate
I z
Ġc rypt
F ULL
CO DING
pr p
TransientPolicyMap Names
y un
Ġr p
Ġtri p
In tent
Ġm om
TransientPolicyMap Name
b ib
Ġn dim
Ġro is
= ("
conv olution
Ġa mb
. "))
ĠV ec
6 16
ĠS I
t alk
ĠEX E
List s
ĠBU SINESS
ATTR IBUTES
S che
ĠS MB
ĠW AY
B V
Ġlabel sNEWLINE
Ġstart up
Ġre moving
def erred
. ),
Q Rect
ceed s
T ile
k f
b are
free ze
m ur
Ġimage sNEWLINE
00 42
Ġfalse NEWLINE
sm tp
ĠAt tr
B m
iz hou
Ġpool ing
exp iration
vari ants
ME MBER
4 096
Ġck pt
HH I
Ġ` (
an den
Ġvis ited
86 1
6 77
6 39
N u
nd o
Par allel
Ġb t
od o
ĠLo ok
Ġc nn
ĠR ender
Ġm usic
Ġun defined
G i
G NU
Ġstd dev
So lid
mut ations
de clar
Ġtran spose
ĠEV EN
qu er
23 0769
6 14
ĠYANG DynClass
Default s
profile r
M ID
c ro
art ment
ĠA ctor
dist inct
ĠP osition
66 67
LU GIN
Ġfield sNEWLINE
Pro c
CON STR
Se g
CID ENTAL
we ather
Ġdef erred
per ms
ĠM E
Ġmin i
Ġst roke
Ġm t
L arge
T y
Ġ3 600
cas cade
58 09
37 15
ĠTrue NEWLINENEWLINENEWLINEdef
7 32
EXP AND
') ]),
key points
PRO G
Sh adow
4 34
5 11
period s
ĠS pe
C rop
x id
uc le
Ġjson ify
Ġro utes
the re
-------------------------------- ----------------
c ac
gen s
b ol
C j
Ġro utine
+ ='
reed y
rp m
Ġw allet
che m
Ġe ver
im uth
Ġn umerical
ĠArt icle
k c
Ġinv ok
Ġsh adow
8 26
j ac
Z z
o pe
K a
ex th
04 35
00000000 0
Ġboot strap
ro gram
fl ask
Ġpr inter
NEWLINE with
Ġcur ses
SUPPORT ED
ĠS UP
G EN
ĠW in
am big
Ġn est
f ingerprint
18 75
4 28
M d
ĠM apping
In d
de cision
U LE
Ġp run
Ġtype sNEWLINE
W ave
U UB
Ġre commended
ot s
Ġlic ensed
ili ary
4 09
Lay ers
W rong
n ings
ĠD eta
ĠANY NEWLINE
. ':
6 19
Ġmime type
N p
R FC
k et
CT RL
i tes
include s
dev ids
BU ILD
Ġexec utor
Y H
R SI
i red
Ġinstall ation
Ġaut os
Ġparam sNEWLINE
Cla use
01 12
trig gered
e os
7 88
s it
Ġtitle s
mod s
ĠU ns
ĠSU CH
B order
de dent
py torch
ur is
59 1
+ _
G NEWLINE
av ailability
ache s
K O
ĠRE AD
ĠIn sert
() )))
ĠE qu
Ġcol lision
Ġfl ux
48 1
ĠEx pected
CR IT
3 69
M ix
Ġcontext lib
ĠT AG
Ret ry
Type NEWLINEfrom
H ow
de termin
Ġdirect ive
* '
regex p
Ġme dian
kernel s
Ġspeci es
sc anner
if fic
() ],
ci far
4467440737 0955
Str ings
c ab
Cy cle
Orig inal
^ -
ĠEx pression
iot lb
s ms
M t
+" /
Ġcond itional
; ",
und red
Ġdat as
57 1
ĠExt ra
F ix
ĠCon tainer
Ġ2 37
5 08
. :
ĠDAM AGE
ĠIn tel
ĠIN CIDENTAL
ĠSt atic
it ar
he jiang
IN S
real m
5 64
SK IP
pro tein
Port s
Ġre pos
ST IC
05 11
mat z
ĠVER SION
roid b
CAT ALOG
col on
SE C
S RC
Ġin structions
u NEWLINE
NEWLINENEWLINE with
Ġrender ing
XY Z
ST D
n lp
NEWLINENEWLINENEWLINENEWLINE Get
Z ED
Extension s
E s
k ay
Ġde coding
@ +
Re verse
res ample
ypot hesis
v ac
R Q
ch ant
da o
sub scriber
M v
) [-
e thod
De legate
Sp an
l or
5 03
Ġhook s
update r
G di
Ġo doo
t um
7 04
9 17
Ġoption ally
= >
O rient
CR Y
RUP TION
f path
ĠInter val
9 88
al ong
, **
af ka
re cover
ĠAD VISED
S b
B k
es p
Ġrect angle
85 2
Ġ4 79
Ġshort Desc
ular ity
Col umns
Ġno NEWLINE
Ġb tn
Ġlist ing
g NEWLINE
Ġsee NEWLINE
D Z
mkd temp
FIELD S
FT P
Decode Error
To o
an ted
MEM ORY
r ator
Ġsup press
x j
Ġd rive
Ġd lg
und les
B j
Ġparent NEWLINE
ĠT RAN
f X
tmp l
BO OT
Ġ2 32
Ġdescri bing
Ġ ------
voc alized
Ġobtain ed
5 75
49 1
is ters
w izard
Ġtorch vision
on o
y an
# -
Ġinter vals
pri mitive
p ivot
Ġr df
ĠPOSSI BILITY
sad ness
Ġcherry py
ĠDis patch
Ġme l
Check ing
W u
is i
Ġre sNEWLINE
ĠSER VICES
Ġend points
Ġstruct ures
a id
he ses
Date Field
Ġdeploy ment
Ġs tem
effect ive
sql alchemy
p j
new line
4 22
Ġsat is
ufacture r
be red
j atz
A VE
Ġ{} :
G igabitEthernet
Ġbe haviour
te sian
ĠZ hejiang
E ED
C SS
inte l
Ġxy z
Ġd types
6 99
col lision
mat rices
5 28
la x
# ----------------------------------------------------------------
ĠP open
Ġlogging NEWLINE
d as
ĠS Cons
oc ation
Ġcy box
( !
Read ing
Ġb old
syn aptic
ASC II
NEWLINENEWLINE setup
At trib
Embed ding
G a
Pa use
for ge
sv m
Ġvariable NEWLINE
fi df
ffi li
00 09
List NEWLINE
n am
n j
Ġli mited
bri ef
Ġd ownsample
Ġs te
ne utron
ĠF ull
K P
Ġper f
ang ent
RO UND
ĠSetChr Chip
let ters
Ġlong Desc
x BB
ml p
Ġt xn
Ġs lave
str and
WE VER
itor ies
Ġse ek
or ical
pre ad
adr atic
Ġp NEWLINE
Ġ2 11
Ġpa inter
J OB
O m
Ġno va
pre set
G g
S ur
Ġposition NEWLINE
Men lo
b ash
p open
ĠLE FT
Ġwidth NEWLINE
U z
ĠA ES
Ġw ildcard
s ip
Ġf ut
ĠC ore
pen ame
PR IV
Ġexception NEWLINE
pick ing
E h
WE IGHT
G iven
4 39
ile ge
pub key
Ġs mb
ĠAss ign
Ġnamespace def
Callback Impl
ĠIn v
Ġplot ting
Ġ200 1
mp s
ume rate
camp aign
6 79
)) ).
4 77
t ie
il led
config NEWLINE
Permission s
\:\ |[
Ġg p
Pack ets
ques ter
N AM
6 11
ĠSUB STITUTE
Jj Q
Ġhe ap
cor ners
': (
gp us
SE CON
umen ted
ĠF ail
flow Error
ĠS DK
oper and
Ġnorm ally
ĠSetChrChip ByIndex
bar rier
Ġch anging
MPL ARY
Ġar m
ce iving
Q Graphics
Sub scription
Version Meta
Comp iler
FA I
CURE MENT
q w
RUN NING
to string
Ġpre processing
Ġde pendent
ĠCurrent ly
ĠAct ivation
LU RE
B SD
Ġde s
9 69
no me
8 78
Ġp lots
Z J
k ing
In tended
tri bs
W L
Trans lation
He ads
in ate
py NEWLINENEWLINE
ss ig
Ġl xml
TER M
I jo
HO LD
h adz
ĠS HA
Ġh ot
au ge
H it
me ns
Ġlas agne
t xn
e red
9 14
i ation
QU EST
Ġf oreign
4 88
Ġ angles
H SG
Ġr NEWLINE
5 24
MET ADATA
Ġunicode NEWLINE
Ġ[] :
6 28
Ġbra cket
url patterns
Te le
ddex C
4 07
ĠE ng
de ck
ĠGOO DS
09 22
n ight
ĠDISCLA IMED
NULL ABLE
E v
Ġparameter NEWLINE
# %
F lt
ĠTHE ORY
Ex pi
over laps
Ġiteri tems
P ending
54 1
Ġt rees
ĠUNI FIED
Ġ2 20
RA X
Speci al
4 12
Ġne utron
b mp
Ġv ox
ĠL ambda
w ant
next State
G y
Q AA
ic mp
oc cur
0123456 789
X s
cap ability
pl ug
chil kat
3 88
ex clusive
ĠS ame
00000000 00
ĠHO WEVER
sen ger
5555 5555
04 00
ĠA udience
Ġre NEWLINEfrom
se ctor
Cir cuit
4 08
Ġequ ation
ĠINTER RUPTION
x max
44674407370955 1615
Ġpy lab
ar xiv
as i
mon o
In dices
Ġdomain s
X z
10 56
Ġweak ref
att ice
5 38
D ROP
ĠIf NEWLINE
gn oring
4 18
Ġ Keep
dim NEWLINE
Un der
bla h
li mited
tw isted
Qu ick
Ġ' ^
I gnore
Ġme chanism
Ġcontrib utors
Distri buted
ĠCreate d
8 28
Ġco mes
Ġlines NEWLINE
e fa
Ent ries
P ayment
Ġpro xies
NEWLINE train
H j
02 06
Ġlong itude
filters ort
Ġpre ferred
F k
illi seconds
ne st
ĠF lat
f le
os ted
) +'
me k
rep orter
Ġge vent
al location
(" ./
Ne ed
t ca
ag ain
max size
Ġmethod sNEWLINE
LI P
Ent ropy
UN T
re el
Ġrestri ct
O LD
V pn
Ġt v
' ;
Ġauthentic ate
S hould
bo unded
Bound s
3 66
Sp acing
fail ures
CON NECT
Ġt abs
comb at
K M
ĠP ub
ĠMe mber
T HE
d q
ho re
Channel s
ĠSh ort
dis count
Ġrequire ment
Ġs ing
Ġle ad
Ġcom munity
ĠVis ual
He alth
Ġ= ========
po sNEWLINE
ĠCAU SED
S ql
pi o
ĠEXE MPLARY
J ava
Q Text
74 0
P J
ho ver
Ġ ------------------------
R ON
v cf
analy ze
Ġshow s
Ġinterface NEWLINE
Ġext ras
rad ians
ident ifiers
re presentation
Ġkeep dims
+ -
f ds
ĠRe place
ur b
ne ar
function NEWLINEfrom
(" '
j ack
PR I
SW ITCH
55 1
Q x
ĠSystem Exit
O h
Ġsup ply
U w
ĠMis sing
Ġz lib
? >
Ġa ck
u w
Ġg ym
P ixmap
vo tes
03 49
net s
Ġmodel sNEWLINEfrom
VN IC
STOPWORD S
AL PHA
Ġp w
C map
test case
ĠS ha
ĠH andler
X N
N ested
cla mp
Ġd NEWLINENEWLINE
ch mod
np z
At tack
Clo sed
Ġconnection NEWLINE
estim ate
Ġsw agger
ĠPRO CUREMENT
ATTRIB UTE
ĠV olume
Ġblock NEWLINE
Ġse ason
Ġaut ogenerated
Ġ`` (
in spection
Oc curs
W n
Tra de
t up
bra cket
02 19
T lv
long long
59 0
============ ===
ri or
are as
Trace Source
U v
pro f
Ġpl ug
lif etime
Ġground truth
Ne ighbors
c ros
Ġ2 048
Mat ches
Ġdocument ationNEWLINE
Ġstop ped
produ cer
gre y
Type Definition
Fsm Stage
S s
stat uses
5 29
S lider
n it
QUE UE
Ġre ported
GGGGGGGGGGGGGGGG GGGGGGGG
( $
W ire
==== ==
Ġrelease d
Ġse ar
Ġrep lic
ĠC F
V J
cond itional
O VER
get Attribute
Config Parser
5 77
q Y
cal ib
Ġac cessed
Check s
SE CTION
Ġmax len
Ro om
co erce
Time s
override s
REC ORD
or test
P Z
j en
Connect or
param sNEWLINE
integr ation
Q h
{ :
ab i
| "
or ry
S z
str NEWLINE
im ization
Ġa e
Re po
ĠJ s
Ġ{ \
mer s
IS CO
Button s
]] ),
a way
de conv
BIN ARY
po le
DO UT
l le
C x
dec lare
m cast
I NEWLINE
Ġmember ship
ad b
o ffer
c riteria
po tential
ex istent
Ġpath lib
U a
Ġbel ong
a vi
-------------------------------- --------
UR ATION
Oper ating
] ._
is play
ph ony
Ġtyp ically
Ġ# ------------------------------------------------------------------------
Ġsp am
D j
s uggest
b lender
Ġpo ssibly
H Z
Ġ rid
fact s
S ame
ĠH ash
5 15
9 19
Ġh ierarchy
Ġb boxes
Ġend ing
Ġs izer
R DI
ffe rent
ARG S
Ġf an
C u
R v
86 133
ĠIN T
Ġsh ip
Ġgener ates
Ġ"- "
CLO SE
Ġfeed back
Ġde legate
G reen
start up
clo uds
Ġs NEWLINENEWLINE
MEN U
S en
add Cleanup
Ġcopyright NEWLINE
Ġplay list
/ {}/
cor ded
ffi ciency
R d
D d
Ġbe come
ĠOTHER NEWLINE
Q Icon
b ench
PRO TE
ie ren
gr u
8 65
Ġ2 83
Ġide a
00 06
Ġbound aries
Ġs it
j nx
un supported
IGNORE CASE
ĠNone NEWLINENEWLINEdef
OP T
re write
istr ator
4 11
NEWLINEC JK
av y
ĠS ec
st h
Ġtarget NEWLINE
pro cletic
ĠB gp
en cletic
ĠM ultiple
Ġnetwork NEWLINE
desk top
47 1
ĠL ock
ss a
foot note
rup ted
ut ive
Config ure
96 2
scope s
ĠPrep are
Ġb ank
de sired
": {"
pre ference
od d
Sa fe
aut om
Ġact s
NotImplemented Error
pro x
Ġtermin ate
hard ware
6 35
B tn
Ġ'' ',
Tag List
============ ==
NEWLINE STOPWORDS
ge bra
li x
5 48
Ġprocess NEWLINE
BACK END
Ġ2 33
S olver
t ight
(' !
Ġmapp ings
ĠS n
: ]))
la w
ĠS cale
or ator
O ID
q x
P x
n B
lo ops
z K
Ġca ffe
Ġexp onent
j an
util sNEWLINEfrom
Ġsession s
morph ic
Ġboolean NEWLINE
Ġs uggest
P b
a el
p list
re ts
Sample s
y k
U x
HI FT
6 02
gra b
Ġo m
U o
5 68
do f
Ca lendar
tin uation
11 35
8 68
q g
z r
RD X
()) [
FB tr
9 15
fe a
Ġinte ract
Ġs udo
Ġsp awn
Ġlat itude
98 2
Ġprom ote
ĠFe ed
Ġr ating
ĠSe cond
5 66
S lug
7 69
C p
XX X
ĠCh unk
ab lish
Ġ que
Ġb ridge
cre dential
la h
9 66
args pec
un a
PAR T
ke mon
pro blems
ask et
38 14
Ġs ynchronous
ground truth
Ġatom ic
R BP
ĠC a
Ġin tent
spe ech
NEWLINE Created
L AT
size of
MB OL
9 49
Ġm otion
F ront
Ġ um
Ġan imation
N J
Ġpat ches
LIG HT
T c
Ġobject NEWLINENEWLINE
Ġlar gest
result NEWLINE
08 00
bir th
ep ub
h yp
Ġnum s
scri bed
p name
Ġ ly
9 34
Ġde clar
8 54
controller s
AD CAST
Ġi ma
ĠFIELD S
Variable s
ĠE ither
Ġa cl
. '))
= /
Ġn l
Ġh its
B b
cred s
e lf
q v
P NG
Ġte le
Ġdi vide
ĠInte gr
89 2
Ġi rc
Ġ mention
ith metic
ABLE S
Ġloc ated
("/ ")
Bridge Domain
get Name
inter sect
Cal culate
Q e
rad ost
ST EP
Ġh olds
L d
__ '):
al ist
... ]
F LOW
Ġsec ure
ĠA gent
ClassMap Bg
C ut
Ġstring sNEWLINE
Ġconnect or
interpol ate
O o
ĠAR G
Ci Ag
8 39
W G
4 17
7 17
Ġp add
ĠI DD
t ap
D gE
ĠHE AD
GGGG GGG
round s
so lid
Ġc func
H k
][ :
j l
U b
Ġ------------------------------------------------------------------------ -----
to lerance
tr g
UNI QUE
5 44
} _{
04 88
percent ile
ch apter
p ressed
06 38
Fil ters
5 45
l ut
M IC
Ġc n
], '
tran script
Ġtw ice
bl k
Ġp seudo
sub title
serial ization
ur able
Ġ{ !
Ġmatch NEWLINE
Element Tree
04 38
Ġpy thia
re ject
yy yy
Ġal arm
Ġobj NEWLINE
Arch ive
la pping
5 88
Ġt reated
V c
ĠOUT PUT
ĠW hat
get Elements
Ġt i
Cap abilities
S ITE
Ġm f
Reg istration
R Z
pro xies
8 15
circ uit
a head
ĠR ot
ĠS ig
Trans late
lon gest
ne e
(( ((
9 35
Obj C
Ġ4 096
9 29
ĠGroup ing
Ġstep NEWLINE
Ġt ip
Ġframe NEWLINE
IO Error
ĠE C
M ixed
DE S
ĠL LC
Ġstat istic
adv anced
Ġlogging NEWLINENEWLINEfrom
Ġalign ed
blob s
DO UBLE
('.') [
Ġin ception
path name
BO SE
Ġover lay
T urn
Ġ3 22
4 10
d ownsample
black list
sp end
ĠDistri bution
NEWLINE DATA
12 35
Ġside bar
ĠP OP
Ġassume s
ĠĠĠĠĠĠĠĠĠĠĠĠĠĠĠĠĠĠĠĠĠĠĠĠĠĠĠĠĠĠĠĠ ĠĠĠĠĠĠĠĠĠĠĠĠĠĠĠĠĠĠĠĠĠĠĠ
6 15
oper ators
py c
ĠLe vel
Ġexpi red
> &
H X
import NEWLINENEWLINEimport
RC X
96 1
=" \
EX IST
Ġf loor
bb bb
ar be
ĠSty le
5 06
E OF
ĠC y
01 32
} %
Ġp ure
Ġans wers
lat t
ĠSt at
7 18
sp ar
Ġcon struction
ide s
is son
AttributeSet Union
Ar n
face book
ner ability
-- +
U csPropertyMeta
AL LED
Ġ... ]
Ġpresent NEWLINE
l ingNEWLINE
capital ize
Comp are
ity NEWLINE
Ġs dk
ĠU csPropertyMeta
am t
9 18
th row
Project s
} ([
SA VE
Ġ478 29
how to
02 74
Cons umer
Ġ xf
\ ">
max len
03 44
ĠMan agement
cons istent
Part y
Ġa io
Ġcomp uting
36 08
E z
num NEWLINE
R u
attemp t
cat s
x ception
Ġr at
Ġ3 48
Char Block
ĠDown load
Ġdis criminator
ĠPer iod
G TT
Ġcon j
py pi
extrap olated
th ough
ĠM ore
Ġtest sNEWLINE
6 07
ĠF ast
h ui
Ġmin ibatch
ynam ics
("" ).
Ġas c
ch astic
6 06
g am
Ġde tailed
9 75
Ġpost synaptic
ĠSIG N
ĠAdd rNEWLINE
add ons
ri sk
6 26
)) /
ĠAdd s
is su
78 66
5 79
18 446744073709551615
estim ators
ĠM pls
> '.
ĠCal cul
05 66
in ar
DI O
Ġf ft
Con trols
exth op
bo ost
7 26
sh if
Ġpro viding
V p
W O
B right
url parse
Reg ular
Ġh er
req s
code gen
Ġw ish
CHO ICES
Cur rency
Ġcontent NEWLINE
Token s
E a
attach ments
USER NAME
Ġtrig gered
) [:
ĠHttpResponse Redirect
pre amble
DE CAY
Normal ize
7 15
L ive
Ġde tector
Th an
Allow ed
Ġcol lected
ia o
n de
Ġloop NEWLINE
Ġattribute NEWLINE
Ġlex er
Z F
9 16
G aussian
Ġ= =======
Ġnew s
Class Type
5 69
Ġcor relation
Ax es
ĠP layer
Ġident ified
C tx
ad as
7 11
Pro cesses
Ġcopy NEWLINEimport
lig h
7 66
rad ing
Ġspect rum
4 75
S id
ĠD WORD
en te
ver ified
SIGN AL
w al
or ange
) ()
=[ (
Ġstick y
Ġ[' ',
Ġsocket NEWLINEimport
Ġw i
edit able
TH READ
Ġd w
cl ang
Ġkw ds
ĠMet adata
vi p
(' </
Rrc Sap
queue s
X K
mo lecule
h ib
Config ured
g ran
Ġleg acy
C ds
p ulse
d yn
ame l
ĠP a
5 17
ĠN ull
8 18
re is
cor por
Ġdirect ives
dir path
Table s
t it
Ġa a
03 11
Ġref lect
qu otes
Ġof fi
Ġg rp
iso format
Ġ ĉĉĉ
y et
n ik
op acity
H M
Ġ+ \
Ġde ps
ĠSup port
L w
Rect angle
% .
e asy
C BC
ĠT en
04 34
r sp
expi red
qu id
P ay
t ig
4 78
Ġv tk
Mo unt
Ġ jo
YV FA
>. <
key board
IDD EN
9 85
ĠC R
own ed
Ġport NEWLINE
ex cel
s mo
Ġf tp
\ ":
Con cept
sca ler
Ġlevel NEWLINE
8 29
time NEWLINENEWLINE
Ġover all
We ek
n se
Ġrandom ly
8 79
5 76
la mp
02 58
out NEWLINE
train er
q J
SS ING
09 38
ph en
PO P
Ġde velopment
Ġv rf
Ġevent NEWLINE
EQU Z
03 03
Ġdiag onal
Ġol der
* ')
V z
Bound ary
mark ers
we bsocket
Ġnot ifications
SI E
8 11
Index Error
Ġtrack s
ĠH ubei
interpol ation
r find
E mp
FI RST
ha z
rep lica
Ġavailable NEWLINE
ĠF UN
Ġopen ing
Ġexp ansion
Ġpart y
7 24
re b
S ca
to on
l x
ĠI gnore
Ġag ree
ĠS ync
ur ons
Ġf av
is on
ĠCO L
Ġg id
S UM
y b
com ma
Ġcom ing
BY TES
Ġbind ings
en velope
BRO ADCAST
Ġcorrespon d
userag ents
G n
ĠTechno logy
4 72
=' _
Ġ undo
ĠĠĠĠĠĠĠĠĠĠĠĠĠĠĠĠĠĠĠĠĠĠĠĠĠĠĠĠĠĠĠĠ ĠĠĠĠĠĠĠĠĠĠĠĠĠĠ
e vpn
8 14
S J
cycle s
Y m
di ter
Ġspl its
04 29
ĠT wo
Tunnel Heads
6 29
ĠA BC
ĠIN TEGER
for ma
Tunnel Head
Ġh olding
v j
Le arn
Ġi v
Ġg uid
FOR WARD
ĠM D
tr ust
Ġoffset NEWLINE
ĠSQ LAlchemy
tag name
Ġqu oted
team s
ĠTest ing
An chor
46 0
min e
16 94
Ġfile NEWLINENEWLINE
HTTP Error
dict NEWLINENEWLINE
Ġx or
D IC
R ound
ab il
ĠQu ant
Ġch allenge
U J
ĠR ow
os a
ma j
an za
Ġtra its
Ġ200 4
ĠS olver
H older
Ġ" "),
Ġgra b
Loc us
Ġg ather
="" ):
offi ce
ĠR ect
Ġma ch
or ation
Ġo ct
P z
]] ))
A INT
L ST
Ġsli ces
Log ical
ĠSm art
6 75
` """
kw arg
Ġsp ot
A cl
02 29
local time
S trip
v ation
Ġp ane
Ġs af
lib raries
sym link
L r
Model Admin
Ġexist NEWLINE
ĠSTAT US
Ġh is
Ġnn NEWLINEimport
Z k
ul ing
Ġhe ading
Ġpath NEWLINENEWLINE
__ ')
ar ator
H q
A q
app engine
ost ream
NniTunnel s
): ]
ĠSTR ICT
game s
t if
f z
U d
W d
ĠInst all
6 76
D on
Ġf m
68 42
h x
r ub
t ier
Ġver b
O Auth
be havior
context s
X t
re k
email s
05 14
s la
E I
Ġnode sNEWLINE
Ġrange NEWLINE
Code s
Ġhel lo
ĠSpeci al
Ġpass wd
Ġcon tinuous
B IG
ĠM AP
RE ST
Ġ4 01
pos y
Lo ok
Count s
67 1
Ġv a
o uble
h icles
= (),
width s
Ġo mitted
S quare
Max Pool
p ap
Ġph rase
AP PS
re present
ĠT itle
6 24
c ritic
=" +
Ġlet ters
A ge
[- \\
Ġ virt
ĠM IME
//////////////////////////////// ////////////////////////////////
Tag Name
86 132
8 58
ĠS cal
ĠD IS
E lem
Ġver ification
IM ARY
Inline Cmap
9 64
Ġtag NEWLINE
B v
ĠAppro ved
' @
N n
art icles
sur prise
# *
p z
Part ial
ensemb le
8 55
Bal ance
66666666 6666
pro posals
Ġfe e
Ġn v
X J
dd dd
getElements By
lap sed
Ġt tl
Cho oser
Man aged
Ġnew NEWLINE
56 0
T J
! ]
st al
b attle
14 43
Ġmag nitude
d uplicates
w u
cost s
ame r
ANG O
be e
L l
TOO TH
############ ##
Ġg i
stop ped
} """,
txt NEWLINE
Ġquery NEWLINE
gad get
Ġe NEWLINENEWLINE
GG T
Ġsource NEWLINE
shape NEWLINENEWLINE
Ġalso NEWLINE
ra de
Lis ten
8 05
J II
O l
Ag gregate
set Window
ĠF ix
ĠT Transport
9 68
write row
`` :
i ten
Ġclient NEWLINE
in ject
episode s
Ġv id
trans mit
R FLAGS
Add s
Count ry
Separ ator
IM UM
Y K
[' __
Ġ} ),
Ġhow ever
ĠOrig inal
s ilent
L CA
CO OK
(' .',
Ġinter sect
a wait
9 04
Ġplatform s
Ġinterpre ter
fo od
continue NEWLINE
P AY
6 05
ĠM obile
Ġp ix
S CH
W s
& %
j inja
B f
comple ter
Ġre play
ian a
P ut
con ver
$$ $$
ĠDer ived
Ġj ava
at ile
U MP
ci e
path NEWLINEimport
im db
Ġup loaded
S END
ĠS parse
app lications
CT D
ĠO SI
F t
INTER VAL
mit ives
ĠO W
','',' ','
JU MP
84 2
o li
ĠG ui
9 59
R z
Ġnew ly
Ġd n
Ġso lid
Module s
Ġsp rite
set Current
L Z
bit map
ch ip
Ġso NEWLINE
a es
ĠP RE
REMO TE
od ata
P HO
Q b
de claration
Ġy es
Ġr f
Ġsy mbolic
Oper ational
). \
ĠR oot
VID ER
Ġmis match
endi x
8 06
ĠD ropout
C LS
Ġun handled
De g
9 02
7 05
AT ES
len ce
ĠP i
th ickness
ĠT LS
228 33
Con firm
]) /
return NEWLINENEWLINE
U INT
ĠEd it
Ġstring NEWLINENEWLINE
OR IG
Ġeffect ive
ĠA tom
push Button
flow s
Jo int
ome ga
it r
W r
'] })
Assign ment
Spi der
Ġf b
c q
on ts
O A
tool tip
* ?
ĠC RE
ida api
ur lencode
RE SH
F OO
} :{
P f
8 49
ĠM erge
7 34
Ġ' !
Ġh a
) ].
Ġr g
HAND LE
ur st
Ġpd NEWLINEimport
06 03
4 65
ĠAs ync
L N
list ing
abo ve
[^ \
cp us
02 85
Vo ice
77 0
c lic
de ts
", ),
ĠCon volution
redirect s
ĠM PI
ci fic
t at
], (
ĠC ard
Q a
ist a
Q Abstract
Ġcre ator
ĠC I
'), '
dist s
C rypto
Ġinput sNEWLINE
Ġplt NEWLINEimport
Menu Item
ĉĉĠĠĠ Ġ
A lert
Ġg h
Ġtmp l
po ols
ĠPri vate
Ġsequence NEWLINE
T b
() \
SH ORT
Ġpass NEWLINENEWLINEdef
ĠConst raint
bud get
Ġw p
Ġplace d
7 64
P NEWLINE
ĠD ynamic
so lete
context manager
Ġmid dleware
9 05
F m
S MS
spi ke
Ġpos ix
7 29
72 00
T ouch
Ġw av
AC TS
et o
ĠF A
` ).
Ġallele sNEWLINE
Base d
Ġneeded NEWLINE
Ġ4 32
I v
: ':
Re play
; ")
BLUE TOOTH
Ġkey board
5 13
C ustomer
arch itecture
ear ly
l ad
ĠRE TURN
E pc
at ively
)) (
Le arning
Ġlog file
ve get
Read able
GRE EN
9 65
cont ig
ĠControl ler
file system
Pre vious
8 69
en codings
7 09
H NEWLINE
Ġr val
D uplicate
P v
Ġp x
sp ans
Ġl c
w or
Ġ> ::
8 33
attemp ts
state ments
Type d
)) -
Ġsession NEWLINE
7 99
y Y
IDD LE
Ġlower case
05 02
ĠOption Parser
+ )/
7 13
pers istent
ĠAss ume
Ġdistribution s
M icrosoft
C he
P n
Ġ200 3
K h
8 66
ĠSe gment
co uld
Ġstream s
?? ??
SI MPLE
x v
ĠA NEWLINE
Ġgraph s
count NEWLINENEWLINE
202 0
shortcut s
7 19
Note book
)] ))
name sNEWLINE
segment ation
[ ~
Build ing
w ildcard
NEWLINE version
Ġon line
SO NE
fire wall
match er
JJJJ JJ
app en
Ġjson NEWLINEfrom
)+ "
+ )\
j Y
di mage
9 12
function NEWLINEimport
Z v
ĠConfig ure
14 19
D t
Ġex e
Q q
EN O
Ġfactor s
C MP
sur vey
> @
emp loyee
8 32
ĠP ATH
ĠOP TION
d ilation
Ġthere fore
Ġret Val
D u
E k
ul li
05 95
Restri cted
Ġt up
Ġ# ~
Ġdist inct
di es
Ġgen es
9 39
Nt Gdi
R m
leave s
( %(
d pi
pro v
cla im
ĠF etch
run k
7 65
ast s
]) ',
8 99
ĠF igure
week day
b ic
Ġst oring
O Y
############ #
ĠL java
5 18
ĠDe leting
P itch
89 1
12 33
' -
At tention
IIIIIIII II
xa xis
Autom aton
6 09
5 86
ush Button
i or
DD D
id b
ni i
Zip File
ress ant
ĠBA SE
MI SSION
Ġy y
cha ft
+ %
sup press
vp c
O z
0000 1
NEWLINENEWLINE For
Page s
ROUT ER
02 99
ĠAc cept
z able
Ġwork sheet
Ġbro ker
Pr inter
Ġw sgi
Ġg uest
C li
Ġen countered
Ġ": "
D id
5 0000000
PRE C
iv y
om b
de veloper
Ġ ĠĠĠĠĉĉ
in dividual
lo p
trans lations
Sto ck
Ġw d
NE IG
le nt
'] "
} </
f olds
Ġpro t
it z
lo st
Ġdis card
Ġre wards
group Box
expression s
ERROR S
- "
j mp
offset NEWLINE
Rslt Val
Ġh s
No ise
L ER
ĠF lags
spe aker
8 07
S v
ĠNetwork s
h ind
Restri ctions
Ġde claration
Ġprint NEWLINE
Test Suite
b is
ĠH iggs
Ġor ient
ak i
ĠW idget
n orth
Ġ2 36
j c
Object Id
4 66
trip le
ĠL ong
Ġpa use
Ġbot tleneck
85 74
O ps
00 14
pre fetch
Ġkey sNEWLINE
:::: ::::
from timestamp
ima genet
wo od
ĠU NK
ĠC allback
c name
Ġoutput NEWLINENEWLINE
tp u
URL Field
sens us
ĠM S
ur s
IN FORMATION
Handle s
int r
) ':
lip ay
T erritory
Z R
Ġv max
EN CODING
Ġfile obj
comp osite
Ġexec uting
G amma
P LYP
ĠPy ObjC
sp read
skip Unless
I RE
KEY S
W J
b q
(" >
Ġf lex
Ġ"_ "
p ane
spe ak
ĠBu ffer
scra py
ir ing
': "
Ġe tag
Reference TypeId
Q r
ro d
bj ad
break NEWLINE
in n
Ġres olver
Ġstyle s
E e
n der
7 06
97 1
ĠRed is
Ġedit able
ĠBl ue
E t
Ġscale s
Ġcopy ing
Group Name
Ac curacy
f en
> .*
Ġpress ure
Py thia
Ġcomp uter
Ġfor get
7 38
46 1
6 27
u fe
=[ ]):
K NEWLINE
] <
u db
e of
cele ry
Ġfloat s
NEWLINENEWLINE Locus
Message Begin
P lain
Ġmp i
Sy m
4 74
W y
8 74
84 99
NAME SPACE
font size
) (?
Char s
Ġdis covery
Change s
ĠFile s
00 19
LD AP
met al
ĠIn ner
ĠI terable
mer cial
Ġdis connect
context NEWLINE
Ġhas hes
NEWLINE ss
Ġlock ed
SE Q
Ġgraph NEWLINE
admi rable
Loc ale
Ġ ĠĠĠĠĠĉĉ
6 03
CCCC CCCC
> ;
m nemonic
AC L
Ġd pi
ĠRe fer
Ġco in
Ġin vert
Ġeas ier
Ġ7 04
T m
And Return
WH ITE
LAY ER
ist ance
Ġ" ('
ĠC SS
mod al
per mutation
I a
Ġsh ader
re current
() '''
ĠE NERGY
| <
X CI
GP IO
123456 78
url NEWLINENEWLINE
vol tage
ĠN umpy
ĠFor ce
g dk
Ġg oto
ein sum
le ader
bal ancer
âĢ Ŀ
ALLOW ED
g j
watch er
:: :
ĠR oute
direct ive
Ġpen alty
y max
Ġ licenses
Exception NEWLINE
Col lector
H er
Ġde viation
G t
T ur
no se
Z p
De corator
Request Id
ĠMo dified
Ġpy ramid
ACTI V
Ġcon vention
Ġg aussian
alloc ator
O ST
Ġcl assesNEWLINE
M usic
5 19
pe ts
st ro
le ri
4 27
c xx
Z D
=' .
out side
sc f
Y o
Un icast
4 38
Data Loader
ĠLe arning
K Q
Be havior
re di
ĠW arning
Ġregular ization
i ris
Ġimp l
Ġin ject
F un
Ġst ory
9 24
ĠC ap
activ ated
diff s
ub ble
Ġform NEWLINE
9 09
al ice
7 35
Ġwrite s
T f
ges ted
[ ]+[
PECT ED
7 12
%% %
9 45
Ġb on
Ġimp rove
J t
AA AD
taint y
Ġa bjad
The me
Ġx i
Ġ` [
bot o
ĠUI Element
Ġc rypto
TH RES
Ġrun NEWLINE
4 64
Ġw anted
Ġerror sNEWLINE
Ġupdate dNEWLINE
T Str
ĠD ep
Ġestim ated
b lit
Ġi e
postgres ql
n args
check points
J c
=" _
Ġ= ==
Ġg f
Ġbel ongs
ĠEx ternal
ve ct
Exception NEWLINEfrom
@ %
M r
Ġ ray
Ġjson NEWLINENEWLINEfrom
Ġdraw n
Ġlow est
Ġv ote
cur ate
Ġcustom ize
ob served
Ġsi tes
U q
Ġarc py
Ġ2 30
Ġps util
bu gs
ENS OR
wi max
IC K
x h
k ri
Ġcor rection
Ġi ps
Ġs lope
84 1
17 17
ĠUn ix
Ġ ul
ang bind
Ġp v
c ad
NC Y
Ġtrunc ate
ĠP ick
be und
Ġhard ware
T AL
Parse Error
Ġpro cedure
* "
i la
Ġa ffili
Match er
erk zeug
75 86
cre ts
After Policy
ci dr
Ġag g
Ġgr ant
Ġempty NEWLINE
Ġtrans lated
con tinuous
vol ve
NEIG HB
9 55
Ut ility
skip ped
9 86
V q
ĠEd ge
k lar
ĠHo ok
F ER
Ag g
Chr Thread
ur istic
| (
7 33
Ġint s
Ġotherwise NEWLINE
04 32
P ie
C ER
C AM
z p
assert List
D NA
8 12
ĉĉĉ Ġ
time line
Ġt bl
eval u
re index
Ġs ynchron
map hore
H d
capt cha
Ġw iki
multi NEWLINE
K g
ĠReg ion
=' "
str y
de compress
Spin Box
Add itional
GU ID
an je
war ded
NEWLINE elif
ĠR MT
inal ity
Ġn ms
Ġsome times
Ġway s
Q f
ap ted
Ġi da
8 38
Ġde letion
cv t
T ITLE
Ġp list
Ġexp iration
6 74
ĠAn hui
ĠNa N
Ret rieve
Assert ionError
Ġve hicle
j y
in tensity
. """)
QP ushButton
ob server
Ġp ressed
asse ss
un expected
e ol
Ġ( \
ĠP ut
Ġmonkey patch
Ġre mo
PA RENT
ĠDe precationWarning
Ġcom bo
m ma
li very
ne y
associ ation
L ower
er bar
Date time
h ints
' "},
Ġf x
google apis
n ational
AC COUNT
Ġcon structed
As cii
Ġtri ple
ĠBool Property
ri an
07 96
NEWLINENEWLINE log
00 63
net loc
JJJJJJJJJJJJJJJJ JJJJJJJJ
Ġ der
Ġme s
Ġtri angle
s andbox
Ġpar ame
read MessageEnd
Ġ= ================================================
at ility
Ġsegment ation
Ġinto NEWLINE
D k
Ġk l
IM G
Ada pt
Ġ2 54
Ġke pt
fa vor
Ġpers istent
' ``
instance method
Input s
c and
ma cs
01 05
6 797
7 39
78 0
Q p
S ENT
v ity
Ġc auses
B RE
to wer
c ations
dice sNEWLINE
N f
Z r
79 0
h ierarchy
ĠD ialog
schedule d
Ġmark ers
Ġinterpre ted
L t
Ġ3 44
AT ER
lit tle
Ġ2 10
UD P
U c
ĠSp ace
OR ITY
st i
'' .
Ġrequest sNEWLINEimport
P u
CONT ACTS
X y
micro soft
8 24
Ġp as
ĠSum mary
B GR
Ġvalid ated
q name
Ġbyte code
ap se
ĠRE G
Ar row
(" \\
DIR S
ĠST ATE
Ġ ĠĠĠĠĠĠĉĉ
7 16
b ranches
Ġdir ty
MO VE
Comple tion
flow spec
it ors
9 11
8 64
8 34
DI FF
D c
Ġt aking
date NEWLINE
t ir
Ġ0 3
ĠElement Tree
ab cd
99999999 9999
V t
Ad just
9 74
6 72
skip If
ĠSe q
export s
white list
Temp erature
ra pping
in structions
ta k
assign ments
Z u
std c
Ġrespect ively
Ġn y
H ot
un an
ter y
#------------------------------------------------------------------------ ------
re lay
ĠA ir
top o
Ġinte raction
! )
Ġ- (
ĠCON T
Or ganization
V b
ct ures
69 0
in cluding
R g
Ex pect
s ures
ip y
stack overflow
imple mentation
lv l
Address Value
02 10
May a
ĉĉĠĠĠĠ Ġ
l ings
r us
pen s
X b
ĠC ir
Ġtempfile NEWLINEimport
L J
ap ro
e Error
De tection
er a
Ġglob NEWLINEimport
ĠTrace back
Ġyear s
ĠR ole
reduce d
ĠPat tern
E j
bot tleneck
Ġ( {})
ĠS cen
ĠA F
cur ves
LANG UAGE
Ġ7 05
LIC ATION
N ST
) ([
var name
ND ER
Ġn g
CU ST
Ġdecla red
Mg mt
01 46
n op
Ġ2 29
9 76
H v
L p
den ted
sn ippet
Ġblock ing
Ġdrop ped
f rontend
"," ",
ĠWait ChrThread
Ġde part
Ġfolder s
shard s
T AB
Widget Item
4 86
st ype
an c
analy zer
AG IC
VER TICAL
Q v
GGGGGGGG G
P ED
pl ant
Ġsign ificant
E THER
sub lime
cmd line
Ġargument NEWLINE
gr up
Ġ) ;
W p
Ġ( ([
({ },
Ġ'- ',
Cre dential
Ġ ----
ĠNot ification
AC CEPT
ar ct
Config urations
anti ate
du se
t ank
ĠQ U
who le
Ġw ide
For Tag
err ing
del tas
]+ )/
position al
cr ash
Ġsome NEWLINE
ĠQ gs
struct ures
magn itude
07 843
struct ured
C AA
th ingNEWLINE
Ġcor r
v string
v ors
r aster
ot onic
ref lect
height NEWLINE
Ġ(' -
Estim ator
CF G
Ġover flow
Ġfree ze
4 37
6 33
mar ize
Ġf requencies
Ġsym metric
Ġtrunc ated
N k
i map
Ġexpect s
A ug
US B
Z NEWLINE
k la
ĠPro vides
READ Y
Ans wer
Pri v
SP F
St roke
SI X
- {
y axis
Ġtor rent
Ġme ss
DISP LAY
M f
Z t
deli tem
I b
id ity
uz hou
Fi xture
ac ent
8 46
] &
replace ment
R obot
onto wn
X h
Email Field
ĠM ult
Ġp f
di ted
With out
Next Hop
Ġp ivot
se ri
Ġindex ing
TR ACK
pro vided
Ġp ic
DI SC
Ġright sNEWLINE
Ġr aster
year s
Ġwh atever
Ġsk in
it ools
Ġsub stitution
ate st
Ġiter tool
ĠAnonymous Talk
assert Greater
ĠA x
Ġitem sNEWLINE
VO LU
Ġcomp ound
Ar r
ICAgICAgICAgICAg ICAgICAgICAgICAg
ELE MENT
info NEWLINENEWLINE
R aster
ĠW idth
Ġ2 99
Ġthreading NEWLINEimport
ĠBack end
Ġm ongo
set Geometry
(' @
VALUE NEWLINE
Jj U
FN GL
pe ats
X S
k ol
ĠStruct ure
ĠT min
Ġdetermin es
), )
aren cy
M ut
lib stdc
Class ification
Y R
98 1
ĠAPI NEWLINE
B t
77 78
Y a
Ġcent ral
sha res
9 25
L k
58 1
Ġintern ally
unc er
e er
success ful
Ġpol ling
ĠH igh
Ġrow NEWLINE
Use ForTag
Ġtime NEWLINENEWLINE
List View
K u
ĠIN FO
W P
ĠFadeTo Dark
Ġcurrent NEWLINE
Ġsum maries
9 38
` ):
array NEWLINE
BO DY
ĠC ell
Ġ ĠĠĠĠĠĠĠĉĉ
H ide
ĠR IGHT
Exec utor
Le ave
is Checked
We ights
8 59
I ALI
ĠT max
sp line
c ash
z el
r ne
Ġ3 51
DEP TH
re action
ch assis
ĠData Loader
sent ropy
Ġro l
Ġlike lihood
' =
9 07
ĠReference sNEWLINE
Ġde cl
ĠAr ch
g ds
Ġremain der
Instance List
pt ic
Ġ3 000
Ġobj NEWLINENEWLINE
q k
5 26
TR I
ĠAn alysis
OPTION AL
Ġconfig urations
se mi
the NEWLINE
J p
67 29
Ġaction NEWLINE
) </
01 87
Ġsi ab
ĠLog in
Ġjoin ed
View er
ĠL D
z m
ĠFace book
ĠE lastic
Ġresult NEWLINENEWLINENEWLINEdef
Ab out
Ġmsg NEWLINE
L gE
Ne u
stub s
H l
follow ing
REG ION
ip ython
ĠV ari
. ]
off line
tele phony
Ġtitle NEWLINE
ĠName space
M ultip
ance led
ĠA SN
R b
CO VER
= __
V w
Ġ' ='
Protocol s
Ġimplement ations
Ġsh orter
J a
Sub Chip
() "
on NEWLINE
NEWLINENEWLINE You
ffffffff ffffffff
Ar m
iz vr
Ġ(' ',
cor relation
in vite
Orient ation
py qt
Ġmultip lier
Y PES
ĠSetChr SubChip
K n
ĠS tri
Base Class
FAI LURE
Ġ xt
ise ct
G LE
ĠT ele
SU FF
diag onal
trade rapi
z x
C AR
V h
thost traderapi
=" {
check out
Ġb log
65 59
LOG IN
M SE
Ġp si
Ġsp in
Random State
OW NER
ĠT ApplicationException
lf ormed
Ġp an
Ġal gorithms
Ġp asses
Ġsuccess NEWLINE
Res Net
C v
Ġgu ard
fast q
>>>>>>>> >>>>>>>>
Ġlo ops
Ġmo bile
Sr Policy
9 67
ST AGE
lo v
Ġm type
ĠSyntax Error
ex am
set Checked
lin der
) [:,
96 0
ĠST ART
m oney
be g
Ġtick s
co up
ai re
inline Callback
Ġb ond
Open GL
Pro ducer
m om
ni que
NEIGHB OR
Ġcreated NEWLINE
ub ar
14 66
CT F
Lo aded
Y T
(' +
izvr stan
sp o
Ġsub s
\\ .
* ",
round ing
I SIS
Ġtop ics
e j
__ ",
s ax
'] (
G j
G b
B p
Ġv NEWLINENEWLINE
append Child
O y
Ġn il
. ])
Device s
dat aloader
assertList Equal
rotate Point
13 07
AL T
pol ar
Update s
B n
R AM
lem ma
Ġ3 47
Ġde crypt
$ '
Ġtra jectory
rat ios
ado op
',' ')
sel ves
W alk
ĠPy gments
un s
Stream Handler
Ġm igrate
* :
alle li
am r
Ġst amp
is te
ĠPack et
Ġld ap
9 77
Pre ferences
q o
Comp at
M ass
ak s
Ġrep lacing
Red is
ob div
R AT
Ġu b
Ġt iming
pr une
. -
Ġm ot
D rive
re de
C DF
la red
Ġget opt
ĠFadeTo Bright
COMPLE TED
100 1
9 36
h ack
Ġcol lector
ĠN D
v nd
a ware
Ġcard s
ib m
filename NEWLINE
Ġ2 28
Ġg iving
rate NEWLINE
Ġin finite
joint s
ass oc
Y ES
Ġb w
8 27
US D
Ġpickle NEWLINEimport
QB rush
Ġend orse
OPER ATION
8 16
Z b
49 0
CON N
Instance Id
, <
Element Use
ĠD rop
spe ctor
Ġde serialized
chain s
J n
ci te
Ġc aching
S el
content NEWLINE
ĠDe velopers
I c
ler s
75 18
Ġav atar
Ġreturn Value
namespace d
Ġw heel
G c
Object Base
E vpn
ĠA re
J C
W NEWLINE
Ġpy tz
distribution s
om ic
Ġfull name
z mq
7 36
Ġtype d
transition Set
9 655
9 63
Ġ& =
mon key
ĠF ixed
und ant
Comple ted
NUM ERIC
294 117647
T XT
Ġh older
f atal
Ġout come
> ::
Token izer
ĠP r
ang a
,,,, ,,,,
xtick s
p il
fc n
(' (
port NEWLINE
db se
set Brush
AA AB
duse rapi
iter values
Ġpost s
Ġ" ['
Z A
temp orary
x large
Ġg al
W t
m duserapi
ile stone
ĠCon trib
Up grade
fa vicon
ar on
ĠNe ither
ĠIN NEWLINE
G AB
thost mduserapi
Ġtar file
P m
st orm
69 82
Ġregard ing
Ġk v
Ġloc ator
Owner Account
LINE AR
Me mbers
Ġexpi re
Ġpre f
record ing
Event Type
result NEWLINENEWLINE
ro ad
^{ __
Ġtrans actions
9 56
Vis itor
Ve hicle
Ġval NEWLINENEWLINE
our ier
co variance
CU DA
n ll
um i
Pro jection
ĠA PP
gener ators
CH R
Ġskip ping
HH II
se verity
RE PORT
Ġ> ,
lin ewidth
p seudo
Ġresult NEWLINENEWLINEdef
fe male
init With
Ġex clusive
"] ):
Ġth umb
B ra
ĠJ an
fail s
Ġ0 8
arg inal
ME SH
Ġdebug ger
Ġstr and
Ch assis
Z o
Input Data
S te
ĠCon sole
' --
ĠUt ils
Ġo id
Ġconven ience
ul ates
ĠM SIE
Ġany way
P an
G m
Den ied
8 48
expi ry
Ġcolumn NEWLINE
T d
Ġweight sNEWLINE
cum sum
C nt
Ġoper ating
comp uter
de mand
G ED
D z
CUST OM
ĠIdent ity
dis crete
h ai
CON NECTION
O v
mon str
is her
19 25
Q d
Ġcolumn sNEWLINE
Sh arp
Ġexp orted
S g
Ad j
P seudo
by ref
8 13
ci ence
g auss
con tra
ĠU ses
X a
n ap
Ġme ter
out come
11 15
fo reg
c it
t ill
Ġheight NEWLINE
Ġpytest NEWLINENEWLINEfrom
ord inal
Ġvolume s
Ġ( ))
nd a
Ġst aff
Ġcon catenate
19 04
? ]',
ĠLI ST
in active
down loads
loader s
ĠTime r
F an
sen se
Ġdis crete
ta re
bu nt
optim ized
Ren ame
9 46
Cre ator
ĠG rad
95 1
RESERV ED
e ig
x ED
AL etter
Ġf ingerprint
NEWLINE DEFAULT
ĠD est
Big IntegerField
Ġo pp
Ġal go
id sNEWLINE
L ARGE
M obile
Ġhas NEWLINE
ile ges
Ġal g
Ġfeatures NEWLINE
', ',
ĠS N
ĠLim it
the docs
!!!! !!!!
Ġbe comes
queue d
su fficient
W iki
Ġj inja
Sy mbols
Ġasynchronous ly
Status Code
00 12
Ġdecor ated
se sNEWLINE
p ra
ĠC at
SCO PE
Ġ] :
S keleton
Ġ'{ "
ĠDB Entry
NEWLINE v
B er
ĠQ uest
Ġth ickness
Ġ[] ):
sh u
O g
is null
x FC
H U
Ġsetting NEWLINE
(' ~
' ')
ame n
RE EN
] `
scr atch
ĠM achine
d il
NEWLINE ping
py game
PRO VIDER
pe ers
nat ural
Ġtop level
METR IC
Ġ xc
Dis position
Ġ65 535
Ġneutral ino
T cp
si e
][ :,
No tes
C z
Ġauthentic ated
Ġ questions
V n
PROPER TY
in fluence
uff ff
J wY
P ow
Ġclass name
per iodic
uplic ated
15 08
Ospf v
Ġk o
war p
Ġhost NEWLINE
Ġl w
Ġb ag
mp o
ĠS ocket
# $
Ġf cnt
XXXXXXXX XXXXXXXX
f ine
Ġc ampaign
Ġcalled NEWLINE
ke v
ir c
ĠATT R
9 33
snapshot s
sec utive
7 37
Qu ote
Ob server
Ġ2 79
play back
Z q
ĠĠĠĠĠĠĠĠĠĠĠĠĠĠĠĠĠĠĠĠĠĠĠĠĠĠĠĠĠĠĠĠĠĠĠĠĠĠĠĠĠĠĠĠĠĠĠĠĠĠĠĠĠĠĠĠĠĠĠĠĠĠĠĠ ĠĠĠĠĠĠĠĠĠĠĠĠĠĠĠĠĠĠĠĠĠĠĠĠĠĠĠĠĠĠĠĠĠĠĠĠĠĠĠĠĠĠĠĠĠĠĠĠĠĠĠĠĠĠĠĠĠĠĠĠĠĠĠĠ
plo it
se k
Ġtk inter
Ġinterpre t
scale NEWLINE
Inter pol
appro ved
=" -
seud ow
ĠCur ve
Ġpl ural
In herit
** /
par m
Ġne ural
qual ified
ĠMo ved
b ands
07 03
un lock
ut t
ĠT ake
prot otype
mult icast
NEWLINE logger
ĠDe ep
ĠA ST
K s
fon ts
ĠTex info
Ġpri me
d ont
p ca
p late
gra ce
Ġspace NEWLINE
effect s
54 09
Ġeither NEWLINE
H c
29 38
Ġ( ``
T v
ĠValid ation
Data Set
J r
Ġre NEWLINENEWLINEfrom
Ġla g
Jo hn
[]+[ ])[
26 17
ĠW rit
w AA
View Set
Go od
Slug Field
Task s
4 36
4 79
12 12
Ġn f
tp l
ES P
ĠEx pect
T z
Ġc elery
DATA SET
"] },
Ġschedule d
In dicator
Rou tes
x M
ĠInv oked
LE CTION
AV G
Ġres idue
i u
text NEWLINENEWLINE
5 185
perm ute
ve re
ub a
Ġde leting
Ġl u
ĠT akes
E b
Ġh d
Ġno inspection
Bad Request
da mage
ri ds
p ids
Ġby groups
Ġpo licies
SC E
Ġv min
000000 01
Ġsignature x
bur g
5 27
87 1
SE CUR
freq s
Coordin ate
make One
Ġr h
Ġ2 27
Ġc ritical
j t
KEY WORD
DE ST
Ġj nx
de tections
('/') [-
ĉĠĠĠĠĠĠĠ Ġ
sym metric
r ant
Py Py
Ġreal m
Writ ing
Ġheader sNEWLINE
us able
cer n
Ġvo ice
ĠT BinaryProtocol
IC J
cc c
Al ready
Sub scriber
M AR
"" ""
pre processor
ĉĉĉĉ ĉĉĉĉĉĉ
ĠExec ute
W hat
ur g
Ġm nist
vi al
DESC R
Z oom
TO OL
$ (
Qual ity
ge m
in bound
part icles
Ġfore ground
8 44
Be arer
BY TE
to ms
dar win
ĠLo okup
ĠMO DE
al ternative
01 72
li fied
Ġcons istency
Ġw t
ĠP A
cor rection
state NEWLINENEWLINE
SECUR ITY
01 83
ke h
E c
8 17
Ġwhere NEWLINE
Ġs ink
time steps
b ility
NEWLINE l
DO C
U TI
Ġv endor
at ten
Ġsimp lify
BL ACK
{} ]
un quote
Af rica
cour ses
Ġlater NEWLINE
IIII III
b rightness
ou ght
Q I
te ardown
he ts
9 08
U f
32 00
ĠO BJ
AC AA
+ "\
Con version
]+ ',
PROG RESS
DI G
g mt
Re view
Ġco ef
4 76
g ang
ug gested
co g
C ED
Ġ" ^
ob servations
4 26
P LUGIN
Ġmask NEWLINE
ty ping
ĠH ome
Ġ:: =
Ġcache NEWLINE
de tected
. {
Ġtrain ingNEWLINE
release s
u li
id u
ĠCo uld
K r
9 73
bro ken
te arDown
32 96
Ġ4 000
ospf v
Ii Y
Acceler ated
#------------------------------------------------------------------------ -----
01 64
Q Object
ra mos
arm or
N an
Ġ" |
ĠV ol
Ġprodu ces
k Y
un ing
imp orted
s ten
ID S
Ġcomp ared
W arn
sup ply
ma intain
Ġen velope
HE LP
Ġinstanti ate
ve x
Code c
eg gs
Cal lable
ug c
Ġmp l
Phone Number
men ter
h q
]) ])
> ']],
ro ids
end NEWLINE
ĠB B
rep air
Ġdb NEWLINEfrom
Ġwhen ever
ĠE qual
B IOS
B attle
W j
ĠT Native
ĠCon tains
Ġtw itter
aug ment
ud get
s ynchron
Ġreturn NEWLINENEWLINENEWLINE
stack ed
9 37
Ġres ized
put VarInt
var type
if s
C ISCO
Ġsh op
T u
Ġe ye
STIC KY
E Z
\ |
ich ael
Ġfi xtures
ĠComple x
teri zed
Ġvis itor
S aving
da mp
author ize
Bro ker
d ol
ro ps
open ed
os ter
ag ue
SI L
O THER
8 56
e thernet
le ad
ĠM UST
8 45
DU CT
foreg round
l just
02 42
SAPT SCS
ari an
Ġentry NEWLINE
Sub net
NEWLINEa uth
Ġescape d
Comp osite
ĠDes ign
it ution
er vice
a con
Ġprint ing
Ġpy qt
W w
01 03
ĠH AS
base dir
ĠRe gex
Ġaut om
07 28
_ ("
ĠC UR
Ġfe el
Ġsell NEWLINE
FUN CTYPE
h oc
05 96
Ġs vg
asy on
Ġsk ill
bl ur
t iming
, )),
ĠPro gress
ĠDocument s
av id
ab sent
Ġm NEWLINE
Ġ''' <
db l
B ag
ĠCond ition
IT ER
+ ".
Ġdevice NEWLINE
Ġ( ((
__ ('
mode NEWLINE
S cr
85 1
pass NEWLINENEWLINE
s is
f unctools
Bu ddy
9 06
z v
': ('
9 48
NEWLINE gl
letter paper
' ~
" +"
X p
Ġmark down
ĠBe cause
acer Item
ro c
Ġmessage sNEWLINE
Band width
Ġout line
Ġinter cept
), #
C ast
H uman
ĠS EC
et ches
Track ing
S j
ir th
al gorithms
Ġamp litude
len v
Ġth rift
Ġ3 45
De leted
eng lish
prop agate
In crement
Ġ". /
J F
ur t
Ġbefore NEWLINE
ĠFalse NEWLINENEWLINEdef
Ġ200 2
]] ]
m ong
Relation ship
Ġdi e
CRIT ICAL
Ġcontain ers
Re actor
uj ian
Ġanaly ze
Ġk NEWLINE
User Name
sp w
Ġen tered
Ġvector NEWLINE
u ters
ĠR ight
n gram
te k
7 27
adv ance
assert Contains
86 14
add Layout
Ġal ive
Ġpre amble
mis match
mi um
Re ceiver
split ter
Small IntegerField
Ġtag ged
Ġ( *
Ġpro files
ĠC lo
LI BR
[ ::
ĠC ross
Ġserial ization
D m
ig a
ig i
MplsTe Standby
ct s
BO ARD
"> \
g ies
co pi
Con tract
ĠH unan
18 46
Ġresource NEWLINE
T g
ip h
block ed
as a
cell aneous
K Z
ĠA da
Ġeas ily
FFFFFF F
, ],
ĠTrue NEWLINENEWLINENEWLINEclass
arch ar
Ġs x
require ment
lo od
ĠU Int
Ġpsy copg
Ġ0 5
Object Type
T oggle
output NEWLINE
HIG H
Wait ing
Ġb all
resolver s
Ġn aming
Ġstrip ped
t utorial
unt u
Ġmat ter
03 67
CLU DE
Ġdi ffer
Ġre ST
am an
Ġread line
ug ate
T t
con struction
ĠS ym
Ġ2 75
associ ated
9 44
n A
up stream
issu er
trans formed
ateg ies
U int
Ġam ong
latt ice
ri o
di ction
R w
Feed back
Ġtile s
Log s
RE TURN
Comp ose
K j
9 27
01 02
ne utral
F lip
NEWLINE log
Ġappro ach
C CT
row d
PREC ATED
bad ge
Ġconfig parser
Ġur lopen
ONT AL
N at
o res
Ġcon current
Ġdeal NEWLINE
................ ................
? @
Neighbor Address
RE T
activ ations
ĠC annot
Ġre cognized
AN et
ĠSt ates
ĠTer min
ĠCon verts
Se ed
HHHHHHHHHHHHHHHHHHHHHHHHHHHHHHHH HHHHHHHHHHHHHHHHHHHHHHHHHHHHHHHH
c rawler
Ġ 0000
13 41
Ġear lier
st on
ĠEng lish
r in
R f
GI y
ss ian
ĉĠĠĠĠĠĠĠĠ Ġ
Y w
eval uator
C SD
Ġcolor NEWLINE
read thedocs
Ġyield s
7 20
9 54
N c
ra ge
vest ing
Ġk s
write String
Divis ionError
mark ed
Ġ2 31
74 78
te ar
Ġ' ~
07 14
=[ ])
ele ms
J v
n in
ci an
} ).
file NEWLINENEWLINE
s outh
ĠSign ature
H II
M icro
Ġ serv
ORIZ ONTAL
L sa
ĠPro perties
cros sentropy
reach able
C f
L b
P Q
Ġconver ts
8 080
getElementsBy TagName
Ġ qui
Int Field
sub tract
INST ALLED
failUnless Equal
Ġ: -
Ġv ary
Ġre ject
ĠAct ive
âĢĶâĢĶ âĢĶâĢĶ
Fl ash
Ġpro ducer
Ġfactor ies
Ġrequired NEWLINE
fut ures
ĉĉĠĠĠĠĠ Ġ
T BinaryProtocol
Ġ", "
ut i
NEWLINE add
ĠP E
R PN
Cap acity
]) (%[\\
Ġpri mitive
Rot ate
ab ling
Mark et
14 45
OS Error
; }
s ales
Cir cle
Speci fic
de se
Ġlayer sNEWLINE
or f
P TR
peak s
hand shake
Ġw a
Packet Metadata
upy ter
Ġtext s
Ġel t
THRES HOLD
Ġde scriptors
ĠAn aly
ch rome
not her
ĠSha anxi
9 03
52 38
Ġ'. '.
ĠPipe line
n arrow
TIME STAMP
seudow ire
ne ver
`` )
A AT
Ġpublish er
amili es
Ġsecond sNEWLINE
br ush
L x
Ġlocation NEWLINE
bar code
const s
Ġs light
de legate
Ġd ock
Ġg lu
not ice
Ġ[ "<
message NEWLINE
con firmed
cl in
not ation
Ġroot s
rel path
MI SSING
Ġregex p
INST ALL
############ ###
token NEWLINE
G OO
C ARD
? ")
TA IL
Ġe th
VER BOSE
ALI AS
S mooth
# @
Ġsend s
Ġprint s
ĠUni que
S d
Ġg db
T Q
number Of
Ġret NEWLINE
dic ated
Ġwindow NEWLINE
Ġutil sNEWLINEfrom
M q
W c
34 55
xa vier
Ġconvert ing
Ġcomplete ly
SM TP
Ġmodifi ers
W m
mer ce
or ten
ser bar
06 35
6862 74
mt u
Ag greg
s mb
m nt
inlineCallback sNEWLINE
Ġsmal lest
col lapse
Ġy i
Dispatch er
Ġpop up
ĠMet ric
sc all
ĠF ont
Ġelement sNEWLINE
We ak
Ġre lay
ree k
gin es
rg ba
Ġ2 60
>"] ],
Ġremove s
E u
di cation
Ġe ax
Ġal location
Ġi NEWLINENEWLINE
set Formatter
Ġelse NEWLINE
ind x
Ġpro portion
Ġpop ulated
xa ct
Ġc art
Ġsc r
ĠA lembic
roper ly
cor ing
OO L
Seq Num
ĠM esh
str al
Analy zer
6 229
re ch
add rs
ak ed
K p
RG BA
ĠCO ME
ime stamp
k ir
Model s
line Edit
04 40
NEWLINE Desc
( @
HTTP S
C ipher
G OR
set Attribute
Ġbu y
O t
Ġp layers
Ġm ul
aut omatic
Ġout NEWLINENEWLINE
Ġ0 4
st p
Ġfcnt l
8 999
AB S
Star ted
LE AN
Ġ< ==>
ist ing
Ġcapt ured
ĠS W
Sp line
Node Container
FI RM
s ibling
Ġo d
Publish er
))) *
Termin al
dec lared
Trace back
Scal ing
X g
a ver
Ġpro tected
I U
p end
PO CH
Attr s
r ms
02 90
ari os
Ġin str
Mz IW
Y e
d atum
S AN
Ġun register
Ġowner ship
ĠC ertificate
Ġbatch NEWLINE
key map
L h
name dtuple
max NEWLINE
Ġsimple json
? '
F q
ĠCon s
Ġb gp
out going
PR INT
LL ER
sh o
Up per
de z
ĠArgument Parser
Ġbit map
Ġcap abilities
Ġv an
Graph Keys
Ġyou NEWLINE
Ġfind ing
6 23
Object Factory
FAC TOR
ĠM aterial
File Dialog
li ant
Sap Provider
[' <
ld p
Ġsk image
S ched
j NEWLINE
ĠRe presents
C LA
return ed
Ġre cursively
Ġregard less
Ġpath name
T en
in ite
RC NN
ĠO OO
5 72
Ġpassword NEWLINE
Ġtime NEWLINENEWLINEfrom
J ic
ra re
w armup
Fh UUB
E f
ut ype
Ġqu ota
call prop
s np
L in
FO RE
MT P
p lex
Ġtransp arent
(' |
ĠF ujian
ĠOpen SSL
=[ [
U nt
Ġh w
77 11
RO I
L v
Ġroot NEWLINE
Ġvisual ize
roll ing
fill na
A rc
02 38
X e
Lte RrcSap
rand range
HA VE
Su ffix
parent NEWLINE
I ENT
F b
k ick
replic as
ub ic
DR AW
ag ged
q NEWLINE
Ġre aches
ing ton
an z
L c
D p
ĠN A
a ci
ce p
R r
De mo
99 92
uff led
00 18
Ijo g
RE CE
Ġmulti part
R NEWLINE
g file
Active PathOption
Ġ Keys
late ncy
======== ===
ĠT T
ĠK eras
G CG
le aky
Ġr NEWLINENEWLINE
Ġn avigation
sign atures
do ctype
h ip
fil ing
Ġf ed
il in
Par agraph
fin ally
er m
nan NEWLINE
ĠP unctuation
)] :
sv d
ĠL ia
"] ',
( #
re x
ĠM Sf
Ġ3 30
code cs
pect ive
ĠTRAN S
Ġlog it
K f
spe ll
Ġsepar ators
Component s
ĠSup ported
Ġrad io
Ġx path
Ġcompute s
E FF
ĠM ath
Ġf resh
Ġscope s
Document s
Ġ3 27
me ters
Flex ible
st rom
ĠBit Field
Ġr nd
ad c
Ġre ceiving
NEWLINE set
De precationWarning
arb age
ĠL eg
Ġ: ])
learn er
Ġprovided NEWLINE
ĠS ch
ens ity
04 04
Ġupdate NEWLINE
readField Begin
readField End
not hing
readStruct End
readStruct Begin
7 23
NE Q
ĠS cope
DJ ANGO
TBinaryProtocol Accelerated
T j
Ġsc anner
Ġw ants
Ġpro be
np ack
in planes
ĠT ab
ub untu
? =
p ager
writeField Stop
ma m
writeStruct Begin
gen re
writeStruct End
Y u
Y NEWLINE
or ian
required NEWLINEdef
ĠH DF
Ġvari ants
ĠP arent
ok u
ava il
Ġf ault
Ġa ffected
Ġad vert
sp s
Ġsp line
SG D
Man ual
_ -
label NEWLINE
FR Q
ĠSTR ING
J q
de ci
xE A
N Q
group dict
iter ate
Ġ"< /
Ġ} ]
' -<
B AG
Ġ15 00
Pl ug
D aemon
ĠĠĠĠĠĠĠĠĠĠĠĠĠĠĠĠĠĠĠĠĠĠĠĠĠĠĠĠĠĠĠĠ ĠĠĠĠĠĠĠĠĠĠĠĠĠĠĠĠĠ
l ands
O DS
pa id
E O
k ab
Ġme n
Stri ct
Ġd sz
ot ing
o ss
Ġde tections
Constraint s
ĠT X
28 00
wz OD
Ġref lection
B et
ital ic
RE AL
u cs
de al
58 0
Ġ' "><
Ġ1 00000
D v
ĠFrame work
h ue
A fi
Ġrecord ing
(' &
Ġenume ration
veget ation
5 23
Ġcategor ical
Ġcomp ut
E scape
g ine
tag ged
45 166
db name
sp ring
over all
ĠNode Class
ĠS can
| %
l ant
* <
lo ver
Wifi Mac
LO CALE
Ġw raps
Ġ", ".
Ġ rig
Re cv
Ġsl ash
ing ress
stage s
VO C
P ag
ĠApp end
00 15
ar th
... ',
Ġ1 000000
Ġnp NEWLINENEWLINE
Pa int
Ġm or
11 38
du al
Ġreturned NEWLINE
Ġ 999
ĠG ROUP
Match ing
(", ")
Ġtra j
st ors
Ġcol l
Ġdatetime NEWLINE
it ored
k ins
IP Address
ĠIM AGE
send Message
B wY
Ġsub mitted
ex cluded
SEQU ENCE
ĠS uccess
Ġ------------------------------------------------------------------------ -
sw ift
Ġf ps
h on
ĠP latform
Ġen force
mul ator
Ġmultip ly
y P
de le
De ep
Ġdeli very
rie ves
- ':
10 78
Z g
ĠIN DEX
Ġapply ing
sc ar
04 75
code NEWLINENEWLINE
ne m
142857 14
Ġrel ations
Ġme dium
ĠIn dicates
Pro be
' (\
il ong
prob abilities
su bj
rom an
Pa cific
D WORD
e igen
ab lished
Ġb ul
ĠJo hn
ĠBatch Normalization
Ġb az
car ded
09 49
res id
ĠU PDATE
k x
v il
AAAAAAAAAAAAAAAAAAAAAAAAAAAAAAAA AAAAAAAAAAAAAAAAAAAAAAAAAAAAAAAA
de sp
(' '.
ND c
Q MessageBox
Ġ4 80
Ġ2 26
Ġ3 25
Set Value
Ġn stime
ee ded
Ġr st
Ġal ter
Ge om
Ġbucket s
ĠPo ssible
step NEWLINE
nick name
subject s
ĠC enter
ĠURL NEWLINE
pre serve
Ġg a
in correct
lic ing
123456 789
min ibatch
Ġv gg
C TT
Ġfunction al
nthe tic
unit ies
V ocab
Ġlic ensing
inte raction
J d
e uler
y g
style sheet
check equal
tra jectory
\" $
Sche me
wrap pers
assert Dict
Ġd uplicates
') ",
16 56
... ",
ra ses
FT DC
ine ar
mant ics
Ġs lider
ss id
ĠOP ER
Ġtorch NEWLINEfrom
4 73
set Icon
G z
set Register
Ġbody NEWLINE
4545 4545
ate nt
Ġ' >
ĠDe ferred
LE X
9 47
Ġvalid NEWLINE
mk s
W U
b link
ĠP ol
di ffic
14 33
DE M
Pre v
PRO XY
Ġm gr
get char
97 0
EL LOW
Add resses
Applied Types
Ġc g
! --
137 2549
9 26
ĠD imension
fi ve
Ġfil t
Applied Type
** :
ĠRE S
Ġin tensity
+ ",
er cise
json NEWLINE
monitor ing
05 83
Ġare as
or row
ĠMan aged
Ġcomp osite
AR N
al m
child Nodes
ED NEWLINE
graph ic
Transient Interface
6 37
h ance
draw ing
ĠAND NEWLINE
Value NEWLINE
V IS
Ġsystem NEWLINE
ND AR
V Q
oper ands
9 13
Ġ# "
ĉĠĠĠĠĠĠĠĠĠ Ġ
vul n
termin es
se crets
A SSI
Sa int
Ġimport ing
09 18
ject ories
ST DOUT
38 55
art s
Ġto wer
db NEWLINE
her its
ĠIn clude
00 101
? ,
out box
Ġen dian
connect ivity
assertAll Close
_ ')
St ick
Ġpro tein
ilen ce
5 0000
class name
ro utine
ĠOF NEWLINE
L ater
X j
J ar
33 594
65 87
De tector
ri ef
Nt User
DI SK
Meta Data
Mh Y
Ġ[' --
min der
s dn
al an
as tern
Ġstr ong
Ġos NEWLINENEWLINEimport
tri st
Ġas sets
Ġconf usion
Po licies
65 58
Conf lict
al ic
Ġre cogn
SUB TLV
Ġ0 7
Al loc
W z
ĠBack ground
PAT CH
MessageWindow Pos
WE B
018 55
5 21
ĠSet MessageWindowPos
Su ch
H s
Class SeqNum
Sh ip
L f
P maps
set Font
* _
ant age
ĠD one
tent ially
face t
con trast
DE LE
type def
) //
Ġcon caten
Ġvalue NEWLINENEWLINENEWLINE
Ġover laps
ĠEx periment
H b
n oc
Hard ware
O CI
optim izers
Ġin ds
tern ational
Ġg m
Ġimp orter
ĠEl se
Remove d
l un
mask NEWLINE
if rame
late r
ĠPro vider
6 73
ver ification
stand ing
ĉĉĠĠĠĠĠĠ Ġ
C Readable
K b
ĠS TI
ĠW R
Ġ'/ ',
SUBTLV S
Ġ0 6
Ġp res
n br
Ġthan NEWLINE
V NEWLINE
ĠC s
Ġlo cate
mo ment
nd s
SI DE
Ġarg NEWLINE
set uptools
Ġ2 12
vo ices
g rouped
Ġsim ulate
Eval uation
9 53
ra k
TO TAL
Ver bosity
ĠA udio
fa h
hand ling
g te
N q
Ġre member
B IND
Ġup stream
ilong jiang
Ġf unct
MG MT
=( -
k now
Ġbool NEWLINENEWLINENEWLINENEWLINE
pass ive
Short cut
COOK IE
in ch
ization NEWLINE
G AT
4 23
Ġspe aker
W q
status NEWLINE
Ġdispatch er
Ġcir cuit
ar ial
Ġper iodic
',' .
ORD INAL
W dg
A udit
oct ave
Ġ' ))
param Value
ne al
j ax
Ġc rc
V d
K q
ĠP ag
re pl
et te
xff ffffff
bunt u
set Item
Ġ(" \
Ġforward s
? ')
Z SI
Ġinfo s
he artbeat
my func
Ġsub parsers
ĠDE LETE
Ġlon gest
Ġcollection sNEWLINEimport
con da
Over lay
is c
Ġco lored
Ġro ut
t ut
Test Runner
Ġlab eled
Ġsub dir
loss NEWLINE
ĠFUN CTION
compat ibility
Ġpre fer
Sub class
ĠIN SERT
W v
Bu iltin
i ct
IM AL
Mod al
b undles
NE ANet
ĠT C
Ġ' ),
8 73
ĠZ ONE
cd n
ĠHTTP Error
={} '.
ĠLia oning
Ġun supported
P ENDING
Re store
Cap Provider
set Minimum
Ġnet loc
BB B
ĠHe ilongjiang
ĠAd am
Ġtr g
y NEWLINENEWLINE
open id
pri ces
and ra
Config Instance
"> '
V v
Ġextra ctor
Pop up
: {'
post fix
H r
P cap
AA g
Ġms gs
ĠAd ded
ĠAt temp
Level s
Y s
U Q
+ ")
Ġ 000000
NEWLINE config
Tra ffic
tra it
in box
X l
Ġsig moid
COMPLE TE
15 78
ĠTemp erature
we red
wer t
Ġclass NEWLINENEWLINE
ĠCH AR
d ust
Di gest
Red uce
DH CP
Ġs lots
57 0
SUFF IX
b urn
get Value
end a
K v
V als
end ant
q id
M IX
blue tooth
SE P
ĠSu ite
]) *
Ġ(' \
NEWLINE O
non ym
re ns
CO RE
Y x
r ings
Abs olute
Ġsent inel
SV C
v ault
00 25
+ |
V PN
C apt
y ar
Ġname dtype
Ġex am
Ġmom my
down loader
Ġtrans lations
g ps
ĠL iteral
i ri
Ġd ashboard
pat ched
Ġb iz
Sign ed
e o
Ġb ed
ĠA z
ĠM I
tra p
File Handler
Ġ... )
5 73
MO V
15 15
Ġpick ing
Ġe gg
by name
Ed ges
Ġport ion
F v
k as
ĠCOPY ING
K l
Ġbe have
ui tes
J m
Ġ"{} "
(" __
('- ',
Ġs ched
re late
man agers
Ġcur ves
stdout NEWLINE
Ġsqu ares
dl g
id o
k args
86 0
Z B
Ġ24 6
126 19
(' *
j as
: ;
up sample
Ġmp u
VI SIBLE
ĠTrans fer
ĠC HE
Ġover written
W hether
` _
TI VE
8 37
ĠCur sor
F ollow
con versation
9 52
ĠE stim
Ġcir cular
V g
In ner
X v
ich t
normal s
A ds
USE D
ĠT or
=' #
Ġ@ _
par as
Plugin s
Ġob server
pen ded
j er
Ġq c
Ġk size
NEWLINE ERROR
DOT ALL
ĠFor ward
Ġcombin ations
G d
Sh ot
Ġtf NEWLINEfrom
rank s
") (
mac ros
Ġc ame
cy thon
f at
Ġtensor NEWLINE
ĠDis able
o lo
Ġunittest NEWLINENEWLINEimport
e my
ĠCRE ATE
Process Error
is p
Ra ise
comp act
Ġu d
F atal
qu arter
Ġpro posals
Ġabove NEWLINE
ro te
Ġcom mented
` ."""
ĠSup er
F ort
Ġh ub
Inst Items
Ġ10000 22
Ġnetwork x
Ġinstanti ated
ĠF il
di go
EXTEN DED
# ~
coroutine NEWLINE
as df
Ġe b
Ġfor k
Ġb ranches
node NEWLINE
Bu ff
Ġmatch er
B on
Ġcen ters
R NA
trans itive
tax onomy
Ġextra ction
(? !
C UB
SC AN
[ ['
ĠAl ways
X w
Ġkey points
Add ing
RA IN
O CT
ĉĠĠĠĠĠĠĠĠĠĠ Ġ
Ġal ternate
d na
Ġco co
NEWLINE app
ce k
escape d
Ġun able
Ġc and
V x
Ġla m
tro op
CReadable Transport
Ġf re
| @
Ġte ardown
Ġmetadata NEWLINE
Sim ilar
MO USE
s as
Ġget pass
Ġcor ners
ĠC he
Sim ulator
Ġh om
al phas
Adv anced
ar ith
at las
Ġ: =
ich r
in cluded
ament o
E nsure
Bu f
Inter net
Ġ ĠĠĠĠĠĠĠĠĠĠĠĠĠĠĠĠĠĠĠĠĠĠĠĠĠĠĠĠĠĠĠĠĠĠĠĠĠĠĠĠĠĠĠĠĠĠĠĠĠĠĠĠĠĠĠĠĠĠĠĠĠĠĠĠĠĠĠĠĠĠĠĠĠĠĠĠĠĠĠĠĠĠĠĠĠĠĠĠĠĠĠĠĠĠĠĠĉ
Ġ ĠĠĠĠĠĠĠĠĠĠĠĠĠĠĠĠĠĠĠĠĠĠĠĠĠĠĠĠĠĠĠĠĠĠĠĠĠĠĠĠĠĠĠĠĠĠĠĠĠĠĠĠĠĠĠĠĠĠĠĠĠĠĠĠĠĠĠĠĠĠĠĠĠĠĠĠĠĠĠĠĠĠĠĠĠĠĠĠĠĠĠĠĠĠĠĠĠĉ
Ġ ĠĠĠĠĠĠĠĠĠĠĠĠĠĠĠĠĠĠĠĠĠĠĠĠĠĠĠĠĠĠĠĠĠĠĠĠĠĠĠĠĠĠĠĠĠĠĠĠĠĠĠĠĠĠĠĠĠĠĠĠĠĠĠĠĠĠĠĠĠĠĠĠĠĠĠĠĠĠĠĠĠĠĠĠĠĠĠĠĠĠĠĠĠĠĠĠĠĠĉ
Ġ ĠĠĠĠĠĠĠĠĠĠĠĠĠĠĠĠĠĠĠĠĠĠĠĠĠĠĠĠĠĠĠĠĠĠĠĠĠĠĠĠĠĠĠĠĠĠĠĠĠĠĠĠĠĠĠĠĠĠĠĠĠĠĠĠĠĠĠĠĠĠĠĠĠĠĠĠĠĠĠĠĠĠĠĠĠĠĠĠĠĠĠĠĠĠĠĠĠĠĠĉ
p ds
im write
ĠDO UBLE
SING LE
in ches
Over flowError
mute x
ĠE very
Xconnect Mp
25 00
er ver
deri vative
Ġgui de
Ġapp endix
cons istency
ĠDes cribe
Sp here
z j
Ġsee m
} $
Ġ= ================================
du ctor
ĠB io
DISABLE D
en et
14 15
Ġtr ust
drop ped
htt pre
mo zilla
SO CKET
EN SION
Ġh id
bul let
8 36
get attribute
clouds dk
lic ity
sys log
Ġwork NEWLINE
w cs
en queue
ĠQ MessageBox
tri als
Ġflatten ed
Ġh ang
02 11
H m
ĠCh ild
p ul
H f
Save d
ck er
Ġcon trast
Y l
]) +
Z ERO
de nd
ce ph
Ġreport ing
K k
ri ce
n coder
Dis asm
Message Field
EX PORT
B TC
Z Q
b ird
17 45
Ġleave s
06 335
n id
Local izer
Ġan t
14 55
ra mp
file list
Ġout s
Ġ, '
lock s
Ġproperties NEWLINE
ĠIdent ifier
Ġunder NEWLINE
TA I
ĠC FUNCTYPE
Ġcrop ped
16 392
Ġ{' $
Data Source
(* [
get s
Ġsc atter
sh rink
PE ER
ĠMon itor
Ġs vc
CALE NDAR
ur y
X c
Te ch
sp ik
duce d
ierarch ical
03 66
sess ment
Ġ** *
X q
ker n
Ġstack level
tri angle
e mo
Inte ractive
ĠThe me
END POINT
IMP ORT
Ġr b
Ġtext NEWLINENEWLINE
6 10
dis cover
################################################################ ######
ip pets
Exp orter
") ],
n ar
r j
pos ite
Z c
ĠJ UMP
ĠNot hing
add Enumeration
PO L
arg min
Ġd ont
ĠDe veloper
open ssl
SC SI
X k
J b
ĠB GP
Ġnew er
month s
um m
Ġtimeout NEWLINE
Ġset NEWLINENEWLINE
E cho
ok ia
Test Base
Ġ ][
DB F
Ġsim ulator
Pre cision
? %
Ġoption NEWLINE
Ġconnect ing
in cr
ri ed
bill ing
Ġ""" """
}) \
649 03
abcdef gh
1443 7866
Ġin vol
Ġleft NEWLINE
PHO NE
9 23
J f
NEWLINEss S
v ap
trans formation
Ġadj usted
math bf
Ġ2 84
tin y
ĠNO W
Ġd ash
() *
G ate
Ġround ing
Ġcontext s
O d
89 177
S ink
Ġintegr al
Ġfit ting
P ing
ĠNormal ize
e is
un able
REF ER
IB M
ATU RES
00 28
Ġm otor
ĠB i
Ġim db
T n
error NEWLINE
Step s
inst aller
F la
in iz
Sub mit
se y
ĠPolicy Manager
g pl
im as
Ġassert ion
Ġri sk
part icip
Ġenum s
set ter
H n
ste ll
ce an
78 115
pk gs
Ġroll back
g let
caps ulation
Ġin i
Z C
Ġf etched
Ġget ter
Form ation
Al location
VI DEO
Ġsize of
Ġac celer
Ġover ri
DO NE
K m
for get
Ġopener p
Ġ ortho
X d
t ornado
Ġfast a
Con struction
seq id
cmp v
Associ ation
` -
ĠHy per
phot os
G k
ĠF ill
ĠU S
ĠM ail
ĠS an
pro cs
Ġrecur sion
ĠP ID
}. {
Ġbuild s
Me as
oo oo
ĠP UB
xxxxxxxx xxxxxxxx
Ġnp NEWLINE
=' +
ĠC ategorical
ĠY our
14 14
ĠY un
as px
L and
occ up
to wn
74 58
Ġin ferred
set state
ĠM a
< >
Con verts
Ġz mq
i ated
mime type
cvt Color
Ġ(' %
ag a
CONSTR AINT
9 42
PUB LIC
X u
]) ;
de scriptors
ĠCom munic
L Q
Ġ' )'
Ġse ctor
Ġther mo
Ġ'' ')
VERT EX
w D
Ġc url
BOO K
), \
Ġband width
Ġh r
Ġtime d
te ren
Ġqu ad
214 7483
Ġst able
Ġblob s
E o
r bose
Ġequal s
co o
Ġun set
Data TypeNEWLINE
G ORY
Ġ'/ ')
Ġ7 00
Pro duction
Ġpre fs
assemb le
HI R
MI ME
Re pr
screen shot
B q
Ġxml rpc
=% (
ua lenv
03 68
Ġtur tle
Sm art
Ġpag ination
fe li
ĠP in
H EX
List Entry
Ġinterpol ate
Ġoptim al
() [:
y ond
Ġof p
thresh olds
NOTI FY
); \
te acher
ot le
e re
c rs
Ġmap NEWLINE
Ġd ark
ĠDate time
cal ibration
Ġgoogle cloudsdk
Y g
TL M
database s
do i
HH HI
v box
un ity
Cor pus
d am
pur ge
y en
ber s
Ġdel tas
97 130
Ġaccess ible
ĠString Property
live red
c ion
en umerate
R q
p im
289 6729
c data
GL enum
/ -
int p
o log
Ġg as
lic er
Ġen emy
set Layout
anno unce
Imp orter
B AB
16 16
Ġindex er
GB wY
Ġre current
ds a
Ġmk dir
Ġview er
775 45166
Adam Optimizer
GGGGGGGG GG
Ġ utc
ĠC rypto
ds r
swig register
rot t
Ġblock ed
G v
Ġpart itions
A mp
Ġsing ular
ST E
g ab
K x
up p
Ġperform ing
|| ',
En cryption
g db
02 31
GR U
() ')
c gm
Ġdifferent NEWLINE
Ġ(' /
j v
GGGG G
ri val
} &
Check point
9 0319
RE LEASE
19 14
+ !
Ġpair wise
ĠC ity
part icipant
89 3608
ĠNU MBER
n fs
ur k
alloc ated
Ġw erkzeug
703 8574
Per f
K z
M us
286 2549
ONE NT
725 07
struct s
get pid
Ġaug ment
1694 33594
Ġ\ -
ĠB ert
g rowth
Ġdiffe rences
Part s
in omial
t tf
Id le
number NEWLINE
b ys
01 65
Ġb lend
Ġ2 17
size Policy
Ġprece dence
Ġver ified
Element Declaration
bon us
593 06335
Ġrate NEWLINE
mp Ce
set Maximum
Ġmodel NEWLINENEWLINE
3814 392
277 305
025 0511
N Fe
d nn
W g
893608 093
m S
am mi
Ġmail box
12619 01855
add Test
ĠL A
383 14437866
401 5809
1056 2896729
IP S
455 72507
510 97130
0824 64903
3715 2862549
6229 89177
8999 37152862549
78115 10562896729
90319 38314437866
277305 1261901855
0250511 169433594
4015809 893608093
45572507 3814392
51097130 77545166
082464903 59306335
622989177 7038574
79 16
Ġrand int
app y
Is Forward
new lines
-+-+-+-+ -+-+-+-+
Member ship
Y L
ins ic
view port
Ġv t
ĠMe an
00000000 000
ex on
Ġcred it
By Id
pho logy
Ġrespons ible
Ġtool tip
9 43
48 48
ash ion
ĠCO M
B id
w ap
ĠInter net
De tect
Ġ... "
O u
access or
ĠEx pr
amp litude
Ġcons ists
Ġright NEWLINE
IIIIIIII III
d ct
Ġd ri
Ġpi cture
COUN TS
NEWLINE os
export Literal
], "
n ment
AN K
For Width
Ġv c
New s
Ġin complete
Ġm time
Ġre m
n cmds
Ġsingle ton
Restricted ClassType
Ġb gl
FF T
) (\
Connection s
ex periments
Ġgener ally
at iv
ĠT ick
work dir
Ġd atum
ĠO ct
01 27
Ġbuff ers
Fsm Task
Ġanon ymous
Ġ" ']"
Ġm utable
IC A
ĠA CL
9 000
ic orn
ne cessary
O a
', )",
listen ers
it m
ĠP ur
tri ste
level NEWLINE
ac s
=' ''
ĠE lectron
ĠR SA
Ġqu er
Ġ2 64
book mark
f usion
i pt
Model Form
je ctions
P IN
Ġv el
Ġpre sence
S lots
m utable
t ips
re levant
ĠMpls Te
J SONE
R ay
t L
ĠQ ual
T AGS
Ġh df
str at
TT OM
set ToolTip
M IDDLE
h orizon
om as
Ġp name
ĠP anel
Ġ12 34
ĠOr ganization
Ġhe ads
Ġapprox imate
ul ating
Ġtop NEWLINE
5 30
Ġpython NEWLINENEWLINEimport
}, {
li ptic
text ures
Ġpre processor
ĠB O
Attribute Accessor
Ġemail s
ĠDAT AT
(" |
G uid
ĠR UN
Ġsuper class
Ġtree NEWLINE
bar NEWLINE
19 35
pro tect
roperly Configured
Man age
S LOT
Ġprotocol s
ĠS A
cre asing
Ġun ix
Record ing
at m
Ġasc ending
Ġscale NEWLINE
sto res
de a
09 67
8 21
() ")
Ġspe cs
ale x
ND w
Ġcoordinate sNEWLINE
: %(
W ar
us hed
ĠRe p
exp onent
ot hed
iter tools
Ġb ill
ss d
04 08
au di
into sh
Ġitem list
Ġword NEWLINE
Ġs lide
qu at
WOR LD
re tain
inst ant
Integr al
PACK AGE
S x
79 88
B one
n P
8 53
Ġc ron
E xc
Ġpre ference
mand atory
Ġpy gments
< ;
Ġ/ >\
Ġdate NEWLINE
sdn aik
Ġsub scriber
8 76
/ *.
phys ics
X A
Ġre write
la mb
Ġpre set
64 32
sens ors
04 05
' #
Cor rect
T orch
Ġf its
Ġeffect s
): \
ĠTalk End
Pr V
Ġagain NEWLINE
Ġarray sNEWLINE
s chool
temp oral
Y D
Ġle d
Ġsh rink
k ip
stop ping
Ġnormal izer
Instance Container
SrPolicy Address
Part icle
ĠPh one
. ))
cor o
Ġrep lica
J T
Ġthere NEWLINE
sim ulate
GR AY
commend ation
a ul
ĠA g
CCSD T
DOWN LOAD
Ġuse rid
so li
y ak
Ġse lenium
_ ),
Ġprefix NEWLINE
Ġexpected NEWLINE
J ust
ĠTen cent
Ġ[' .
f el
lj iv
$ "
Con tinue
CODE S
Ġf rappe
ĠD ocker
og g
Ġmod name
Ġa w
SHO W
ser s
Size Policy
2727 2727
ĠTk inter
ĠWork er
ĉĉĉĠ Ġ
Ġprep ared
Ġdiv mod
G p
check ing
Ġm utation
ĠR untime
h ab
M otion
li days
11 56
ĠOP TYPE
respon ds
ĠReg ular
y z
File Descriptor
factor ies
O e
fore ver
Ġv box
HHHHHHHHHHHHHHHHHHHHHHHHHHHHHHHH HHHHHHHH
ĠChar Field
_ "+
h air
Ff Mac
de lim
Ġprop agate
AU DIO
Ġac quire
S ales
Delta Max
Ġhighlight ing
ĠG mb
ke it
In correct
ric an
ĠCon structor
Ġio NEWLINEimport
Ġse mi
ref ine
ĠMin imum
Ġh yp
ifi cial
Ġda mage
ĠR ULE
K c
Ġyield NEWLINE
([ \
Delta Min
X o
ĠFalse NEWLINENEWLINENEWLINEclass
Tests From
ĠReg istry
gress ion
ĠX in
Ġmp f
Ġrestri cted
9 72
Ġas n
Soft max
] ]:
ĠB ody
st udy
I ER
TH OST
Ġc StringIO
ED DDDD
Delta Avg
_ {}'.
s mal
Z ER
Ġs al
1 000000
vi o
Z U
Ġh mac
EX IT
FUN C
p ci
r ds
r ance
ĠLi ke
Ġper forms
B rowse
Height ForWidth
h av
M ul
Ġi c
Cl one
Z N
ĠC T
ĠSY LL
work sheet
dat adir
Cho ose
bus y
db us
pc ap
Ġchannel NEWLINE
05 12
ĠArgument sNEWLINE
uby te
() =
33 11
Ġchange NEWLINE
ance stors
Type NEWLINENEWLINE
Ġ2 82
f us
X Q
ĠGe ometry
man ip
Ġaffili ates
Ġg rep
Con t
Char ge
ĠZ one
IIIIIIII I
115 0922
VOLU ME
AT OM
prep end
: </
z ing
'} }
1150922 126
ap pear
Ġnecessary NEWLINE
Ġde serialize
0909 0909
Ġc u
color bar
)))) ))))
combo Box
Page d
Could n
Pro vides
J V
Ġs mo
li r
Sp awn
U ndo
=\" $
s and
n ag
00 32
Q Font
Click ed
Ġpredi ctor
Ġ104 166666
{ _
00 22
Ġ' =='
top k
LI SH
PD v
AG ER
lips is
Ġre corded
ID ENTI
de ath
ĠTw isted
di rections
NEWLINEauth or
Z f
PL AT
format ting
AB IC
Ġp ng
Ġur lencode
77 36
ĠA ng
aut odoc
N IST
ro g
ĠM ost
H alf
Ġsan ity
Start Time
om aly
r na
Ġref ers
re ve
Push Button
(': ')[
00 16
Wifi Mode
H ER
04 02
Ġtime step
IG N
Ma jor
ĠVariable s
\ _
K N
Help Formatter
S olution
ĠZ ip
Ġ'" '
s lack
fq dn
Ġfin ite
in crease
cl k
Ġdetermin istic
pk ts
ĠLog ging
Ġ[ <
current Index
( \\
Ġobj c
M irror
Ġd ur
n dims
Predi ction
ĠGrad ient
E MB
Ġs am
__ ']
< ?
build ings
Q CTF
M art
CE L
mp f
NEWLINENEWLINENEWLINE async
lo ye
Ġenvironment NEWLINE
T her
ime s
Add References
VI RT
ĠUp load
Ġtes ter
Solid Pattern
b last
aky ReLU
M ER
ri ends
I AN
UN DO
inter mediate
Ġsupport NEWLINE
ĠH and
Ġz ope
NEWLINE Y
S ender
c rit
Ġupdate r
fri ends
Com munity
={} )
Ġnode NEWLINENEWLINE
Ġav ailability
Ġd og
Ġagent s
Ġcontrib ution
Ġden ominator
X O
Ġpad x
lock ing
be re
C os
Ġ[' __
p it
in validate
fr m
Ġsn ippet
C q
ons ter
066 5
00 17
Par sing
12 08
index NEWLINENEWLINE
py name
], \
68 25
li sp
de scriptions
Ġd iffic
ĠCo ordin
pro portion
a op
======== ==
Ġaxis NEWLINE
YY YY
Ġe f
Ġ3 52
S he
by e
Output Stream
cent roid
Ġtemplate NEWLINE
]- "
oc tet
Ġsur f
Ġfe ats
version NEWLINENEWLINE
Ġass uming
Ġvol tage
Ġch apter
ms i
Ġsub tract
nt dll
Ġun changed
Ġmark s
ĠA rea
le ading
ĠY AML
ĠTw itter
DATE TIME
Ġch i
pri m
G AA
og ene
ĠIn ventory
n avigation
M ob
qu o
ĠValueError NEWLINE
HEAD ERS
Ġtag sNEWLINE
il legal
ment NEWLINE
shell code
con form
Ġmodel sNEWLINE
ĠGuang xi
033 6
86 188
ĠLe ft
SPE CI
Place holder
N ix
dot s
Ġvox el
ĠPY THON
ĠPub lish
appen dices
no b
ĠRE QU
om s
writ able
00 13
fore cast
gon al
Ġst ops
Ġassoci ation
Ġleg al
te ra
temp file
her o
ĠF uture
Ġpo oled
Ġpad y
S UR
x AB
:// /
in ated
atter y
MULTI LINE
Ġmanual s
8 72
cred its
e ma
ser vo
Ġdis c
Ġc txt
ĠF unc
explo it
atex it
ĠLD AP
+ ?
Ġlin ux
10 64
03 96
Advertised Path
Com bin
Http Request
ĠI ID
Ġen sures
Ġo o
ĠPython NEWLINE
Ġnull NEWLINE
X f
W allet
15 85
Ġcred s
05 91
AL U
Comp utes
In tel
Ph ys
ĠYun nan
Mz I
Ġlo cally
Ġos lo
Stream s
fl t
39 13
67 0
Ġturn ed
Document ation
CallbackImpl Base
[" _
ĠGui de
ĠSe lection
ĠProtocol Buffer
Ġt n
ĠU rl
Mpls L
Ġexplo it
pol ynomial
ĠDATAT YPES
Ġtermin ated
ci ll
ap k
Y ANG
Ġp ulse
light s
Syn aptic
re strict
debug ger
un changed
with draw
Ġtri ed
Ġreturn sNEWLINE
Ġw m
ck e
Ġtick er
Target NodeId
ft s
Mh YVFA
Ġa chie
Day s
T REE
ĠMulti Index
Number s
AddReferences Item
> ".
Ġdatabase s
!+[ ]+
Ġb anner
F raction
ss i
:// '
Ġ ĠĠĠĠĠĠĠĠĉĉ
ĠA ug
ĠD H
s df
i oc
Source NodeId
} <
op c
r ust
Ġseq id
import ant
emp t
ND Y
radost an
ĠCOMP ARE
F ED
G f
Sw ap
Ġshe ets
h gt
ĠC U
Y k
n ullable
ar ab
), ){
re hen
Ġco vered
Ġht t
extra ction
Fore st
ren dered
lower case
Ġchange dNEWLINE
ĠĠĠĠĠĠĠĠĠĠĠĠĠĠĠĠĠĠĠĠĠĠĠĠĠĠĠĠĠĠĠĠ ĠĠĠĠĠĠĠĠĠĠĠĠĠĠĠĠ
class ify
ĠOpen API
GE O
Y J
bil inear
SIG NED
Choice Field
i B
urn ament
fil m
e lection
ar able
ĠS core
Ġd raft
pr incipal
commit s
', ))
Target NodeClass
vis itor
ĠG ra
TR IES
33333333 33333333
key NEWLINENEWLINE
wer k
le k
Path Info
ĠIn stead
{} :
S patial
j z
Ġ.. ..
D to
=' +',
O x
ref er
(" =
Add Element
timestamp s
setWindow Title
S ampling
bound aries
Read s
ĠAct ivity
Ġex on
G IS
S un
or o
hyper params
De livery
Example s
S HE
ĠU DP
M ERCHANTABILITY
optim ization
ex us
String Property
ĠNO QA
obj NEWLINE
trans lator
ĠO ffset
Ġinv ocation
Ġkw arg
)? (
x form
ĠFlat ten
NEWLINE source
Ġne ither
Ġplain text
InputData Fields
ri ters
Ġb colors
ro gate
Ġactiv ations
MAX IMUM
in en
arg o
Re peat
Co verage
F igure
rain s
Ġregular izer
assertAll Equal
ĠS ql
ĠF R
ment ions
V U
Con tour
he mat
CT X
tab ular
et ype
poly morphic
Ġne ighbour
simp lify
Ġm v
sa fi
NEWLINEb ut
Ġe a
min er
sn r
pro of
Ve locity
L q
ĠS te
Ġper mutation
file Path
f resh
Ġal ipay
c udnn
Ġdone NEWLINE
al d
Ġcycle s
") ])
Ġadv anced
Test All
(" (
g love
get state
ran de
f as
ok er
assert ion
RESULT S
distri ct
Ġorigin ally
Ġco res
PI X
type code
AS ON
Ġ' +'
tk inter
ĠRe al
89 0
aggreg ation
Ġe lect
qu ivo
64 65
k op
9 31
cient ific
Pre dict
Ġcommunic ation
ĠF actor
ĠResult s
Blue tooth
ĠX ml
Min or
NEWLINENEWLINE plt
Q Point
Ġda ily
ee ee
T q
ĠD ig
ĠW rapper
ĠTechno logies
t angible
Tag Iterator
the mes
File System
.* ')
ĠMongo lia
l q
Call s
Static Text
Y t
deri ved
st acle
04 44
min imal
in sensitive
"] /
ĠDe pendency
k ra
we e
R ig
MODI FY
Ġpost Synaptic
Ġline style
Ġw ent
Ġg data
Ġ' ('
val or
00 24
ĠD OT
play ing
Ġaccept able
Ġw ww
Ġ2 98
De cl
8 23
fi b
Ġso on
C ategorical
m art
Ġpy plot
ĠUser s
Ġto ok
cancel led
e mu
py ramid
00 29
Ġr q
LIBR ARY
C ENT
Re start
Nj My
no isy
g cc
bb b
valid ated
default dict
PRE V
org NEWLINE
Ġ served
j m
assert Less
Ġpro posed
api key
Ġnot ation
ĠB ind
Instance NEWLINE
Ġk p
Ġin tr
z fill
in cident
Ġt vm
Network s
Ġen codings
ĠCo okie
P Set
single ton
P q
e ax
tra iling
Ġfinal ize
o ssible
pre ce
Ġrep orter
xE F
b ay
Ġb am
Ġstream ing
Base TestCase
GL uint
Ġsys NEWLINENEWLINEimport
Ġsub title
Ġwas NEWLINE
4 30
Z O
Ġreason s
T NEWLINENEWLINE
nt p
Path Information
ĠW here
Run s
Ġoptim ized
Ali ve
ate ly
Activ ate
Ġ' //
ax i
tra cer
Ġoff er
re ps
Ġ? ,
st retch
Ġlocal host
ac ao
Ġglu on
ĠNum Py
Ġsuc ceed
ST C
W f
Man ifest
aris ons
Ġservice NEWLINE
09 02
ĠLim ited
ĠSim ilar
= $
Ġun quote
S leep
vest ig
Ġdis count
Ġsample sNEWLINE
ĠEX IST
j Q
Data NEWLINE
SE PAR
E xcd
room s
Sig ma
datas ource
class P
class Encode
vers arial
K t
IF Y
Ġlimit NEWLINE
ĠAli gn
TraceSource Accessor
ĠComp are
US AGE
gy m
re build
ategor ies
Ġdefined NEWLINE
X I
Ġh NEWLINE
sum s
b ec
Ġ2 16
pos able
Ġf k
Ġcal ibration
p aired
FE ATURE
Ġspect ral
Ġdeci de
st ad
w agtail
], !
Ġconnect ivity
() ["
write lines
ang zhou
() +
Ġco erce
Ġcheck points
p key
mal loc
o acc
EN C
ref und
Sub object
Tag Buffer
ĠCHE CK
ĠW C
Ġbreak point
Ġl bl
Fin ish
ĠsysNEWLINE sys
Ġl t
B old
ic er
Ġh ypothesis
C UE
Ġbuffer NEWLINE
M argins
Ġslight ly
ĠFunction s
u gs
lat ing
Cap ability
~~~~~~~~~~~~~~~~ ~~~~~~~~~~~~~~~~
digit al
J PEG
DI AG
_ ='',
par ity
on a
it ro
88 00
G ene
NEWLINE async
34 14
Ġitertool sNEWLINEimport
ĠG A
CH ILD
Ġd ll
oci al
kt ion
j f
DIST ANCE
17 04
ĠL ight
Sim ulation
Ġindent ation
O ct
ol ded
100 7
) `.
Ġf u
Ġ'? '
assertDict Equal
ĠM L
Ġw izard
ĠP EP
Sh utdown
Ġf ab
Range s
Ġ3 01
ĠB oth
ObjectId Names
ine se
Ġread NEWLINE
Ġequal ity
Reg ressor
Ġmemory NEWLINE
Version s
l ng
Ġfilter NEWLINE
D ST
Ġs ale
00 65
Ġh ass
\ ",
Ġw armup
Ser v
Ġin dicesNEWLINE
AfterPolicy In
non linear
} ((
Ġkw argsNEWLINE
AA B
ve is
xml NEWLINE
WH ERE
k un
Ġt alk
Ġf akes
Ġsqu ared
NEWLINE ObjectIdNames
ad m
> [^
ca ch
Ġhandler NEWLINE
11 65
har aka
""" .
Y B
j g
15 44
tri es
Y b
Ġlike NEWLINE
# _
j h
| ,
ĠF eb
ill ar
Ġp aste
l ard
Ġtest lib
- ~
06 06
') "
ag ram
ther mal
Ġ" ../
supp lier
G lv
Ġy NEWLINENEWLINE
tes se
vox el
ar ded
Ġwrit able
Ġl attice
Ġb d
X m
]) {
Ġdump s
b ake
T ake
ĠQ Q
un ame
ma i
Me dium
ber ry
activ ities
Ġhashlib NEWLINEimport
ge b
ak o
m st
Ġch ance
45 66
ĠAl pha
T MP
REGI STR
ect ors
Pro tection
__ "
Ġh ouse
>âĢ Ļ
deri v
Model Index
poly gons
cl assesNEWLINE
interest ing
Ġaggreg ation
Ġ'\ '
01 77
]) },
B ORDER
um ber
""" \
Ġ ĠĠĠĠĠĠĠĠĠĉĉ
me mb
f inger
ul der
Re ward
Ġdate util
Me chanism
range NEWLINE
Per iodic
equal ity
Y r
Ġst ra
contour s
18 95
Ġ8 1341
Ġsp here
Ġvalues NEWLINENEWLINE
- |
12 29
Bound ing
NEWLINE and
ĠOn ce
um bs
o U
act s
o main
To File
Skip ping
To Tensor
ffe rence
MA LI
p du
all ing
ĠN eg
tab stop
e pi
Ġgener ators
launch er
Ġ#---------------------------------------------------------------- ------
mb ox
Ġpath sNEWLINE
Ent ities
OOOO OOOO
ra ms
B OT
Named TemporaryFile
Ġgroup ing
Work ing
Ġb v
ko mp
Ġst anza
Col lect
P od
oth ers
Ġreference NEWLINE
Ġqueue NEWLINE
j q
LE T
Ġstat uses
y ms
[' ''
Ġclo sure
g ly
Ġtimestamp s
4 21
D q
j unk
ĠJava Script
"] =
Ġw NEWLINE
Pur chase
I US
Ġsome one
ut y
w it
LE SS
bo o
SD L
Ġi ris
Ġrest ored
C rypt
Ġ ĠĠĠĠĠĠĠĠĠĠĉĉ
ck en
Cache d
Cor ner
ĠP L
Ġ[ --
dd t
AI NED
pol ys
loye es
s weep
ĠK L
Ġca ught
S NEWLINENEWLINE
FA KE
Ġf rontend
Ġ` .
Ġst reet
ME D
J N
co lo
os v
pr j
ĠXin jiang
Ġfollow ingNEWLINE
m ux
Ġbreak s
us ive
:: __
interpre ter
Ġproject NEWLINE
Ġ'. ',
Ġcon versation
r rc
19 70
en force
ĠS K
n The
er ial
Ġsearch ing
- ')
Ġp al
ted NEWLINE
12 44
Z x
i ver
TR ACE
n ice
are house
ident ify
ĠB lender
ĠGNU NEWLINE
Size NEWLINE
Ġallow ing
------- +
ĠComp any
G MT
11 58
ĠComp utes
di k
s ke
Ġs coring
Ġsc en
h mac
ran e
on sor
ĠMO DEL
S af
Ġcla im
1818 1818
Q Dialog
vis ited
Ep isode
rich let
break able
Ġshow ing
rat ings
Ġal most
py thia
(': ',
d ce
Un defined
in form
13 66
prop agation
G rp
tra ces
IIIIIIIIIIII II
Ġcluster ing
Ġp cap
Box Sizer
restri cted
j U
Bo ost
cache NEWLINE
Ġ" ").
l se
NE XT
Ġr python
APP LICATION
" [
Ġt tk
77 19
ut z
Ġcalcul ations
Ġth rown
Ġ2 22
Ġpur chase
remain der
v q
ĠL R
person al
( &
Rep orter
root NEWLINE
Ġ__ _
X x
lex ers
" ",
12 24
placeholder s
Y M
Ġme ant
78 26
con tinu
ĠA xis
ĠRaise sNEWLINE
@ {
M ol
field name
Ġ` _
ĠO racle
op NEWLINE
p format
interpre t
D EN
Ġ ERR
np c
r nd
ert ia
ub i
Ġbox NEWLINE
Ġd set
Ġcum ulative
b ac
Ġg arbage
Ġthrough out
cy an
CP P
Ġro idb
sg d
64 77
CH UNK
n q
]] +(
Ġ3 15
Ġn ume
31 337
ĠSh anxi
c D
Calcul ator
u q
Object Property
bs d
iz a
address NEWLINE
c rawl
ĠH ar
Class NEWLINE
Ġsever ity
P rom
get size
Ġf und
Tran spose
ig er
EC D
Ġne uron
re map
multi processing
load txt
AN GE
diff use
Ġn i
98 69
Speci fication
RO LL
Lim its
length NEWLINENEWLINE
MAP PING
status bar
; %
Ġflag NEWLINE
id om
Ġrecur se
R ng
77 72
Lock ed
" *
or cid
Ġinstead NEWLINE
Nix Vector
] ]],
86 17
Ġassign ments
Ġi gnoring
L SP
Ġ[] }
Re v
ĠSo ft
Art ist
Ġmay a
Ġspe ll
Ġ14073748834 4
ate NEWLINE
n ach
ĠSh ared
n net
Ġe e
analy tics
4 31
Y U
adj acency
fit ness
B AM
Equal s
RO T
ĠDO WN
min NEWLINE
Ġcalcul ating
bon ds
C ube
su it
NEWLINE V
s ib
O I
ndarray NEWLINE
t ical
or bit
Ġco up
ifi car
Ġview NEWLINE
al ternate
ĠM ouse
Ġsym link
ĠUse ful
right s
[- ]
Z IP
WS GI
Ġi cons
Ġsign ing
Ġas sembly
Z d
Ġse m
TER NAL
plan et
[...]
